<unk>
<blank>
<s>
</s>
the
of
to
and
in
is
that
a
we
i
for
this
on
it
be
are
have
as
not
with
european
which
will
by
has
mr
at
an
would
also
should
our
must
but
from
all
there
been
commission
president,
you
-
can
was
member
these
more
its
they
like
very
what
do
their
or
if
one
my
no
parliament
about
need
report
so
union
states
only
new
other
us
important
eu
council
who
am
however,
because
such
take
some
when
make
now
support
people
into
those
up
between
countries
any
europe
out
therefore
being
political
many
economic
policy
were
than
time
first
believe
made
social
against
work
just
human
rights
committee
think
does
even
cannot
way
how
say
two
could
most
want
had
debate
same
development
national
question
international
already
proposal
thank
financial
your
where
public
right
order
good
within
still
both
much
mrs
why
point
them
common
fact
see
he
able
under
that,
his
agreement
issue
may
me
situation
over
measures
vote
clear
use
hope
part
ensure
community
last
market
put
taken
without
well
ladies
here
number
madam
members
state
energy
gentlemen,
group
own
–
know
great
and,
cooperation
possible
legal
means
give
before
through
then
since
given
let
particularly
future
action
'@@
directive
too
place
information
s
said
united
citizens
.
after
commissioner
security
years
amendments
union.
country
whether
world
commissioner,
far
set
further
rules
next
certain
president
favour
protection
system
problem
amendment
view
trade
government
end
it.
necessary
role
area
particular
problems
agree
come
states.
today
regard
different
help
needs
continue
ask
budget
framework
process
better
health
wish
position
going
house
resolution
voted
case
during
respect
treaty
few
welcome
something
every
three
level
europe.
proposals
issues
report.
towards
shall
year
working
matter
behalf
adopted
quite
current
really
long
go
programme
did
present
terms
done
basis
another
fundamental
environmental
once
progress
women
second
provide
aid
course,
become
areas
internal
specific
find
general
therefore,
including
clearly
proposed
especially
yet
decision
again
greater
rapporteur
increase
presidency
opportunity
is,
always
commission's
regulation
serious
used
services
rather
major
time,
get
democratic
all,
states,
each
taking
importance
research
result
allow
while
call
change
whole
third
deal
countries.
forward
high
real
making
look
legislation
policy.
small
achieve
million
based
various
having
strategy
report,
difficult
approach
safety
transport
single
free
law
example,
access
course
commission,
essential
subject
principle
parliament,
this.
account
positive
attention
down
food
fully
consider
commission.
certainly
effective
although
efforts
less
regional
un@@
employment
,
conditions
finally,
implementation
agricultural
together
union,
eur
back
global
crisis
responsibility
recent
least
extremely
foreign
following
simply
parliament.
this,
large
concerns
sector
her
best
often
institutions
full
negotiations
main
authorities
step
bring
?
resources
opinion
freedom
accept
article
funds
developing
actually
europe,
things
them.
create
reform
concerning
might
joint
money
de
reason
council,
improve
perhaps
currently
growth
re@@
countries,
control
interests
court
key
points
quality
rule
industry
you,
fight
'
climate
products
majority
central
parliament's
regarding
aware
lisbon
policies
itself
procedure
impact
among
secondly,
start
objective
special
form
understand
example
questions
several
decisions
relations
congratulate
involved
concern
open
policy,
interest
nuclear
competition
power
structural
peace
consumer
democracy
little
sustainable
excellent
said,
civil
appropriate
meeting
regards
doing
dialogue
legislative
lack
feel
nothing
responsible
today,
agreements
significant
draft
individual
regions
concerned
writing.
:
makes
sure
final
labour
available
standards
longer
risk
;
council.
indeed
companies
affairs
strong
-@@
1
promote
rights.
solution
future.
production
's
due
time.
kind
local
market.
budgetary
lead
which,
prevent
particular,
environment
mean
results
young
above
existing
stability
it,
aim
she
guarantee
remain
act
until
initiative
management
comes
external
objectives
seen
pleased
data
that.
commitment
euro
provided
tax
s.
agreed
programmes
include
seems
plan
text
share
party
idea
force
never
technical
society
play
upon
line
thing
relation
apply
according
in@@
union's
fact,
compromise
voting
mentioned
period
funding
enlargement
fund
workers
move
basic
conference
s,
groups
despite
principles
firstly,
true
needed
children
economy
benefit
agenda
rights,
field
years.
asked
thus
express
year.
priority
reduce
investment
carried
pay
equal
protect
fisheries
justice
throughout
everyone
show
keep
000
military
cultural
speak
contribution
nor
consumers
work.
parliamentary
reports
solidarity
words
rapporteur,
crucial
draw
meet
talking
off
costs
life
summit
enough
governments
increased
adopt
achieved
education
soon
context
previous
accession
everything
convention
furthermore,
turkey
parties
cohesion
response
communication
projects
changes
aspects
matters
group.
now,
monetary
using
view,
level.
too,
relating
across
tabled
called
region
around
answer
held
saying
four
jobs
thanks
us.
hand,
discussion
presented
increasing
rural
absolutely
develop
provisions
today.
mention
themselves
close
cases
try
address
prepared
unfortunately,
creation
service
world.
minutes
issue.
here.
activities
focus
statement
eu.
almost
business
years,
eu's
citizens.
us,
item
colleagues
him
reach
coming
possible.
fellow
assistance
five
talk
monitoring
actions
request
area.
moreover,
year,
russia
systems
decided
effect
ourselves
expressed
transparency
ing,
people.
brought
road
establish
tell
agriculture
face
additional
!
illegal
vital
application
president-in-office
case,
reasons
though
implement
know,
fishing
along
nations
integration
opportunities
completely
so,
others
closed.
balance
namely
direct
private
took
potential
process.
honourable
fair
months
reached
consequences
led
left
minister
europe's
encourage
ing.
day
demand
giving
raised
review
enable
un
takes
debate.
supported
begin
lot
war
indeed,
pressure
concerned,
experience
criminal
outside
farmers
natural
opinion,
air
whose
note
required
discuss
violence
british
regulations
expect
remains
job
included
strengthen
amount
practical
humanitarian
cause
past
received
behind
not,
project
value
country.
creating
success
ensuring
reduction
movement
stress
values
doubt
offer
proper
task
found
instead
relevant
population
here,
partnership
instrument
country,
defence
living
development.
effects
cost
recently
waste
effort
instruments
people,
scientific
avoid
motion
heard
precisely
live
dis@@
criteria
discussed
sense
trying
water
possibility
procedures
times
carry
administrative
e@@
‘@@
2
french
goes
huge
training
stop
approved
established
directive.
requirements
initiatives
list
price
light
es
discussions
10
active
aimed
challenges
turn
paragraph
but,
reference
sector.
elections
considered
ever
provides
add
allowed
contribute
representatives
coordination
shown
considerable
market,
green
d@@
dealing
group,
proposal.
markets
system.
poverty
strategic
s@@
scope
either
implementing
total
are,
institutional
personal
six
requires
industrial
law.
victims
away
improving
priorities
adoption
quickly
situation.
rightly
accordance
receive
independent
combat
addition,
long-term
nature
beyond
powers
short
old
conflict
assessment
finally
prime
non-@@
per
providing
applied
agreement.
confidence
moment
nevertheless,
organisations
constitutional
committed
way,
es.
looking
calls
well.
3
annual
15
sitting
promoting
12
propose
remind
message
minimum
developed
obviously
ten
men
way.
20
eastern
hard
asylum
irish
again,
tomorrow
overall
problem.
ing
implemented
urgent
wanted
words,
billion
shows
package
future,
urge
ministers
steps
animal
china
entire
home
events
mind
gives
return
practice
forms
decide
referred
introduction
question.
stand
hand
maintain
hear
treatment
achieving
es,
supporting
bank
complete
’s
say,
closely
successful
matter.
participation
provision
sometimes
reforms
half
similar
ago
emissions
increasingly
levels
paid
paper
setting
financing
produce
discussing
combating
guidelines
medium-sized
affected
cut
rate
republic
reducing
then,
emphasise
capacity
leave
stated
eu,
%
benefits
beginning
ban
immigration
middle
areas.
organisation
represents
so.
highly
early
genuine
require
cross-border
environment,
higher
join
german
k@@
calling
care
ways
refer
sea
challenge
conclusions
programme.
important.
views
stage
issues.
ago,
anything
death
directly
former
on.
s?
caused
created
follow
oil
written
competitiveness
respond
culture
people's
support.
budget.
de@@
strengthening
exchange
constitution
statements
them,
extent
candidate
ation.
becoming
solutions
ambitious
concrete
speaking
one.
treaty.
intended
represent
sufficient
fr
terrorism
document
probably
comprehensive
wants
police
type
entirely
convinced
december
efficiency
g@@
authority
too.
recognise
duty
family
media
comments
unemployment
exactly
raise
gas
legislation.
so-called
vote.
asking
connection
introduce
pointed
all.
south
'.
poor
efficient
strongly
work,
border
difficulties
produced
status
al@@
house.
procedure.
limited
model
competitive
broad
facing
rise
accepted
aspect
prices
t@@
hold
regret
directive,
building
businesses
debate,
thirdly,
agency
level,
june
limit
applies
equality
closer
partners
b@@
dealt
development,
establishing
remember
plans
specifically
american
constructive
demands
opening
"@@
east
supply
ireland
o@@
critical
big
democrats
forces
5
related
balanced
consideration
t,
crisis.
25
agreement,
knowledge
proposal,
western
f@@
now.
growing
neither
capital
wto
p@@
putting
action.
commercial
goods
integrated
happy
reason,
technology
parts
pl
study
bear
week
innovation
term
whom
4
discrimination
measure
mutual
mainly
content
cooperation.
contains
known
added
outcome
t.
problems.
society.
drawn
spanish
negative
russian
delegation
30
aims
useful
ation,
rest
alternative
sensitive
forget
seek
came
sort
merely
unfortunately
effectively
side
comment
unable
word
y.
11
out,
commitments
environment.
issue,
recognition
product
days
name
purpose
sectors
palestinian
build
january
myself
renewable
seem
send
differences
thousands
a,
enormous
trust
attempt
leading
i@@
well,
institutions.
world,
possible,
citizens,
economy.
representative
developments
seriously
crime
ought
official
sector,
intend
submitted
charter
bringing
thinking
c@@
wrong
totally
concerned.
supports
unacceptable
ed
concept
introduced
laid
damage
faced
measures.
out.
france
properly
fall
important,
relationship
threat
influence
6
region.
opposition
elements
happened
regime
spirit
getting
thought
actual
please
will,
y,
dangerous
state.
law,
grateful
risks
area,
oral
establishment
liberalisation
substantial
industry,
organised
ability
includes
borders
services.
council's
managed
reality
worked
north
ate
2000
continuing
informed
addition
i,
mediterranean
point,
improved
me,
on,
greatest
intergovernmental
m@@
nos
speech
opposed
elected
read
told
house,
point.
van
forced
conclusion
expenditure
original
press
strategy.
age
sound
consensus
turkish
reject
language
gender
chance
history
animals
a.
crisis,
anyone
reading
over@@
system,
whilst
low
citizens'
extend
declaration
prevention
reduced
says
place.
t
easy
finance
improvement
protecting
recommendations
resolve
today's
conclude
programme,
schengen
treaty,
northern
ed.
you.
flexibility
immediate
truly
highlight
italian
lives
adequate
failure
fear
process,
signed
ready
date
happen
office
evidence
cover
there.
socialist
intention
case.
swedish
8
consultation
involving
analysis
europeans
industry.
addressed
association
tackle
starting
s'
change.
desire
n@@
co@@
be@@
staff
7
a@@
enterprises
maritime
appear
understanding
explain
mechanism
policies.
producers
detailed
o
direction
documents
ar@@
democracy.
bilateral
acceptable
methods
interesting
company
internet
ers
shared
uk
because,
l@@
p.m.
burden
correct
export
though,
brussels
complex
resolution.
wishes
presidency,
linked
red
ro@@
respect,
child
involvement
judicial
protection.
involve
seeking
africa
march
definition
commission’s
itself.
secure
committee.
network
y@@
series
failed
9
exercise
promotion
unless
also,
en@@
transparent
laws
sign
lost
worth
affairs,
ating
ideas
situation,
approval
naturally
regulatory
sanctions
activity
bad
serve
comply
done.
election
african
later
sources
element
method
earlier
committee,
met
meps
fish
range
defend
discharge
attitude
exist
adopting
ation
weeks
areas,
initial
question,
speaker
appears
decision-making
amongst
d.
degree
continues
event
enter
impossible
resources.
debates
israel
covered
emphasis
again.
position.
states'
bodies
gave
followed
religious
appeal
christian
leaders
simple
budgets
rail
colleague
conduct
products.
ti@@
monitor
directives
domestic
land
members,
customs
delighted
speakers
designed
moving
heads
maximum
z@@
lastly,
rapporteur.
services,
glad
presidency.
d,
al,
refugees
resolution,
otherwise
first,
talks
body
obtain
infrastructure
obvious
person
kosovo
placed
s:
intervention
run
reflect
pact
one,
inform
affect
repeat
travel
operation
acts
rapporteurs
targets
an@@
li@@
community.
circumstances
guarantees
traffic
advantage
figures
rapid
binding
democracy,
evaluation
facilitate
lower
trafficking
budget,
independence
proposing
se@@
ts
rejected
dimension
institutions,
measures,
terrorist
context,
source
yesterday
recognised
y
czech
positions
interested
ated
procedure,
responsibilities
tourism
carefully
voluntary
equally
target
fighting
reply
we,
resolutions
lies
table
negotiating
permanent
membership
germany
currency
women's
er,
h@@
separate
mechanisms
numerous
regulation.
50
happening
via
likely
presence
reasonable
sent
votes
solve
learn
administration
payments
expected
functioning
5@@
choice
centre
professional
modern
assure
do.
women.
granted
regions.
causes
mandate
ahead
ed,
greek
ra@@
rates
direction.
globalisation
immediately
link
ago.
e
e.
endorse
practices
consistent
compliance
greece
minority
recommendation
obligations
started
pt
problem,
suffering
whatever
acp
allowing
entry
standard
impose
arms
criticism
rules.
danger
spent
thereby
forthcoming
must,
tobacco
continued
session
visa
amendments.
obligation
improvements
persons
fail
funds.
got
safe
commissioner.
helping
m
approach.
believe,
is@@
income
protocol
s;
traditional
heart
state,
self-@@
v@@
agenda.
expression
ted
credit
forward.
negotiations.
baltic
cooperation,
round
september
board
encouraging
technological
women,
ha@@
employment.
tried
alone
structure
proposals.
weapons
...
approve
trading
primarily
november
easier
romania
jobs.
le@@
2020
controls
compared
issues,
surely
27
closed
associated
generally
temporary
payment
points.
fraud
amsterdam
treated
3@@
chinese
electronic
proposes
conciliation
participate
agencies
consequently,
firm
roma
aid.
do,
government,
recovery
up.
perspective
amounts
have,
ri@@
strict
millions
appreciate
prove
basis.
manage
institution
governance
realise
im@@
mis@@
origin
plenary
undoubtedly
imposed
legislation,
disaster
government.
iraq
demonstrated
ecu
floor
white
lose
re-@@
peaceful
signal
factor
k
4@@
southern
parliaments
harmonisation
involves
suggest
capable
security.
demonstrate
education,
u@@
transfer
safeguard
ted.
planning
firmly
played
conclusion,
credibility
e,
keeping
relates
contained
meetings
examine
amendments,
constantly
7@@
cases,
somewhat
information.
necessary,
subject:
goal
networks
competence
economy,
passed
strategy,
made.
nl
part,
preparing
decisive
6@@
dutch
considering
sexual
substances
lines
subsidies
construction
october
ac@@
apart
others,
labelling
peoples
proceed
te@@
top
sides
end,
me@@
together.
al.
programmes.
fiscal
authorities.
entitled
gone
voice
welfare
yes,
introducing
ground
collective
campaign
diversity
fulfil
however
largest
offers
speed
life.
necessary.
situations
clarify
drugs
prepare
allows
cooperate
solution.
preventing
communities
portuguese
allocated
brings
13
code
technologies
firstly
principle,
whole.
compensation
else
goals
loss
requirement
willing
defined
historic
president.
contrary,
inclusion
ch@@
pension
spending
car
effectiveness
mo@@
w@@
grounds
smes
right.
attack
confirm
spoke
works
highest
urgently
universal
enough.
up,
kingdom
largely
place,
standards.
employment,
regulation,
legitimate
al
arrangements
restrictions
day,
matter,
ongoing
personally
responsibility.
experts
families
interinstitutional
chamber
information,
late
limits
sensible
committees
j@@
18
flexible
mobility
politicians
gain
man
moment,
problems,
wonder
el
finding
impression
markets.
objectives.
operate
stronger
visit
applying
has,
changed
change,
debt
commission'
safety.
intends
more,
waiting
not.
nevertheless
present,
trade,
er@@
health.
liberal
mass
security,
result,
seven
minister,
pass
reasons,
knows
spoken
',
attacks
ethnic
opinions
es@@
operational
revision
said.
transport.
/@@
believes
energy.
is.
drawing
types
energy,
planned
2@@
example.
it@@
conditions.
economies
proved
mission
taxation
dependent
letter
thanking
define
c
freedoms
consumption
determined
r@@
aviation
copenhagen
migration
overcome
pursue
ukraine
anti-@@
disease
examples
vulnerable
ones
progress.
awareness
chairman
spain
debating
instance,
maintaining
support,
wait
medical
other.
ultimately
hungarian
israeli
submit
terrorism.
emergency
innovative
contact
contributions
noted
transitional
investments
society,
operating
’
announced
clear.
consumers.
delay
territorial
tasks
distribution
careful
enlargement.
existence
others.
ted,
parliament’s
playing
vice-president
clear,
con@@
freedom,
material
practice.
tomorrow.
leads
actively
april
extended
insist
july
kept
regions,
auditors
competition.
on@@
precise
room
ab@@
aid,
pollution
should,
excessive
1999
or,
path
themselves.
14
40
8@@
driving
be.
assembly
changing
protection,
months.
region,
america
crimes
factors
funds,
partner
concluded
urban
absolute
perfectly
treaties
colleague,
hence
italy
insurance
invest
sweden
assess
day.
producing
primary
sets
affairs.
di@@
normal
structures
grant
iran
or@@
daily
vision
me.
policies,
holding
research,
difference
condemn
he@@
itself,
turning
ec
systems.
affects
p
ratification
space
violations
unfair
meant
confirmed
remarks
much,
involved.
offered
becomes
described
er.
fuel
imports
significantly
tool
concentrate
obstacles
seeing
ic@@
exists
places
statistics
agreements.
courage
latest
subsidiarity
appropriations
constitute
multilateral
coordinated
details
referendum
subject.
2007
cyprus
latin
neighbouring
record
someone
test
mentioned,
ates
no@@
respect.
base
in.
published
governing
suffer
terms,
cap
considers
vote,
attempts
manner
qualified
claim
who,
listen
formal
bulgaria
enjoy
co2
option
partly
hands
position,
studies
sufficiently
view.
minorities
acknowledge
conflicts
drug
genuinely
definitely
justice.
politically
things,
products,
transport,
felt
represented
with.
children.
money.
100
resources,
trade.
commissioners
contain
officials
questions.
went
average
banks
eight
arguments
choose
detail
hours
deserves
shadow
hope,
guaranteed
massive
acting
employees
nobody
wider
saw
vehicles
belgian
valuable
groups.
legally
matters.
remove
assume
morning
referring
requested
stable
extension
lo@@
russia.
scheme
am@@
greatly
black
ations
be,
briefly
protected
action,
500
interests.
success.
core
d
regular
highlighted
obliged
pre@@
austrian
immigrants
belarus
if,
inter@@
farming
identify
es?
least,
under@@
addressing
term,
coherent
carrying
near
television
alliance
9@@
health,
honour
regard,
biggest
nearly
proportion
there,
wide
relatively
statute
hundreds
luxembourg
mar@@
neighbourhood
none
deals
france,
le
save
force.
term.
16
latter
17
launched
possibly
resulting
territory
transatlantic
deliver
about.
barriers
decision.
figure
ated.
control.
rules,
russia,
undertaken
clearly,
understood
built
chosen
needed.
absence
nato
growth,
in,
abuse
answers
bit
contrary
extra
ro
si@@
authorities,
field.
operators
po@@
ppe-de
realistic
poland
spite
ting
west
bo@@
text.
to,
2004
ms
to.
"
danish
growth.
justified
taxes
transition
determine
focused
past.
st@@
borders.
purely
moment.
resolved
2010
convergence
brief
done,
suffered
kyoto
accounts
determination
reading.
results.
approach,
argument
diplomatic
piece
prior
unacceptable.
community,
electricity
truth
depend
economic,
guaranteeing
order.
running
2005
condition
preparation
codecision
hearing
would,
poorest
solely
difficulty
2006
right,
fishermen
head
passenger
vat
competent
safety,
union’s
extensive
indicated
fine
heavy
instead,
oppose
citizen
depends
moral
proposals,
reflected
requests
noon.
passengers
ad@@
function
substance
ii
interest.
expectations
suitable
rapporteur's
eu’s
individuals
conditions,
intellectual
mind,
other,
constant
heading
polish
reaching
remaining
co-@@
ombudsman
2008
importance.
initiative.
manner.
property
rich
amended
l
languages
out@@
satisfied
spend
operations
tomorrow,
groups,
double
proud
assist
supplementary
geographical
links
reconstruction
restructuring
uniform
youth
check
happens
helped
quotas
think,
tragic
a.m.
extending
hopes
nice
seeks
suggested
able,
behaviour
er
regarded
release
activities.
leadership
demanding
enforcement
us@@
week,
exploitation
germany,
sugar
strategies
motions
promised
investigation
news
nonetheless,
reality.
at@@
conducted
meat
project.
thus,
2009
month
basis,
do@@
healthy
scale
worst
significance
24
debated
europe’s
harmful
spread
numbers
account.
milk
version
enhance
politics
summit.
stocks
for.
million.
supposed
children,
february
ce@@
gap
proof
supervision
why,
made,
more.
phase
together,
essentially
compulsory
deeply
succeed
able.
hardly
ngos
reasons.
country's
easily
enlargement,
worse
jobs,
paying
refers
issued
ous
portugal
adopted.
ated,
greenhouse
historical
ly,
turkey.
carbon
constitutes
principle.
identified
negotiations,
to@@
duties
imagine
ts.
companies.
members.
underline
advance
clause
declared
ity.
ate.
engage
opened
sum
adapt
fund.
reliable
federal
feeling
g
ordinary
president-in-office,
replace
contributed
corruption
entered
experienced
fourth
integration.
projects.
thorough
willingness
ag@@
attention.
disasters
extreme
ly
powerful
learning
plant
arrest
b
so@@
trans@@
period.
world's
creates
ers.
parties.
sport
stage.
afraid
armed
end.
granting
il@@
19
programmes,
section
convention.
pe@@
successfully
utmost
communist
elections.
implications
facts
increases
welcomes
lay
raising
reaction
d?
favourable
railway
reiterate
constitution.
ne@@
necessarily
opinion.
reflects
usa
interpretation
priority.
as,
negotiation
for,
past,
proceedings
concern.
ethical
sv
bearing
complicated
explanation
possibilities
strengthened
topic
achieved.
import
months,
poverty.
ts,
turned
deserve
tools
framework.
previously
drafting
may,
public.
violation
workers.
congratulations
bound
category
crime.
workers,
21
with,
terrorism,
bi@@
china,
electoral
solidarity.
declare
regard.
turkey,
costs.
diseases
feed
modified
pillar
welcomed
digital
forum
sorry
warmly
netherlands
taken.
applicant
ge@@
launch
incorporated
negotiated
per@@
as@@
eliminate
fields
another.
conference.
cuts
puts
showing
smaller
stands
amending
covers
enabling
bse
justify
man@@
restore
obviously,
stressed
succeeded
sustainability
vast
whereas
advertising
are.
equipment
options
penalty
port
targeted
agreements,
barroso
dignity
doubts
further.
production.
strasbourg
affecting
lessons
presenting
dynamic
fewer
openness
practice,
colleagues,
k,
leaving
looked
africa.
became
claims
lasting
values.
whereby
e-@@
exceptional
patent
well-@@
present.
1998
barcelona
ratified
suspended
war.
falls
india
mon@@
ber@@
couple
radical
tion.
200
ations.
summit,
outstanding
prosperity
se
2,
criteria.
croatia
educational
encouraged
front
processes
standing
1.
exports
n
nation
population.
tackling
companies,
prospects
undermine
accidents
answer.
approximately
environmentally
general,
satisfactory
listened
role.
this:
broader
generation
mark
regrettable
research.
unnecessary
fairly
recall
alongside
considerably
exclusion
industries
agriculture,
cars
hit
power.
repeatedly
pleasure
’.
2010.
bureaucratic
can,
everybody
wording
speeches
texts
timetable
effect.
terrible
preparations
relate
surprised
20%
ate,
decisions.
either.
serbia
subject,
deficit
occasion
respected
materials
expressing
60
a's
recommend
spring
2002
beef
circumstances,
23
aware,
break
combined
otherwise,
2003
afghanistan
i.e.
school
vessels
1,
22
below
ecological
reform.
th@@
ded
medicines
obtained
shares
hu
larger
terms.
competition,
indicate
islamic
over-@@
resulted
short,
strength
applicable
arab
priorities.
u
fresh
patients
interim
ireland,
sh@@
wine
bar@@
relations.
control,
disabled
peace.
dispute
fund,
achievement
presidents
retain
ru@@
sp@@
dialogue.
peace,
postal
rapidly
adopted,
congratulating
friendly
talked
procedures.
threats
amend
completed
leader
plants
causing
clean
ds.
himself
particular.
prospect
adjustment
advantages
civilian
examined
mentioned.
sake
y?
parliament'
raw
extraordinary
force,
initiative,
marine
whole,
withdraw
allocation
commit
emphasised
marketing
regardless
savings
fifth
millennium
pursuant
ant
continent
stay
2000.
ment
objectives,
worrying
amendment.
articles
kinds
regulate
boost
jointly
city
partners.
stock
trans-european
accident
es:
intervene
prisoners
engaged
enhanced
euro@@
finnish
pse
unanimously
naturally,
receiving
ships
size
union'
clarity
financed
forest
textile
things.
eu-@@
europol
weak
party,
implemented.
informal
intensive
preserve
ally
simplification
worthy
markets,
standards,
available.
count
disposal
opposite
purposes
excluded
2009.
organisations.
th
users
31
go@@
les
soviet
admit
negotiate
resumed
sought
transparency,
amendment,
ci@@
poverty,
widely
compromise.
directed
drafted
la@@
representation
%.
deadline
far,
foundation
sending
sovereignty
unanimous
unfortunate
contracts
plays
reports.
19@@
aside
austria
ers,
prodi
consumers,
deep
ecb
evening
expense
friends
however.
manufacturers
occasions
reservations
systems,
s’
agrees
car@@
demographic
demonstrates
sectors.
2.
coordinate
life,
afford
ma@@
stage,
transparency.
2000,
destruction
constitution,
decision,
credible
maastricht
3,
down.
moved
accompanied
estimated
sincerely
ignore
ports
severe
ling
no,
offering
concludes
convention,
performance
suggestions
em@@
eye
regulations.
week.
buy
economically
explained
ing@@
reinforce
sharing
unique
abolition
bu@@
continuation
gdp
looks
maintained
sovereign
ten@@
alcohol
charges
culture,
funding.
identity
justice,
petitions
push
raises
signing
tragedy
agenda,
communications
op@@
organise
advice
basically
settlement
berlin
china.
foundations
mere
yesterday,
complaints
chemical
divided
frequently
widespread
lie
objective.
prefer
conclude,
gradually
ve@@
20@@
barroso,
fin@@
funded
k.
applications
checks
emission
result.
1997
centres
du@@
familiar
2001
began
chapter
contacts
da
socialists
1@@
framework,
ity,
up@@
wealth
en
ity
joining
ol@@
physical
reading,
tests
yet,
executive
meaning
shape
skills
background
like,
supervisory
t-@@
treat
violence.
connected
consequence
east.
incentives
of,
stance
arise
declarations
inadequate
ke@@
worldwide
firms
preventive
text,
exclusively
m.
refuse
restrict
tribute
balkans
keen
power,
tangible
finland
secret
counter
importantly,
tri@@
alone.
education.
greece,
legitimacy
phenomenon
simplify
strictly
15@@
arising
fe@@
ations,
euro.
harmonised
plan.
species
sub@@
war,
distinction
healthcare
invite
quota
was,
century
organisations,
players
progress,
ally,
battle
banking
preliminary
underlying
agriculture.
better.
mistake
expensive
managing
nationals
permit
26
es;
procedural
undertake
%,
airlines
ap@@
asia
collaboration
es'
nations.
usually
warning
applause
britain
enlarged
needs.
period,
restricted
ver@@
4,
effective.
this?
unity
facilities
is:
revised
5,
money,
thing.
abstained
b5-0@@
beneficial
defending
e?
extent,
pro@@
production,
quickly.
solidarity,
levels.
points,
repeated
slightly
ally.
course.
mobile
ding
island
representing
responsibility,
schemes
sincere
unlike
10@@
age,
beings
bureau
business.
condemned
racism
similarly,
hundred
italy,
event,
explanations
lives.
observe
ratify
reality,
use.
compatible
showed
times.
'the
conflict.
enterprises.
medium
perspective.
spain,
accessible
belief
procurement
sense,
service.
technology.
used.
2004.
division
follow-up
picture
regulated
surrounding
ans
belong
m,
organic
ous,
profits
trend
zone
commend
confident
emerging
eyes
fi@@
ireland.
losing
refugee
short-term
solid
waters
1996
liability
mal@@
net
certainty
forward,
incorporate
nine
transit
weight
compete
dialogue,
percentage
promises
respected.
solutions.
collection
cs
joined
promise
considerations
ds,
red.
respecting
viable
12@@
actions.
lin@@
rising
africa,
contributing
defining
disappointed
reports,
14@@
2007.
annex
evident
freight
subsequent
tion,
charge
d:
effectively.
emissions.
essential.
undertaking
urgency
29
closure
elections,
ent,
etc.
good,
ia
imposing
items
strike
undertakings
faith
rejection
wage
delays
fifteen
iraqi
subjects
heritage
y-@@
community's
context.
convince
freely
gu@@
management.
re,
rely
struggle
times,
28
candidates
matters,
parties,
penalties
prices.
satisfaction
unemployment.
vi@@
discussion.
genetically
h
highlights
ings
logical
presentation
science
slow
ak@@
ambition
block
plan,
register
resolving
cities
involved,
timely
georgia
happen.
lisbon,
respective
thousand
50%
ho@@
par@@
refused
2006,
brussels.
honest
le,
processing
exception
mandatory
nonetheless
borne
cancer
den
projects,
rapporteurs,
values,
2004,
noise
precautionary
suggestion
ve,
covering
people’s
project,
r
react
vehicle
good.
him.
imported
ones.
progressive
replaced
themselves,
3.
ent.
euro-mediterranean
reported
safeguarding
act.
controversial
king
subsequently
clearer
effective,
institute
order,
thursday
violence,
ad
competences
date,
evaluate
regularly
aircraft
competitiveness.
door
gra@@
reforms.
sa@@
sk
systematic
borders,
gained
older
perspective,
acceptance
for@@
impetus
kosovo.
pursued
tra@@
coastal
coherence
deaths
lisbon.
telecommunications
threatened
tonnes
alde
blame
costs,
geneva
indicators
infringement
occurred
ou@@
requirements.
respects
solution,
2009,
follows
general.
gi@@
gross
anniversary
bureaucracy
crime,
flow
listening
removed
helps
ment,
sad
2010,
acted
cases.
exist.
fourthly,
immigration.
ing?
pakistan
regime.
age.
integrate
intentions
prevented
seriously.
acquis
liked
ment.
nature.
reform,
reserve
ca@@
cre@@
iraq.
judge
advocate
multiannual
observation
treaties.
visited
we@@
cutting
disagree
equivalent
rather,
signs
before,
concerns.
date.
failing
far.
le.
pensions
ter@@
x@@
18@@
advanced
apparent
dramatic
el@@
true,
uncertainty
300
comparison
field,
hoped
maybe
non-governmental
schools
virtually
au@@
meets
speech,
decent
ex@@
ly.
pursuing
shortcomings
training,
2005.
2006.
conference,
correctly
des
marked
means,
threshold
businesses,
drive
incentive
7,
accepting
fails
5.
appointment
popular
0.@@
crises
o,
sha@@
sympathy
employers
entering
leaves
neighbours
new,
revenue
risk.
such,
tions
1.@@
chemicals
devoted
except
prison
required.
stringent
summer
ve
english
japan
reporting
employed
innovation.
losses
presidential
belgium
consequences.
conservation
consulted
cu@@
fi
notably
periods
recognises
speaking,
third-country
arrive
inflation
much.
needed,
ous.
2008.
80
an,
army
cannot,
governments.
min@@
partners,
2005,
cor@@
part.
wherever
consideration.
emu
insufficient
journalists
member,
war@@
1999,
clarification
female
focusing
governments,
participating
red,
restrictive
tough
2007,
f
innovation,
paragraphs
socio-economic
inquiry
renewed
unemployment,
year's
hazardous
image
su@@
substantially
1999.
3%
ism
it?
om@@
recently,
see,
ste@@
violent
begun
businesses.
experiencing
fruit
unilateral
billion.
et@@
fixed
learned
organization
poland,
population,
statistical
wise
y;
argue
courts
der
eventually
korea
lifelong
search
authorisation
echo
far-reaching
implementation.
mi@@
permitted
political,
protest
inside
killed
mental
route
societies
stability.
troops
breach
containing
personally,
pilot
circumstances.
deny
fleet
grow
investigate
sales
alone,
authority.
coal
d;
instance
interest,
reductions
assistance.
cent
controlled
doha
iranian
questions,
bosnia
criteria,
invited
motor
portugal,
principles.
public,
sea.
unemployed
ari@@
consistently
integration,
justification
post-@@
team
americans
before.
buildings
can@@
data.
direction,
host
variety
an.
majority.
package.
pl@@
say.
ch
cohesion.
connection,
culture.
enables
harm
sectors,
ties
unanimity
ar
bio@@
promoted
usd
biodiversity
d-@@
denied
outlined
proven
struck
euro,
indication
necessity
ter
uses
backing
gradual
ir@@
irrespective
ni@@
outermost
pre-@@
religion
valid
z
catch
e:
surveillance
thing,
accounting
adapted
conservative
cope
ground.
missing
profit
quote
reflection
responsibilities.
withdrawal
2008,
4.
albeit
assurance
ba@@
envisaged
excuse
experiences
hungary
procedures,
side.
16@@
1995
ation?
com@@
fears
ist
liberals
productive
s!
answered
cas@@
enterprises,
hopefully
serves
students
swift
2003,
concentration
contract
countries'
lt
medicinal
qualifications
dangers
need,
parallel
composition
history.
palestinians
parents
apparently
corporate
examining
lacking
stability,
tes
the@@
ul@@
y:
10%
earlier,
falling
favour.
relations,
8,
bank,
dublin
ed@@
chair
discrimination.
expansion
nations,
originally
te,
drivers
forestry
har@@
have.
investment.
minor
post
touch
y'
ecofin
h-0@@
linguistic
notes
rating
sen@@
17@@
form@@
handling
imperative
interests,
objective,
pharmaceutical
presents
recommended
sole
win
later,
se,
workers'
2003.
corresponding
est
re.
regulations,
response.
sit
consultations
decades
examination
fundamentally
ministerial
ourselves.
t?
1%
ably
died
ds
endorsed
enshrined
europe'
pressing
supplies
title
welcome.
adequately
assessing
broadly
court.
integrity
nature,
ren@@
volume
35
blood
contributes
ised
resistance
shortly
social,
transactions
victim
.'
century.
east,
explicitly
helpful
instruments.
quality.
question:
ship
whenever
arrived
audiovisual
budgets,
damaging
die
finances
role,
ruling
activities,
million,
tens
competitiveness,
horizontal
model.
turkey's
wi@@
13@@
fit
mind.
stake
vocational
consolidation
document.
iraq,
large-scale
men.
stabilisation
stick
suggests
sums
trial
80%
assessments
citizenship
compromise,
consequently
line.
notice
straight
categories
characterised
disastrous
efficiency.
efforts.
exchanges
te
ban@@
consolidate
conventions
farmers,
means.
minutes.
morning,
saving
shift
solving
ambitions
endeavour
igc
loans
visible
consistency
coordinating
destroy
gaza
initially
men@@
observed
obtaining
preparatory
.@@
als
immigration,
intelligent
mer@@
populations
sees
ur@@
desirable
effect,
forests
recital
seventh
sur@@
decisions,
marks
mor@@
completion
enough,
freedom.
gener@@
harmonise
adverse
aids
appointed
banned
continue.
feature
telling
afternoon
delivered
exploit
ic
pact.
stockholm
when,
40%
achievements
comments.
i.
notion
res
resource
slovakia
terrorists
wrong.
yourself
21st
activity.
bank.
ce,
reconciliation
solved
step.
choices
fallen
mistakes
need.
netherlands,
opportunity.
pi@@
remained
campaigns
enabled
ent@@
fast
founded
inevitably
kurdish
programming
sections
ve.
wholeheartedly
back@@
ended
goals.
days,
dimension.
driven
gen@@
integral
obstacle
own-initiative
qu@@
characteristics
cheap
farmers.
last,
leg@@
opportunities.
organisation.
principal
se.
sight
task.
ultimate
water,
albania
attached
blind
challenges.
cuba
deciding
ded.
foremost
job.
ppe
speech.
sports
stating
tions,
wished
approaches
badly
baroness
card
fought
generate
her@@
kosovo,
potentially
stimulate
stricter
strive
travelling
6,
automatically
hi@@
investing
registration
removal
associations
atlantic
confusion
galileo
length
names
occur
s'.
acknowledged
aspects.
attach
continent.
different.
everyday
exemption
ga@@
lesson
steel
closing
farm
further,
initiatives.
modernisation
stations
subsidiarity.
exclusive
tourism,
warm
alternatives
america.
dumping
foster
friend
practically
purpose.
2002.
char@@
normally
observers
safeguards
track
another,
assured
chamber.
judgment
moldova
networks.
transferred
asian
creative
elderly
prerequisite
securing
sixth
systematically
verts/ale
5%
budgets.
comparable
disadvantaged
ensured
placing
sweden,
voters
8.
detriment
false
finish
prize
romanian
used,
woman
worried
x
abuses
high-quality
lowest
morning.
preferred
rid
service,
witnessed
abandon
addresses
appreciation
ensures
football
innocent
inspection
je@@
scientists
train
transposition
y's
acceptable.
birth
difficult.
fo@@
quality,
saddam
shipping
unions
absurd
conviction
genetic
onto
own.
sold
taken,
technology,
tu@@
complied
else.
expertise
exposed
islands
models
morocco
sis
adding
airports
come.
disaster.
doubt,
emerged
forgotten
second,
sell
side,
democrat
denmark
fire
hol@@
ingly
rate,
reply.
unprecedented
ageing
exclude
expert
heavily
organizations
paper.
pretext
testing
university
veterinary
2002,
ance
attend
ise
stages
t's
where,
won
audit
component
days.
fact.
importance,
macedonia
specifically,
ev@@
lists
object
radio
railways
removing
roads
torture
victims.
accordingly,
await
banning
council'
dependence
ment@@
night
rigorous
facilitating
gue/ngl
lines.
ownership
statement.
sustained
were,
-based
2011
ation:
compromises
currency.
ending
exceptions
gets
initiated
may.
movements
ously
subjected
traditions
draftsman
greens
nation@@
offices
sentence
advisory
ceiling
clear:
communication.
detention
document,
euro-@@
integrating
mid-term
res@@
rome
true.
twenty
water.
words.
am,
challenge.
ent
hong
in-depth
res.
root
sale
satellite
socially
soil
technologies.
ai@@
banana
canada
confirms
design
foremost,
housing
reminded
t:
table.
te.
tolerance
tradition
waste.
accused
formally
ings.
recycling
references
scheduled
scrutiny
universities
whatsoever
governance.
hour
l,
monopoly
paper,
platform
powers.
producer
tackled
tion@@
tions.
treaties,
accepted.
analyse
difficulties.
help.
ness
responses
simplified
sphere
topical
twice
30%
austria,
cap@@
en,
expenditure.
grave
’,
accurate
airport
burma
properly.
same.
satisfy
thoroughly
usual
value.
von
abolish
backed
board.
democratically
encourages
enforce
fortunately,
stem
tor@@
wto.
agencies.
ati@@
biological
changes.
disputes
enjoyed
fl@@
iran.
posed
principles,
reforms,
sed.
use,
6.
demanded
improved.
inhabitants
ked
partnership.
sectoral
2001.
affected.
author.
children's
delicate
london
minorities.
poorer
regulating
focuses
lu@@
class
dairy
fuels
funding,
generated
generous
kind.
monitored
persuade
pose
tabling
territory.
thinks
threatening
7.
data,
egypt
flows
investigations
personnel
adaptation
appalling
attractive
concern,
expressly
ideological
indicates
kingdom,
laying
passing
territories
accountability
aiming
aspects,
avoiding
crops
fil@@
ideal
prodi,
returned
secretary-general
cha@@
consists
fate
functions
guilty
ing:
less.
openly
parliaments.
praise
radioactive
treatment.
a-@@
achieved,
animals.
autonomy
br@@
combine
distance
internet.
label
migrants
perspectives
refusal
2001,
applied.
down@@
ec@@
management,
pointing
priorities,
served
ves
controlling
maintenance
moves
practices.
quick
sing
storage
ded,
documents.
occasions,
regul@@
remarkable
tremendous
v
believed
brussels,
committee's
consent
error
faces
globalisation.
limiting
minute
pact,
rare
released
responding
results,
romania,
training.
about,
elsewhere
guidelines.
incidentally,
indirect
invested
march,
presidency's
rejected.
198@@
ative
chain
eu'
gulf
ies.
lays
logic
office.
sense.
available,
book
criticise
dead
efforts,
eu@@
europeans,
features
findings
lithuania
pace
promotes
regimes
zimbabwe
400
actions,
against.
confidence.
greens/european
ings,
investors
9,
announcement
ate@@
attempting
changed.
communication,
december,
delegations
destroyed
devote
diverse
earmarked
initiate
appeared
arctic
august
dedicated
definitive
economies.
history,
meeting.
repercussions
reproductive
simplifying
comitology
jo@@
package,
registered
tr@@
-related
ahead.
ant@@
bears
criticised
describe
grants
o.
objections
recorded
res,
san@@
sex
balance.
business,
decline
form.
governed
part-session
partnerships
sel@@
taxpayers'
um@@
will.
é@@
availability
claimed
combination
detail.
efficiency,
facility
helsinki
murder
occupation
opportunity,
providers
uphold
victory
america,
des@@
distributed
fac@@
fer@@
instruments,
observations
privacy
col@@
der@@
donor
drop
en.
everyone.
irregularities
residence
ses
45
born
chamber,
elsewhere.
p,
party.
proposed.
statement,
stresses
accession.
collapse
commissioners,
communities.
cross
definite
estimates
floor.
food.
han@@
languages.
met.
olaf
sed
ser@@
act,
ating,
december.
evening.
goods.
gratitude
implemented,
majority,
occupied
office,
september.
afghan
anti@@
anywhere
belarus.
clauses
den@@
depending
drinking
efficiently
feels
later.
recognising
relative
wonderful
writing
70
assessed
authority,
ce.
delay.
ignored
multi-@@
seemed
strikes
these,
tunisia
ultimately,
a5-0@@
criterion
democrats,
differ
displaced
elimination
head@@
ine
origin.
realised
silence
'no'
2%
care.
emphasises
high-level
holds
immediately.
june.
ko@@
meantime,
men,
nordic
rejecting
bodies.
cold
macroeconomic
als.
capacity.
cohesion,
commissioner's
down,
farms
follows:
interference
investment,
shortage
st
zero
administration.
council’s
emphasize
government's
june,
loc@@
organized
soldiers
weeks.
desired
errors
generations
immunity
imp@@
loud
prices,
substantive
visas
autonomous
enhancing
flight
model,
reassure
tion
ality.
concluding
exert
far@@
over.
posts
powers,
smes,
success,
urged
actors
breaking
college
dear
eib
fulfilling
interpreted
patient
rel@@
selection
stakeholders
al-@@
cultures
dates
handed
incidents
instrument.
livestock
often,
own,
sol@@
criminals
else,
era
floods
fraud.
olympic
perform
provisions.
wake
brutal
discussion,
events,
flights
organisation,
plus
purposes.
self-employed
slovak
ukraine.
wide-ranging
dual
iran,
mobilisation
multinational
muslim
participants
profound
relief
tend
transnational
work@@
accepts
ality
caught
expand
mixed
of.
ones,
osce
refugees.
repression
reserves
sea,
sho@@
tampere
ty@@
vienna
want.
agency.
at.
empty
handled
infrastructure,
inland
input
jurisdiction
lan@@
step,
these.
yes
0@@
assistance,
content.
democratisation
don@@
eliminating
essential,
food,
line,
mil@@
poses
pre-accession
sri
years'
1998.
agency,
arrangement
asks
authorised
bal@@
concessions
go.
make.
palestine
perhaps,
pragmatic
raised.
seekers
smes.
surprise
technologies,
197@@
all@@
bro@@
d'
disease.
equality.
fires
g20
membership.
outset
owe
patten
perfect
postpone
protocol.
150
accordingly.
account,
are@@
ble.
criticisms
dioxide
er's
h,
lis@@
map
mother
organising
/98
alarming
group's
infrastructure.
ing'
ourselves,
priority,
recognize
remedy
remote
secondary
threaten
assets
balkans.
contradiction
happen,
inspections
ministers,
moratorium
rational
retirement
revolution
vitally
wages
agencies,
bon@@
overwhelming
pays
proves
sadly,
viewed
bre@@
breaches
does,
inappropriate
internationally
meeting,
what,
yesterday's
ates,
deficits
determining
europeans.
friday
missions
publish
runs
unified
win@@
balkan
establishes
manufacturing
prevention,
quarter
sides.
sites
wholly
arrested
capital.
complement
explanatory
led.
responded
risks.
ry
smoking
split
70%
ation;
cl@@
detrimental
doing,
ful
germany.
malta
n,
ps
publicly
reinforced
sed,
tic
weeks,
wind
women’s
ble
consumer.
dan@@
enterprise
freedoms.
goods,
halt
hamas
researchers
transmission
uen
at,
awaiting
eligible
emissions,
gmos
hu@@
ies
indispensable
inequalities
isolated
positive.
republic,
signals
towns
agree,
commitments.
conjunction
discipline
discrimination,
identifying
issuing
learnt
november.
productivity
reforming
reverse
sion
telephone
thursday,
tourism.
ks
parliaments,
pri@@
said:
secretary
tariff
ters
2020.
billion,
bl@@
directives.
hoping
instrument,
ising
myself,
politics.
returning
away.
conclusion.
demonstration
events.
initiatives,
land.
levels,
os
seat
slovenia
sudan
ting,
town
watch
af@@
bottom
expecting
faster
ger@@
globalisation,
lebanon
modest
preserving
quantity
refusing
syria
topics
vo@@
vote:
analysis,
broken
consult
conventional
disparities
divide
equality,
expresses
hand.
irresponsible
located
meanwhile,
media.
privileged
pursuit
scale.
specified
survival
undermining
van@@
yugoslav
9.
a4-0@@
automatic
bas@@
escape
gh@@
guiding
pick
sk@@
sources.
star@@
unit
ven@@
als,
bur@@
communicate
conclusions.
congress
developments.
difficult,
explicit
fulfilled
hal@@
hungary,
infrastructures
libya
man,
pollution.
positively
restricting
revealed
speci@@
subsidiarity,
successful.
wishing
142
6%
ach@@
and@@
better,
compare
condemnation
deliberately
deprived
ends
euros
hunger
israel.
obligations.
situations.
speaks
symbolic
ways.
appropriate.
bases
convey
cr@@
currency,
ers'
game
happened.
him,
media,
minds
mu@@
natura
overall,
tuna
turn,
ying
90
agreeing
ators
author@@
brazil
christians
gr@@
home.
id@@
knowing
march.
online
representative,
required,
september,
speak,
super@@
ties.
transfers
um
approving
arises
aspirations
bill
chechnya
continuous
da@@
de.
forces.
how,
knowledge-based
liber@@
november,
ph@@
point:
cooperating
deadlines
fishery
lengthy
mentions
networks,
pity
quickly,
region@@
soon.
structured
taxpayers
technically
verheugen
warrant
witness
3.@@
cal@@
emerge
enthusiasm
guidance
human@@
israel,
ju@@
ler
measure.
producers.
requiring
separation
soft
suspension
translated
bel@@
derogation
knew
october,
publication
relationships
remark
says,
strasbourg.
ta@@
weaken
0.
bodies,
concentrated
cotonou
encouragement
europe?
exact
members'
ters,
tive
ty
wednesday
'yes'
0,
advances
compensate
embargo
families.
grown
noticed
ped
say:
selling
twelve
write
60%
acquired
allocate
cattle
concerns,
experience,
formulated
frontex
invitation
month.
pro-@@
t'
ta
through.
toxic
30@@
argued
ass@@
belonging
choice.
differing
distortions
fossil
governance,
mann
mountain
mutually
pillars
ran@@
sion.
take.
translation
1998,
25@@
ard
continuity
contrast
france.
handle
liberal,
manner,
messages
minorities,
mobilise
ning
officially
preservation
strange
thoughts
views.
worse.
administration,
afghanistan.
ating.
complaint
courageous
founding
law@@
mat@@
ments.
ner
opportunities,
p.
people'
persecution
senior
start.
ary
being,
beneficiaries
indications
lend
mediterranean.
or.
plans.
s-@@
targets.
that?
tur@@
activity,
ans,
author
che@@
delivery
finland,
greece.
guide
ies,
ors
report:
routes
stopped
tested
tion?
2011.
back.
body.
bridge
burdens
cast
foodstuffs
formed
land,
mexico
misleading
n.
pal@@
reconcile
ruled
serbian
spectrum
update
ves,
wall
advocates
ation@@
bush
conservatives
danube
dictatorship
engagement
expenses
listed
oecd
pan-european
proposed,
sanctions.
shame
sooner
stated,
today’s
wave
2.@@
airline
conflict,
doing.
frequent
hor@@
interfere
internet,
match
outline
patents
weaknesses
27@@
ants
belarus,
bigger
cod
copyright
everyone,
excessively
incident
justified.
long.
merit
russia's
supply.
supranational
surplus
want,
ates.
ce
continually
deemed
established.
gar@@
hide
institution.
monday
month,
nothing.
pan@@
popul@@
preference
safer
trends
25%
adhere
billions
biofuels
computer
constituency
created.
deterioration
evaluating
exist,
exploited
hand@@
na@@
partial
receives
task,
ukraine,
wanting
adapting
attended
century,
earlier.
harmonising
language.
opens
pushing
shoulder
substances.
symbol
famous
fisheries,
fragile
geared
indian
montenegro
regime,
renewal
restriction
ring
sin@@
suspend
tic@@
á@@
40@@
constraints
cycle
execution
fruitful
goal.
ks.
painful
responsible.
states?
status.
story
4%
a?
addressed.
ality,
broadcasting
certainly,
distinguish
effort.
est@@
federation
first.
humanity
ments
national,
request.
sitting:
welcomed.
10,
adjustments
avoided
commitment.
fishing.
identification
ism,
pas@@
round.
alleged
analyses
destroying
essence
excise
finds
ge
immense
inequality
produces
requirements,
sends
sub-@@
vis@@
yugoslavia
149
complexity
condemning
contribution.
disasters.
evening,
face.
implies
killing
mostly
river
santer
thrust
2013.
answer,
attaches
blocked
channels
concepts
cyprus,
deplore
disregard
eurostat
hear@@
idea.
ill-@@
italy.
lifting
lines,
list.
mining
ness.
one's
product.
reduced.
speculation
tal@@
union?
w
biotechnology
care,
cooperative
demonstrating
fault
gaps
ical
implementation,
interventions
player
touched
z,
afghanistan,
agree.
bed
beijing
capital,
ce?
conducting
cyprus.
inclusive
knowledge,
lacks
launching
ments,
mercury
ping
scotland
suddenly
tes,
textiles
underlined
1997.
24@@
abstain
applaud
basque
distributed.
dly
drugs.
judged
methods.
ministers.
nu@@
precedent
precondition
stake.
sto@@
vague
arbitrary
ashton,
belongs
exceed
existed
expenditure,
licence
margin
moderate
revise
ter,
1997,
accountable
apologise
atmosphere
ats
channel
civilians
consolidated
de,
dream
effects.
harmonization
high.
ian
indigenous
low-@@
maternity
momentum
note,
producers,
resumption
tolerate
votes.
appropriate,
blocking
convincing
cuban
dare
debates.
ically
ists
liberties
plenty
resolved.
severely
tan@@
tendency
yesterday.
achieve.
dossier
ing-@@
medi@@
merits
off.
problematic
quantities
reactions
tape
threatens
two-@@
withdrawn
ance.
chose
cou@@
counter@@
diseases.
et
ism.
meda
ons
packaging
philosophy
privatisation
secretariat
terror
understand,
29@@
8%
acquire
alter
clarified
complementary
consumption.
donors
enforced
formulate
network.
part-session.
read@@
switzerland
tax.
typical
ukrainian
urgency.
ze
assumed
body,
drastic
jeopardise
la
needs,
pipeline
plenary.
race
report's
see.
see@@
tourist
/97
albanian
ble@@
delayed
der.
devastating
games
independence.
ks,
ll@@
partnership,
remit
stood
transparent,
underlines
1996.
c.
character
dg
doors
olive
opposing
theme
ts@@
artificial
conditional
definitions
ep@@
european,
fisheries.
fu@@
informing
kingdom.
ours
reception
recourse
rule,
since,
warn
1994
48
ages.
ary,
attention,
balkans,
bra@@
costly
dignity.
disproportionate
frankly,
india,
liberties,
mentioning
multi@@
protected.
protectionism
spain.
thrown
under-@@
understandable
voices
600
alis@@
ation'
developed.
high-@@
instability
intelligence
outcome.
public@@
refrain
rescue
strengthens
supplement
supplied
tonight
a'
advocated
alised
asia.
bri@@
cease
cheaper
crucial.
distortion
facts.
ing;
isation
milosevic
modes
profitable
beings.
brok
buying
fraud,
mep
proactive
speak.
staff.
structures.
37@@
anybody
drew
guidelines,
idea,
incapable
motion.
mp@@
poland.
punishment
purchase
sun@@
welcoming
bul@@
bulgarian
challenges,
clo@@
coalition
dam@@
increase.
meaningful
micro-@@
pesticides
repeat,
reviewed
shar@@
still,
subsidy
throw
well-known
witnessing
difficulties,
diversity.
entail
equipped
globalised
late.
miss
objection
owners
penalty.
pending
prevents
schulz
threat.
tone
usa,
value,
wish,
wor@@
abide
chancellor
confronted
defended
ep
exceptionally
guided
hague
introduces
occasions.
open,
risk,
sch@@
them?
tion:
vehicles.
vel@@
1996,
2013
ann@@
appoint
assisting
changes,
cour@@
ear@@
entails
entrepreneurs
illegally
intense
ness,
replacing
roots
worthwhile
wto,
90%
as.
attempted
cells
clothing
confine
controls.
democratic,
dominated
dr@@
eco-@@
ideas.
ity?
linking
mandate.
micro@@
neighbours.
occupational
pay@@
speedy
st.
states’
submitting
ye@@
accompanying
assembly.
ble,
cost.
dimension,
discussed.
forcing
girls
h.
highlighting
industrialised
latvia
life@@
movement,
operation.
origin,
owing
prompt
reason.
sakharov
stri@@
tomorrow's
wars
awarded
benefits.
councils
euratom
kong
language,
missed
newly
parliamentarians
refugees,
responsible,
sen
start,
strengthened.
taiwan
vigilant
ans.
attract
cross-@@
deepening
disadvantage
discovered
ever,
ge.
lift
lives,
preferences
preferential
real@@
uk,
ver,
victims,
23@@
breast
draws
ef@@
know.
licences
mobility.
ot@@
strong,
tibet
transparent.
verification
/200@@
assessment.
coast
could,
delivering
disabilities
discriminatory
doctors
dy
gn@@
guaranteed.
incompatible
industries.
infringements
july,
l.
mechanism.
offences
opt
pen@@
slovenian
solutions,
sporting
swiftly
tensions
while,
yet.
32
50@@
ar,
committees.
cornerstone
cra@@
denmark,
disappointment
fa@@
hitherto
less,
mine
off@@
one-@@
opponents
partially
payments.
peripheral
tension
trouble
advise
conscience
earthquake
employ
form,
indirectly
inspired
january,
laeken
namely,
paris
protests
ship@@
t;
transportation
treating
vary
air@@
ance,
belgium,
c,
charged
competence.
correct.
equitable
experience.
fell
fischler
ic,
optimistic
page
participated
phare
psychological
rac@@
small-scale
smooth
successive
y’s
academic
confined
film
furthermore
newspaper
postponed
rates.
survive
ter.
transposed
understands
workforce
1992
alise
alising
commitment,
ct@@
derogations
diversification
everything,
everywhere
financially
identical
impact.
incomes
left,
mas@@
play.
san
scarcely
seriously,
settle
south-east
subsidies.
sure,
admitted
atten@@
circulation
cloning
confront
ease
exclusion.
exporting
family.
found.
homes
insisted
intolerable
iz@@
long-@@
movement.
referendum.
restoring
sal@@
sitting.
sources,
then.
tries
undermines
venture
xenophobia
2012
autumn
break@@
budge@@
contributions.
directives,
fill
incomprehensible
isolation
location
marking
measured
motivated
presidencies
processes.
reconsider
suspect
abandoned
attitudes
bus
ce:
ch.
duly
expectations.
extent.
increased.
laws.
legisl@@
letters
long,
negoti@@
reasonably
redundant
solana
some@@
surprising
classification
complying
contamination
court,
decentralised
envisage
foods
hence,
hoc
interpret
lived
narrow
price.
pure
ters.
tin@@
chances
feasible
goals,
ors.
peoples.
recognized
residents
tacis
conscious
coordination,
deb@@
demand.
democracies
erika
exercising
formula
fran@@
help,
inherent
liberalization
protectionist
remarks.
requesting
slowly
software
stipulates
time@@
ting.
welcome,
zone.
a;
algeria
arisen
assent
consumers'
contradictory
failure.
feelings
gases
happens,
imbalances
incredibly
journey
measure,
promising
same,
seats
sl
tabled.
ton@@
traceability
trafficking.
waste,
workable
00@@
100%
4.@@
aged
amsterdam,
anticipate
chief
deeper
dismantling
earth
figures,
mainstreaming
man.
needless
non-proliferation
pa@@
politics,
seriousness
stocks.
strongest
taxation.
totalitarian
unite
60@@
ben@@
camps
colleagues.
contents
crimin@@
customers
director
expects
flag
foot
g8
happening.
oper@@
quantitative
sensitivity
successes
val@@
75
assessment,
barón
collected
components
cypriot
deregulation
emphasising
europe-wide
generations.
ilo
japanese
meps,
operations.
pr@@
recommends
reinforcing
response,
sadly
sanctions,
splendid
survey
tax,
ties,
unacceptable,
37
books
carefully.
closely.
counting
ders.
disease,
emergence
interest@@
interoperability
maintains
pluralism
reputation
resort
resume
societies.
spreading
striking
uncertain
utterly
water@@
34
abolishing
afternoon.
all-@@
appe@@
caution
constituents
coordination.
decides
exposure
imf
inevitable
pressure.
qualitative
reform@@
rhetoric
structure.
viability
2007-2013
250
abolished
appropriately
authors
capacities
career
cautious
contractual
decrease
disagreement
gaining
ged
genocide
labour,
pos@@
positive,
pushed
retail
striving
teachers
worker
worry
alisation
assumption
balance,
bolkestein
cfsp
discussions.
diseases,
inability
insofar
ls
making.
not?
operates
os@@
prejudice
proliferation
pull
relevance
simpler
spare
speakers,
tells
ves.
waiver
ways,
/2001
accordingly
affordable
asia,
assembly,
blair
burmese
centr@@
competitive.
description
disasters,
effectively,
eve
exemptions
family,
generally,
inspectors
introduced.
minutes,
ombudsman's
pac@@
past@@
romania.
sport.
transformation
11,
ator
austerity
benefiting
congo
coun@@
daphne
day@@
estonia
ill@@
judgments
migratory
organ
overcoming
phrase
professionals
reached.
sion,
thematic
abroad
accusations
advis@@
alism
decommissioning
earn
egf
forces,
heard,
ia,
inter-@@
mid@@
positions.
potential.
progres@@
purchasing
risen
robust
secured
session.
sti@@
subsidies,
11.@@
55
7.@@
administrations
consulting
corrections
eldr
ia.
ide@@
judges
occasion,
overview
portugal.
squ@@
tibetan
bulgaria,
cofinancing
committees,
communities,
confederal
corruption.
credibility.
ed?
in-@@
mines
od@@
open.
protein
reply,
rule.
saying,
shaping
signature
treatment,
vigorously
adjust
april,
april.
barely
business@@
capacity,
chapters
disaster,
exempt
hypocrisy
kin@@
margin@@
modernise
ngos,
ors,
other@@
pretty
recruitment
roll-call
shed
sl@@
stock@@
tes.
visits
weapons.
12,
assurances
bil@@
cash
considered.
corruption,
depth
differently
gains
member.
mix
multiple
ob@@
plans,
prevention.
prosecution
request,
seas
standardisation
supporters
turns
veto
worldwide.
wrote
affected,
ak
ant,
any@@
countries?
demonstrations
dri@@
econom@@
intervention.
korean
navigation
politicians,
practices,
processed
prosperity.
realities
recommendations.
replacement
salaries
sheep
specialist
specify
state@@
taught
tv
deliberate
eurozone
expanding
footing
ill
mediterranean,
memory
network,
papers
permanently
racist
regrettably,
sufficient.
timor
unlikely
working.
aggressive
announce
certification
competing
concerted
cur@@
efficient,
fleets
imbalance
jacques
job,
land@@
laws,
led,
likewise
lomé
next,
paramount
permits
readiness
scandal
scottish
sentences
substance.
suggesting
supply,
supreme
tion;
abortion
alert
alism.
christmas
collect
decade
devise
dic@@
duration
e;
electrical
end@@
fairer
fortunately
ging
intensify
iron
ity:
knows,
manufacture
plain
prestige
reformed
small,
vis-à-vis
chernobyl
damage.
depend@@
duty-free
efficient.
precedence
repressive
screening
stepping
supported.
az@@
benefit.
ch,
derived
effort,
either,
er-@@
explo@@
ge,
green@@
guardian
hope.
inadequate.
madrid
october.
person@@
prohibition
prosperous
rate.
ration@@
rejects
sentenced
slaughter
staff,
thirty
worse,
199@@
2012.
33
aspect,
carriers
challenging
co-operation
commitments,
conversion
correctly,
deliberations
demands.
dependency
discussions,
dominant
e'
eleven
emphatically
eradication
exercised
frattini
freedoms,
high@@
institution,
log@@
oriented
ous@@
privilege
pur@@
rehabilitation
seize
sou@@
streets
tight
tre@@
upper
works.
1990
800
ali@@
banks,
benefited
conflicts.
consensus.
day-to-day
dr
erasmus
excess
gambling
liberty
on:
pensioners
plan@@
sky
summary
28@@
admittedly,
ary.
bureaucracy.
citizen.
detail,
extradition
f.
facto
fic@@
formation
gre@@
included.
july.
kind,
languages,
like.
mechanism,
ously.
outbreak
panel
partner.
purpose,
restoration
serving
suppliers
sustain
tab@@
transaction
weapon
1995,
700
approved.
comments,
cop@@
counterfeiting
do?
drugs,
electorate
eligibility
employees.
february,
gdp.
hidden
hours.
income.
january.
king.
lawyers
love
maintained.
multinationals
pillar.
set.
sions
slovakia,
tune
units
way@@
acts.
anxious
applied,
ber
capitalist
citizens’
colonial
comparative
completing
correspond
deficiencies
enormously
flood
gentlemen.
haiti
lithuania,
medicines.
mid-@@
obligatory
pu@@
re
resolutions.
responsibilities,
rou@@
scandalous
settled
sive,
stepped
stimulating
symbol@@
ted?
é
'european
advised
al'
alleviate
besides
blow
claiming
courses
distinguished
explaining
gm
ideas,
ingredients
measuring
nigeria
occupying
officers
proving
review.
sing@@
situations,
smart
system@@
table,
tariffs
unsatisfactory
watching
waters.
accept.
accession,
acknowledges
advocating
bol@@
dying
ently
eradicate
established,
goodwill
judiciary
labour.
payments,
perceived
press,
rest,
roles
run-up
sw@@
tasks.
warming
wild
zones
36
afternoon,
anticipated
apply.
censure
chairman,
checked
chi@@
dar@@
denying
discover
ence
excluding
financing.
forefront
harder
houses
identity.
improvement.
inde@@
monopolies
protocol,
recover
referendums
repair
reunification
suspected
taliban
troika
und@@
vari@@
violated
word.
ys
".
12.@@
195@@
allowances
analysing
assuming
ast@@
carries
ction.
cultivation
decades.
economies,
exemplary
favour,
finished
ful,
ignoring
improves
incredible
ists,
known,
mercosur
non@@
observer
opted
precarious
provisional
provisions,
relocation
repeating
rose
stra@@
teaching
transferring
voting.
weakness
adds
agents
bor@@
ce;
ches
creation.
diversity,
especially,
fall@@
flexibility,
flying
hopefully,
mission.
monti
passive
perpetrators
pollution,
predic@@
prevail
propaganda
properly,
rarely
selected
trained
animals,
asean
blue
bold
by,
committing
content,
directorate-general
disability
engaging
experts,
fur@@
humane
immigrants,
indic@@
neutral
obje@@
prominent
reduces
resist
securities
suited
urging
award
energies
frontier
gree@@
ground,
ice
institution@@
materials.
new@@
origin@@
profile
socrates
tighten
ved.
well-being
-and-@@
196@@
accepted,
adjourned
amsterdam.
beginning,
church
conferences
display
documents,
evolution
free,
full.
ges
gothenburg
imperialist
impressive
independence,
ises
lost.
meetings.
persons.
premature
translate
tru@@
understand.
uni@@
1993
43
7%
art
ces.
cfp
challenge,
coins
contribution,
currently,
deal.
deployment
discharge.
elsewhere,
fed
fishing,
follow.
generating
hussein
illustrates
imposition
impossible.
ini
low@@
ly-@@
minister.
murdered
non-discrimination
opposition,
orientation
reserved
reviewing
scheme.
silent
somewhere
vaccination
120
?@@
a:
activists
considerations.
consolidating
conver@@
copenhagen.
department
efficiently.
f,
figures.
geopolitical
hearings
internally
ize
ministry
option.
prostitution
readmission
ris@@
saved
servic@@
strasbourg,
trust.
tt@@
urgency,
11.30
ators,
bananas
come,
consideration,
countless
did,
disappointing
earliest
exists.
given.
harsh
ics
limited.
ned
petition
pieces
poorly
power@@
respected,
scale,
secondly
somebody
tar@@
zed
ages
clarifying
exports.
forecasts
govern
home,
ish@@
japan,
keeps
legislate
mad@@
no-one
part@@
professor
republic.
un,
wood
15%
acute
additives
authoritarian
camp
cards
centralised
encountered
explains
flexibility.
ic.
incorporating
light.
limitations
medicine
mugabe
prevailing
pride
recently.
retention
taxation,
unambiguous
undermined
york
9%
ant.
b.
campaign.
colle@@
counter-@@
cri@@
cted.
death.
di
different,
diplomacy
europe@@
ever.
farmers'
independently
indonesia
less@@
ling.
list,
mistake.
plants.
pressures
readily
reveals
shut
sport,
stipulated
structure,
structures,
substitute
targets,
transported
tribunal
us?
vigorous
worries
youth,
35@@
5.@@
allegations
background,
behave
caucasus
departure
developments,
fields.
five-year
ind/dem
indicating
instances
known.
mothers
opposition.
organs
passengers.
proceedings.
taxes,
usa.
vehicles,
virtue
weaker
38
boundaries
calm
co
created,
ct
from.
gl@@
ised.
kinnock
macro-economic
mechanisms.
minimal
my@@
persons,
ple@@
pnr
product,
radically
revising
shipbuilding
solana,
struggling
-year
13,
and/or
attain
b,
behaviour.
ck@@
compliment
controls,
correct,
darfur
enters
entities
environment@@
equally,
extends
georgia,
indicative
judgement
lagging
loo@@
protective
protects
reacted
reminds
saudi
site
starts
unification
vice-president,
y!
yield
9.@@
adult
asset
attending
bid
desperate
hinder
ish
israelis
league
mak@@
makers
manoeuvre
med.
pain@@
pra@@
purposes,
recovery.
reflecting
regain
rest@@
slight
sme
switch
trafficking,
visiting
/9@@
?'
algerian
ashton
ban.
boo@@
chair@@
codes
commerce
difference.
dubious
es’
eurojust
fat@@
insecurity
john
ki@@
proceeding
refuses
reiterated
scenario
shameful
simultaneously
washington
è@@
15,
abroad.
answers.
approval.
bg
ce'
china's
ction,
dangerous.
frankly
frontiers
groundwater
hours,
insisting
ite
knowledge.
mad
newspapers
post@@
punish
reaches
replied
reveal
sorts
station
supportive
thinking,
accelerate
approaching
arriving
a’s
back,
black@@
boats
broad@@
calculated
cited
citizenship.
complain
concentrating
consequences,
debates,
defines
designated
ding,
ecr
forming
fun@@
illustrate
immigrants.
med
migration,
pit@@
rapporteurs.
rates,
remember,
ridiculous
serious.
sir
stag@@
26@@
airspace
appreciated
climate.
comment.
competitive,
condolences
criticism.
defe@@
disposal.
distort
duties.
eu-wide
fair,
families,
favours
fostering
from,
ful.
harbour
hard@@
hygiene
ke
kill
mandate,
medium-term
method.
migrant
persistent
please,
rein@@
salary
sm@@
studied
successful,
swiss
taxes.
th,
unusual
valu@@
already,
anything,
been,
bulk
cities.
confused
constitu@@
continent,
cooper@@
debts
denounce
departments
endeavours
engine
favoured
guard
ians
innov@@
lobby
mobility,
ports.
punished
simply,
sorry,
tabled,
underestimate
vic@@
voice.
admission
can.
classified
constitution@@
crossing
d's
database
decades,
demand,
deployed
distant
dra@@
explore
exported
feasibility
guinea
innovations
investigating
martin
minors
monitoring,
notification
ously,
peacekeeping
quotas.
realize
sar@@
sign@@
st,
supposedly
take,
wa@@
weather
weekend
44
8.@@
a5-00@@
affair
allies
analysed
base.
board,
boosting
civilised
commission@@
cting
cuba.
deputy
equipment.
evidently
ideology
injured
ku@@
liberalisation,
many,
minimise
moscow
nation,
occurring
pacific
retained
ster@@
suspicion
techniques
tied
truth,
/2002
ade
assert
begins
bs
capita
checking
continu@@
contracting
crop
debt.
defence.
delay,
deser@@
diver@@
dramatically
g.
id
ignored.
kar@@
len@@
longer.
nation.
ological
over,
prohibit
putin
qui@@
reaffirm
realisation
seed
side@@
statute.
tax@@
theory
toys
/99
75%
approved,
attacked
cap.
commen@@
conclusions,
confirmation
decre@@
ethics
eu-russia
feder@@
functional
grand
ist@@
lam@@
migration.
nic@@
operators.
organis@@
organisational
organisms
part-time
planet
reliability
representatives.
ros@@
sion@@
substances,
swoboda
truth.
urges
users.
voiced
wrong,
ain@@
amnesty
av@@
beings,
connections
contaminated
deal@@
hands.
hun@@
oil,
palacio
polluting
reactors
recession
redress
satisfactory.
ses@@
socialists,
thing:
unclear
ved
vin@@
based.
beginning.
coexistence
currencies
declaration,
ency.
ess,
foot-and-mouth
her.
iceland
low.
modern@@
modification
overlook
question@@
records
roadmap
serbia,
ski
smo@@
stone
store
stream
such.
unequivocal
wil@@
zz@@
6.@@
acp-eu
avoided.
bans
belarusian
box
brief.
ca
climate,
copy
country’s
desperately
election.
fifty
fund@@
neighbours,
offence
preconditions
preferable
rebuild
rigid
something.
south.
stor@@
uncontrolled
uranium
warned
wisdom
acceptable,
accord
aforementioned
approached
arguing
defen@@
discriminated
divisions
easy.
everything.
factors.
following:
happened,
ity;
laundering
limitation
long-standing
mag@@
motor@@
mouth
nowhere
once,
perpetrated
pointless
rightly,
risks,
s',
similarly
str@@
stressing
timing
un.
vessel
welfare.
š@@
/2000
alist
aquaculture
aris@@
arrival
ative.
balancing
barrier
benefits,
by-@@
caribbean
consumer,
continuously
côte
enjoys
enti@@
estimate
expression,
fle@@
gas,
god
habit@@
installations
johannesburg
last.
likewise,
luxembourg,
old,
ozone
populated
press.
pric@@
promptly
proportionate
quoted
re?
road.
serious,
sweden.
weakening
-free
00
42
anything.
charging
collecting
disarmament
embark
exchanging
frank
iii
included,
intercultural
lobbying
male
message.
neglect
non-eu
on-@@
prohibited
redundancies
ric@@
sharp
shel@@
soci@@
statutory
trialogue
validity
weakened
whether,
with@@
1.5
absent
abuse.
alisation.
ancient
aries
briefly,
burma.
child@@
choosing
confidence,
dealings
dimensions
disappear
disciplinary
disturbing
employee
equ@@
evaluated
expanded
gri@@
industries,
influence.
influenced
israel's
ity'
la,
no.
parameters
path.
performing
pes
policy?
privileges
remembered
rigour
shortly.
signatures
sitting,
sudanese
teams
three-@@
unilaterally
vegetable
violate
workplace
80@@
allocating
analysis.
appeals
ash@@
capabilities
catastrophic
celebrate
clearly.
crises.
cts
dissemination
dollar
e's
elements.
examples.
grips
grounds.
incorrect
intervention,
ir
ling,
poultry
trials
wal@@
yugoslavia.
'we
auditors,
barnier
bat@@
beautiful
circle
comments?
conflicting
consum@@
contracts.
coverage
croatia,
delete
democratic.
displayed
factors,
foreseeable
forwarded
function.
gor@@
heard.
histor@@
incineration
med@@
met,
profoundly
review,
rul@@
seen,
sele@@
sor@@
strategies.
surface
unequal
visibility
’@@
ages,
antibiotics
border.
cars.
company,
courts.
damages
destination
ga
georgia.
go,
honestly
hospital
hur@@
indonesian
justi@@
methods,
norway
opinions.
permission
pressure,
prisons
questioning
reac@@
resolutions:
sceptical
ses,
shocking
somehow
third,
tuesday
union@@
unrealistic
unreasonable
updating
ure
vers
virtual
zing
'a
auditors'
breeding
call@@
choice,
civilisation
coordinator
damaged
declaration.
ders,
did.
edf
fore@@
forgetting
g,
generalised
group@@
hatred
heritage.
incorporation
incurred
ineffective
interaction
leaders,
ly:
managers
modernising
obligations,
proportionality
scourge
single-@@
sive.
through,
tically
traditionally
ved,
36@@
ability,
agreed.
aim,
ambassador
behind.
bought
cell
ess@@
fied.
flags
gas.
headed
hope@@
i's
instru@@
least.
operators,
pakistan,
representatives,
sive
sovereignty.
stabilise
user
wasted
000.
20,
aim.
applicants
aspect.
combining
congratulated
consist
consumption,
cost@@
driver
electric
european@@
exploiting
hel@@
indeed.
india.
justifies
lesser
limits.
lobbyists
ment:
method,
noti@@
pin@@
postponement
reciprocal
relying
spo@@
sulphur
synergy
there@@
traffic.
up-to-date
ver
women'
41
accorded
adhered
ahead,
arrangements.
citizen,
company.
delegated
domain
ess.
farm@@
grasp
hon@@
ig@@
increase,
inter
jun@@
liable
liberalisation.
modify
pack
pillar,
poor.
pricing
regrets
sc@@
son
tho@@
v,
verify
adop@@
against,
ally-@@
anim@@
asylum.
automotive
compatibility
connection.
consensus,
continue,
corrupt
credits
curb
delegation,
der,
dreadful
employees,
entrusted
fragmentation
harassment
inspiration
introduced,
legislators
ombudsman.
outset,
overseas
ratio
regulators
schedule
ses.
she@@
small-
street
suicide
today'
two-thirds
updated
varies
week's
younger
ze@@
/2003
46
49
alliance,
application.
ative,
atomic
aw@@
besides,
broadband
concur
contrast,
counterfeit
creativity
cul@@
enforcing
fines
holders
humanity.
islam
lowering
minim@@
neighbour
pe
penal
perception
quest
sacrifice
skilled
stimulus
stopping
straightforward
summits
um,
alization
ators.
backs
brave
ced.
conceal
corresponds
crimes.
diplom@@
eco@@
exten@@
formul@@
it:
it;
mer
misuse
neglected
netherlands.
pack@@
pensions.
performed
poettering
produced.
prudent
raised,
respects,
safe.
sco@@
simple.
status,
tly
í@@
201@@
25,
34@@
air.
al:
alzheimer's
ana
ay@@
azerbaijan
basically,
changed,
cite
coup
d!
del@@
disappearance
escalation
gather
goal,
high,
interpre@@
lithuanian
ly?
moroccan
name.
patience
radiation
red@@
robert
russians
significance.
son.
spirit,
sustainability.
targeting
time-@@
track.
weakest
y'.
chechnya.
close,
delaying
disadvantages
dur@@
enc@@
fairness
feeding
foot@@
fulfilment
hesit@@
honoured
individuals.
ker
mac@@
o's
off,
orders
ou,
safe@@
suu
talks.
tends
top@@
treat@@
turkey’s
unjustified
accidents.
already.
always,
asylum,
basel
biodiversity.
cent@@
chain.
citizen@@
completed.
correctly.
eec
endorses
frameworks
guantánamo
harmonious
impact,
large,
market@@
ner,
new.
nice,
oil.
plea
practic@@
renew
self-determination
succeed.
temptation
tunnel
2020,
accompl@@
by@@
commissioners.
contradictions
distinct
duplication
eat
exceeded
excellence
exists,
extraordinarily
facilitation
foreseen
forest@@
heat
il
imprisoned
lorries
memorandum
methodology
monitoring.
nato.
passport
play@@
profession
referendum,
replies
respon@@
sof@@
speakers.
spending.
subscribe
substance,
supporter
tenth
territory,
thursday.
transactions.
valued
vital.
warnings
accommodate
appropriations.
auditors.
ced
defenders
dignity,
ency
farming.
fees
florence
free.
future?
fy
gro@@
growers
inf@@
ise,
japan.
journalist
late,
luck
mean,
milestone
night,
nowadays
observing
opposite.
ours.
politic@@
prosperity,
relaunch
selective
soon,
statistics,
study,
tam@@
timber
tunisian
uk.
undemocratic
world’s
10.
38@@
accede
alism,
allowance
ball
ban,
blatant
building.
calendar
catches
ctions
defeat
diesel
exclu@@
hen@@
hypocritical
imply
improved,
incumbent
intent
labels
long@@
mic@@
music
phenomena
rapporteur’s
rati@@
shocked
shop
smuggling
tac@@
tering
thirds
tun@@
upholding
useful.
virus
votes,
word,
2015.
adopts
assigned
aung
balanced,
banks.
based,
care@@
conformity
cont@@
creation,
ct.
detained
dro@@
european.
exercise.
factor.
free@@
investigated
investments.
ish.
ka
lat@@
light,
machinery
mann,
nationality
offensive
pay.
publishing
right-wing
road,
safe,
servants
simple,
studying
subscri@@
varied
wrong@@
zation
‘no’
14,
65
add,
brazil,
colombia
complies
condemns
crew
defined.
es'.
exclusion,
failures
father
forgive
herself
ia's
imports.
impunity
infected
lar@@
les,
lla
med,
nice.
occurs
penalty,
president@@
q@@
reciprocity
resolutely
resolutions,
sil@@
specialised
temporarily
unresolved
vietnam
2011,
70@@
access.
britain,
calculation
cotton
devices
employ@@
everyone's
fulfilled.
had,
inform@@
inhumane
ious
legacy
mergers
michel
objectively
operation,
pave
principally
render
responds
round,
student
thinking.
though@@
tic.
accessibility
auspices
campaign,
cer@@
clause.
competitors
continental
cow
david
destruction.
effectiveness.
ex-@@
frustration
harmonisation.
house@@
impacts
individuals,
insists
instance.
its.
kilometres
ne
obvious.
pol@@
posting
school@@
shot
slightest
spent.
supplying
tro@@
underpin
yl@@
1995.
asi@@
ator.
away,
chaired
conclu@@
cost-@@
crucial,
cruel
educated
endanger
exception.
frame
full,
gathering
gentlemen
immediately,
immigrant
importing
iting
lukashenko
macedonia,
membership,
odds
oppression
pledge
recipient
reminder
six@@
sometimes,
understanding.
usual,
wondering
x,
access,
alarm
best.
blocks
com
copenhagen,
dark
expectation
expression.
fied
fly
fr@@
hed.
instructions
inten@@
inv@@
join@@
k-@@
leap
licensing
loan
margins
medina
ment?
nobel
nothing,
persist
quarters
reimbursement
resident
summar@@
teach
ther@@
toll
unconditional
zimbabwe.
ambitious,
ations?
breakdown
ceilings
complex,
corbett
dalai
develop.
discrepancies
dozens
equip
federalist
ff@@
fri@@
here?
honest,
individu@@
influx
ished
istic
josé
ly@@
manufactured
nat@@
ombudsman,
one:
pakistan.
potential,
rio
sa
south,
sustainable,
tered
tourists
undertook
varying
ver.
administr@@
aging
agreed,
amounting
andre@@
assisted
ator@@
certainty.
compensation.
describes
destructive
doubtless
eg@@
estonia,
eu-us
february.
fication,
fifthly,
fuels.
generic
herzegovina
ina
informed.
ists.
much-needed
nato,
observance
ori@@
perspectives.
plants,
politically,
presidents,
provided.
quotas,
schools,
shorter
sides,
theoretical
tragedy.
trial.
weapons,
whatsoever.
worsening
–@@
20th
beneficiary
breakthrough
cambodia
ched
ck
confidentiality
conne@@
crow@@
decisively
differs
dividing
ed;
embryos
fathers
fied,
flooding
formulation
forward-looking
gesture
grow@@
honesty
impressed
intensi@@
invasion
labelling.
mai@@
mission,
mobilising
ned.
patients'
prioritise
rape
removed.
rethink
serbs
steps.
tantamount
territories.
undesirable
wing
withdrawing
wo@@
39
accus@@
adults
also.
bank@@
canary
cars,
consultation.
costa
cuba,
defence,
deficit.
des,
differences.
disrup@@
easy,
epp
event.
evil
extremist
facilities.
fear,
images
imminent
imposes
including,
injustice
jam@@
korea.
les.
limited,
mechanisms,
outlook
politicians.
precious
prison.
reluctant
restored
ship.
sing.
sounds
stabilising
style
vested
vicious
worth@@
1992,
aggression
alisation,
americ@@
ars
biometric
broaden
change@@
changeover
childcare
confuse
construct
correction
definition,
diagnosis
draw@@
duty,
finances.
finger
fusion
ham@@
let@@
misunderstanding
ms.
muslims
parental
particip@@
peoples,
percent
phased
piracy
preceded
preventative
prosecutor
prote@@
reached,
reinforcement
short@@
sierra
solar
strain
supervision.
trains
transpose
um.
upheld
ä@@
100@@
5.30
95
air,
being.
celebrating
cia
clause,
cleaner
common,
contracts,
cro@@
discussed,
failed.
ford
gladly
inclined
investments,
kil@@
liikanen
lit@@
named
parti@@
penalise
pon@@
property.
reminding
species.
square
sudden
two.
vely.
2013,
21@@
ade@@
agency's
anti-discrimination
cap,
cardiff
congestion
contempt
cted,
dly,
endless
engineering
four@@
frequency
friends,
harmony
here:
inconsistent
increased,
insistence
islands,
legality
mediation
most.
nabucco
occasion.
operated
pain
persuaded
practise
religion,
rolling
separately
staying
submission
themes
thought.
touches
unwilling
wit@@
yed
ambitious.
arise.
ations:
capability
centuries
charter.
comment,
contradict
cost,
criticism,
ct,
d'@@
democrats.
disappeared
donation
dream@@
dy@@
egyptian
enemy
fies
hesitate
indicator
ins
introductory
justified,
materials,
now?
one-minute
optimism
pages
pledged
pornography
port@@
positions,
ref@@
ries
sanction
set-aside
steady
summer.
tightening
transform
very,
watson
ó@@
11@@
15.
1991
accelerated
acknowledging
address.
associate
attacks.
aver@@
berg
bomb
ces
cologne
complicated.
ding.
e!
el,
ele@@
elements,
ff
gathered
given,
government@@
grey
gs
guarantees.
income,
independent,
jarzembowski
lebanese
of@@
officials,
operations,
optimum
partner,
professions
remain,
scepticism
serbia.
sts
synergies
thought,
tougher
ty,
x.
advertising.
alternatives.
although,
ants.
au
ballot
birds
blin@@
cam@@
comm@@
conflicts,
dness
dropped
example:
executions
farmer
financing,
half-@@
harmonisation,
illicit
individually
ini.
job@@
labelling,
lending
levy
liberalise
logically
mortality
mus@@
nationalist
noting
novel
open@@
presidents.
ratifying
recommendation.
redistribution
resolute
restrictions.
roman@@
rooted
sen,
stand,
thanks,
unreservedly
views,
viol@@
you:
90@@
acceding
anti-dumping
biomass
chaos
cli@@
climatic
coast@@
commission:
conceived
doubt.
exacerbated
factory
fishermen,
fits
gsp
headquarters
ial
korea,
leadership.
literally
minority.
mir@@
moments
move.
myself.
packages
participation.
planning,
protection@@
recommendations,
rectify
refunds
retaining
sions.
that:
tonight.
tuberculosis
utilisation
worrying.
zu
ü@@
18,
39@@
advance.
arm@@
balanced.
bali
best,
bran@@
canadian
chance.
clearing
closest
confirming
constructively
consultation,
derive
embryonic
encounter
endeavouring
equipment,
ess
floor,
flu@@
found,
gdp,
ict
ii,
ion@@
it!
lanka
latvia,
liberalising
ma
meetings,
mol@@
offic@@
publicity
rebuilding
safeguarded
shock
speculative
stric@@
target.
termed
ths
vaccin@@
verheugen,
view@@
/01:
/2006
16,
absorption
accounts.
cohesive
conform
countryside
decentr@@
ed:
enthusiastic
entirety.
entrepreneurship
est.
follows.
ful@@
governmental
heating
king,
meps.
noon
on?
operate.
phase,
poor,
premium
racism,
referral
russi@@
schemes.
something,
specific,
syrian
tender
unaware
undergoing
upon.
wish.
12.
2.5
ats,
automobile
brain
controversy
deadlock
deepen
depleted
desirable.
embrace
factual
fatal
fischler,
fish,
freeze
holiday
household
ine@@
ities
legislator
live.
monday,
next.
phenomenon.
politician
possession
pp@@
ps.
requirement.
revenues
roun@@
scene
scheme,
share.
specifications
studies,
summer,
supplies.
thessaloniki
tim@@
tly.
website
week@@
window
z.
ö@@
,@@
/96
accept,
ad,
alike.
ang@@
arm
arrests
ay
bow@@
canada,
chad
characteristic
coach
considerations,
debt,
decision-making.
door@@
dynamism
ency,
exciting
expected.
fortunate
glass
graefe
hot
kill@@
lawyer
member's
nationalism
neoliberal
ngos.
odd
only,
passage
person,
pic@@
posselt,
possess
predict
project@@
prompted
qualify
questionable
rap@@
remo@@
rests
rice
sessions
short-@@
sick
supplemented
synthetic
time?
trust,
useful,
verdict
voting,
yugoslavia,
05
13.
abandoning
abused
ask,
austria.
bank's
bir@@
bureaucracy,
coordin@@
croatian
cycl@@
deal,
domin@@
ence.
engines
experts.
factories
facts,
finalised
gbp
georgian
ines
item.
ken@@
mou@@
negotiators
notified
ours,
pil@@
posselt
preferably
prepared,
president-in-office.
price,
progressively
relationship.
remarks,
responsibly
restraint
roads.
sector@@
session,
sunday
trac@@
two,
undergo
well@@
working,
!'
+@@
51
age@@
aids,
allotted
ances
arrange
belgrade
bloody
cancún
che
collectively
compensatory
counterparts
ctive
disabilities.
discretion
eng@@
england
exceeds
fail@@
fre@@
heartfelt
house's
hum@@
illustrated
importantly
improvements.
insight
insufficient.
insul@@
inviting
jean
landfill
les@@
me:
oblige
ons.
pres@@
presented.
regret,
rejected,
secrecy
stake,
statements.
suffers
therapeutic
upcoming
wealthy
52
alive
annually
bulgaria.
ctions.
differences,
disgraceful
does.
envisages
expressions
freezing
hard-@@
hostage
islam@@
iti@@
labelled
leave.
little,
ment'
native
notwithstanding
offen@@
one-sided
originating
our@@
pat@@
petitions,
police,
ports,
postponing
pregnant
pro-european
provi@@
religion.
remain.
roll
salmon
sam@@
seeds
stand.
stat@@
stop@@
story.
tak@@
tex@@
timetable.
topic.
ty.
unequivocally
users,
wednesday,
where@@
whoever
airports.
answering
appearance
ash
binding.
cause.
centre.
communautaire
communism
constru@@
consultative
crimes,
deterior@@
drastically
est,
ever-@@
everywhere.
exception,
exerted
feel,
forum,
intensity
know-how
lic@@
living.
lor@@
luxembourg.
modifications
observatory
overly
persecuted
plight
preserved
pretend
quartet
regrettably
rest.
rush
scrutiny.
som@@
stress,
subsidised
suffering.
terrorists.
unknown
vessels.
wall@@
winner
11.
85
active,
argu@@
assistants
authorise
border@@
catastrophe
chechen
clean@@
closely,
competence,
confusing
deprive
destined
developed,
eurodac
fashion
genital
gmo
her,
hugely
incidence
indi@@
ment;
ms,
municipal
ns
obama
optional
outlines
ppe@@
prisoners.
ps,
realistic.
reconciling
resettlement
sustain@@
threat,
undertakings.
usefulness
wallström
17,
47
accountability.
advoc@@
aims.
altogether
ans'
ar.
ath@@
bathing
catholic
chocolate
classes
clear@@
commodity
conducive
court's
criticising
deci@@
des.
dictate
differentiated
dollars
ee@@
ensure,
existence.
facilit@@
fashion.
fication.
fish.
fitting
ii.
interpreters
king@@
learning,
liberalised
lively
neutrality
occur.
presently
province
questioned
rapporteur'
referenda
republic@@
solved.
speeches.
speeding
staffing
thresholds
ticket
unnecessarily
violates
‘the
abolished.
accessing
ans@@
applications.
aring
atory
atrocities
attitude.
bad@@
border,
burning
capit@@
charter,
convicted
de-@@
determination.
develop@@
disadvant@@
distribute
drought
emphasized
er'
essence,
experiments
fair.
fishermen.
forty
granted.
hospitals
ically,
ignores
increasing.
ities,
ked.
legitim@@
lun@@
meantime
parliament:
phase.
product@@
que@@
resignation
safely
science,
seal
self-regulation
steering
supported,
test.
tions:
uclaf
unstable
wines
wrongly
zone,
1989
ably,
aids.
ation's
atively
attendance
be?
böge
chairmen
challenged
choices.
communicated
confrontation
conventions.
crucially
decoupling
designation
disposed
dly.
eliminated
emerges
entity
equity
evaluation.
execu@@
fields,
friend@@
grass-roots
identity,
inspire
interpretations
ked,
leaders.
left.
lehne
limit.
little.
london,
member@@
officials.
patients.
patri@@
presumably
recommending
refle@@
significant.
societies,
systemic
tempted
tic,
tric@@
twenty-first
vice
winter
accounted
advantage.
afric@@
alistic
an-@@
anyway,
barbaric
beg
catalyst
comprehen@@
conferred
contemporary
cultural,
danger.
devised
distorted
dossier.
elect
exhaustive
fal@@
friday,
hamper
igc.
key@@
lessly
loading
man's
may@@
nar@@
nee@@
offset
ordered
outset.
planet.
plenary,
reaffirmed
recast
reinforces
reopen
return.
signed.
sorted
stakeholders.
stamp
stands.
study.
tics.
tom@@
tor
traffic,
unions,
wh@@
why.
wishes.
,000
350
accompany
alised,
arri@@
ascertain
building,
cat@@
commissioned
cru@@
cup
def@@
dumping.
dwell
economics
elite
employing
endorsement
epidemic
extremists
french,
fully.
ged.
globally
headings
health@@
illness
inciner@@
left-wing
liberalis@@
local,
make,
material.
meal
ner.
occasionally
opt-out
options.
part-session,
provided,
re:
recommendation,
reduced,
reward
signal.
sittings
sli@@
some,
states:
tailored
today?
train@@
trips
versions
victim@@
villages
welfare,
widening
12.00
9/@@
accurately
advisable
albanians
alcoholic
aller@@
alternative.
amended.
analy@@
ankara
appealing
arose
attacking
backwards
bangladesh
bombing
cigarette
coincidence
commission?
condition@@
considered,
credit@@
dered
difficulty.
dignified
discharge,
doubtful
drin@@
embarked
emo@@
ever-increasing
finance.
fundamentalism
gain@@
gene
gmos.
hy@@
impossible,
insult
intern@@
intimidation
izquierdo
ko
lifted
ly;
monitored.
mr.
name,
norms
oomen-ruijten
parliament?
quicker
quo
reg@@
sacrificed
scar@@
schemes,
schulz,
secular
situation?
sport@@
statute,
stocks,
termin@@
transmitted
transport@@
triggered
vely
wan@@
altered
are:
autumn.
awarding
backbone
bio-@@
buildings,
burden.
ching
cities,
composed
contrary.
custom@@
decided,
documentation
don't
easier.
effects,
egypt,
enlarge@@
es!
filled
followed.
haz@@
held.
high-speed
identifies
intermediate
jewish
kal@@
lamy
lies.
moreover
motivation
night.
occupy
openness,
opinions,
posi@@
prerogatives
profits.
ranging
received:
reports:
respects.
rob@@
santer,
scientifically
se:
ships.
son@@
specialists
sy
taxpayer
tel@@
torture,
tripartite
viewpoint
vit@@
acy,
alities
appreci@@
ate?
average,
cast@@
clinical
credentials
ders
disposal,
europe:
europol,
expectancy
forecast
fraudulent
ground@@
heed
imprisonment
incoming
ining
jeopardising
km
kofi
lamfalussy
learning.
letting
ligh@@
lots
macedonia.
mel@@
more@@
non
observations.
proportion@@
purcha@@
recognised.
renewables
resolved,
second-@@
seized
separ@@
sla@@
solvit
steadily
stuck
suppose
texts.
th.
tiny
toler@@
tradition,
turnover
unduly
universally
unlawful
vaccines
visitors
à
1994,
accidents,
ack
adjournment
adjusted
anxiety
armenia
ator,
bitter
ceasefire
certificates
classic
council:
coupled
ction@@
dictatorship.
dispute.
earned
emotional
ently.
ents,
ethiopia
eventual
evidence,
exploitation.
films
frag@@
ine,
intentions:
legitimacy.
medicines,
merger
ner@@
nowadays,
observed.
only.
participation,
pollu@@
radic@@
rigorously
roughly
sahara
scrap@@
se?
shifting
solu@@
specific@@
sub-saharan
ted;
tele@@
unemployed.
vegetables
waters,
works,
acts,
addiction
agree@@
agreement@@
ambitions.
anti-fraud
assu@@
att@@
branch
bru@@
c5-0@@
cancellation
centres.
ch-@@
clarification.
cle@@
cleared
colon@@
complain@@
complic@@
comprehensible
confusion.
control@@
croatia's
cry
deplorable
deploy
dictator
dé@@
ecsc
evidence.
exagger@@
flo@@
fortress
grounds,
gy@@
hostile
hunting
identi@@
illustration
implications.
intentions,
intolerance
lasted
loopholes
making,
manag@@
metres
option,
other's
outright
petrol
planning.
poles
policy@@
qual@@
reasoning
rehn
savings.
settlements
ski,
state's
storm
sy@@
talks,
vigilance
violating
winning
-up
ambiguous
annan
asem
attributed
balances
believing
buildings.
cairo
catching
churches
consider@@
council?
ctions,
delors
duplic@@
eating
every@@
exp@@
fish@@
gran@@
hearts
heated
hedge
ie
journalists,
leonardo
lling
macro-financial
maltese
materi@@
mep,
mistaken
moment@@
morocco,
morocco.
non-discriminatory
old.
opportun@@
owned
particularly,
patenting
perpetr@@
phasing
present@@
qualifications.
relocations
returns
ries,
ry.
scope.
singapore
sions,
statistics.
sticking
success@@
they,
tics,
tions?
tragedies
trap
tropical
unhappy
union:
ñ@@
ability.
accident.
acy
al?
architecture
bak@@
bangemann
barriers.
bis@@
bloc@@
bly
calculations
case-by-case
centres,
civilisation.
comprising
consider,
emp@@
enjoying
environmental,
environmentally-friendly
ers?
exceeding
extremism
fan@@
favouring
file
fleeing
forget,
friend,
generates
good@@
impartial
isolate
j
levelled
martin@@
mature
moder@@
méndez
nai@@
negotiation.
que
referred.
relevant.
renation@@
revolutionary
richest
signed,
stop.
strengthened,
students,
suit
tighter
tors,
transl@@
try,
va
vision.
'i
19,
20.
alpine
assertion
associations,
attracted
child.
ck.
commendable
communit@@
completely.
conduct.
conf@@
confidential
cosmetic
credit,
declining
delegation.
din@@
directly.
eas@@
exacerbate
finland.
fix@@
flexible,
fontaine
fragmented
fulfils
generation.
hydrogen
ing-up
injuries
left/nordic
machine
mandelson
mit@@
mode
neo-@@
people?
play,
players.
pleasant
presented,
progressing
racial
representations
ries.
roads,
subsidi@@
unexpected
unlimited
ve?
194@@
1994.
allegedly
ard@@
ational
bay
broadcast
buses
capture
comprises
consistent.
differently.
east@@
entrepreneurial
ents.
essentially,
extended.
fantastic
farming,
forgotten.
forwar@@
gaza.
gnp
held,
hiv
hot@@
imagin@@
ip@@
islands.
kurds
liquidity
mankind
message,
nationals.
news.
pa
passengers,
peace@@
polluter
predictable
prerequisites
prescribed
prospects.
realising
shortcomings.
us:
wai@@
's,
acknowledgement
advancing
advantageous
afforded
alised.
altogether.
backdrop
bordering
cancer.
cereal
ck,
club
commit@@
connect
correc@@
curious
demands,
democrac@@
details.
doubling
emu.
ends.
etc.,
evol@@
facilitates
fai@@
finance,
happens.
heart.
historically
horrific
incorporates
ine.
interpretation.
jerusalem
legal,
lif@@
life-@@
mark.
multi-annual
multilingualism
noted,
outrageous
passes
pensions,
person.
profitability
provision.
rais@@
reads
reding
rep@@
seven@@
shown,
space.
spirit.
sting
s’.
tas@@
ton
toward
transformed
twenty-@@
version.
vitorino
200@@
albania,
anti-personnel
average.
awful
boat
brief,
chechnya,
complex.
concluded.
corrective
credit.
cypriots
declaring
demonstrators
discourage
diversi@@
edge
educ@@
europe;
fixing
fol@@
grassroots
intensified
intensively
interreg
investigation.
kur@@
lord
ls.
me?
mobilised
motion,
narrow@@
nor@@
premiums
pressed
reactor
realistic,
rothley
secur@@
sheet
stands,
stated.
tony
tough@@
95%
abuse,
acy.
al;
albania.
attacks,
avail@@
carefully,
ces@@
chiefly
chile
cing
clu@@
coinci@@
contribu@@
contributions,
cover@@
cure
detection
develops
disgrace
done?
employer
everywhere,
exit
facilitated
fix
flag@@
force@@
golden
grip
hesitation
hopeful
inclu@@
indicated,
investig@@
issue:
lady
libya,
ls,
magnificent
maintained,
malaria
milli@@
monies
observ@@
obsolete
outcome,
outs
phone
points:
populations.
practised
proceed.
protocols
roth-behrendt
separated
standardised
statements,
suffici@@
tibet.
undergone
well-balanced
"the
areas:
bombs
breaks
capitalism
centre,
ces,
charges.
cohn-bendit
compelled
convert
cynical
degree.
dele@@
deman@@
designate
distribu@@
el.
elderly,
eli@@
error.
experiment
explosive
expulsion
flow@@
increasing,
intentions.
interparliamentary
intervening
judging
ki
lacking.
liter@@
low,
ma,
malta,
mitigate
obliges
openness.
otherwise.
paraly@@
pay,
penalised
pledges
previously,
produce.
profit.
pupils
quote,
railways.
rapprochement
repatriation
rever@@
s&d
slavery
sovereignty,
spending,
sphere.
spot
standard.
started.
sudan,
ta,
thin@@
tors.
unanimously.
vice-@@
w.
you@@
130
:@@
absorb
accounts,
acquis.
ants,
arranged
authorising
broke
cancel
categorically
cher@@
concept,
correspon@@
crises,
crude
describing
destroyed.
deteriorating
differenti@@
direct@@
disclosure
evalu@@
federation.
friendship
gold
habit
ile
importers
interfering
ist,
listing
live,
lorry
midst
minister@@
month@@
on's
overlooked
ow@@
parliament@@
passengers'
phenomenon,
pleas@@
poettering,
predominantly
representative.
road@@
scotland,
south-eastern
speaker,
stabil@@
successfully.
tered.
test@@
texts,
tradition.
underway
ving,
voice,
waited
welcomed,
withdrawn.
/0@@
2012,
aggres@@
appearing
ately
been.
ced,
channelled
clash
comple@@
consequence,
cornerstones
crespo
crux
deepest
differen@@
differentiation
duties,
duty.
endangered
enlarge
ery
exceptions,
fis@@
fisher@@
flagrant
fying
game.
german@@
guideline
hectares
infe@@
ized
k's
libyan
main@@
motiv@@
ne,
notable
os.
overcome.
pass@@
places.
pollutants
prejudic@@
prohibits
reluctance
reservation
risk@@
sca@@
scandinavian
sharon
shoc@@
starch
sterling
stored
stories
strategies,
suppression
tape.
travellers
vision,
vulnerability
wat@@
watch@@
weeks'
worded
14.
30,
46@@
abundantly
administered
airlines.
alia,
ambigu@@
anyway.
apply,
arrangements,
artists
ats.
audit@@
avian
big@@
bonn
britain.
calcul@@
chirac
companies'
criminals.
democracies.
else@@
ences
ets
eu?
excludes
excus@@
financial,
forge
formulating
forum.
frozen
function@@
gases.
ger,
include,
initi@@
inquiries
integr@@
interconnection
international,
invest@@
ireland's
issu@@
iv
landscape
nano@@
ne.
nets
o-@@
oostlander
oun@@
output
passionate
point@@
pool
prisoners,
ra,
recitals
repe@@
requested.
right@@
rights?
schools.
set,
ship,
sion:
situ@@
skills,
speeches,
steps,
t’s
u,
upset
victor@@
ving.
warmest
was@@
wasting
."
27,
abandonment
ach
acquisition
arafat
australia
bonino
but@@
candidates.
cereals
champion
cigarettes
communic@@
conception
consisting
continual
convictions
detected
dialogues
disparity
divergent
drink
ei@@
ence,
excluded.
feed.
fire@@
globally.
gol@@
gratifying
guide@@
hau@@
headway
heritage,
illnesses
inclusion.
indifferent
inventions
ish,
ization
journeys
lap@@
le?
malmström
manufacturer
ngo
nur@@
obstacles.
oil@@
once.
optim@@
palestinians.
pig
places,
poo@@
processes,
recor@@
relatives
relieve
remains,
represent.
seconds
self@@
skills.
sme@@
sson,
stan@@
states;
surveys
to-@@
travel@@
ts'
unfavourable
web
yourselves
1498
1993,
5%.
accomplished
approves
assumes
aud@@
barriers,
blockade
citizenship,
cluster
commented
concept.
contentious
deaf
determin@@
dissatisfaction
distributing
door.
e-commerce
eigh@@
ens
erik@@
ering
examples,
feira
grain
grand@@
guarantees,
happen@@
illusion
informed,
interior
lim@@
ments?
migr@@
motives
obstru@@
origins
os,
oslo
outcomes
pakistani
pertinent
por@@
proceedings,
relies
research@@
reserve.
richer
roo@@
run@@
shi@@
sively
slogan
stems
stipulate
suspending
taxpayers.
tly,
travel.
turn@@
tw@@
twenty-five
unjust
uzbekistan
vital,
will@@
/00:
10.@@
adversely
ambition.
appointing
armenian
army,
arti@@
athens
attitude,
batteries
bone
catalogue
clin@@
community’s
comprehensively
conciliation.
constructing
contradicts
corrected.
counts
crops.
cs@@
dedication
details,
detect
dictatorships
discrimin@@
distorting
encouraged.
estim@@
favourably
fif@@
gonzález
horror
ical,
inadequate,
justifiable
load
lying
mainstream
mercy
militarisation
most,
necessity.
neg@@
network@@
palestine.
par
pha@@
proclaimed
prohibiting
ranks
ratified.
reacting
recognised,
revive
slo@@
slovenia,
supervis@@
travelled
truth@@
undeniable
violations.
wis@@
yourself,
ş@@
7/@@
accuse
afterwards.
airlines,
amaz@@
backward
barrot
blank
bus@@
carri@@
centred
clim@@
constan@@
constituent
consumed
contrac@@
dee@@
discriminate
ecosystem
et,
eth@@
farms.
feet
forests.
gallery
geographic
ger
harmon@@
ians,
interrupted
lakes
legitimately
like@@
longer-term
marginal
mean@@
mobil@@
modulation
murders
need@@
pertaining
polic@@
presidency’s
produced,
proportional
refuge
remuneration
requisite
sad@@
sight.
situated
six-month
smoke
sudan.
supervision,
symbols
trade@@
west,
wogau
—
8/@@
abroad,
abstaining
allocations
artistic
belgium.
believe.
causes.
civili@@
clarity.
co-decision
commonly
competi@@
congo.
corrected
corridors
craf@@
decide.
deleted
dem@@
dialogu@@
disruption
draft.
dynam@@
emphasised,
envoy
ere@@
esdp
excellent.
exports,
fabric
face,
fundamentalist
guil@@
h-@@
herman
holdings
humans
hydro@@
ins.
lead,
likelihood
lou@@
manufacturers,
matched
mini-@@
noble
obser@@
overriding
path@@
policing
prague
premise
prioriti@@
qualities
quiet
re'
reach.
reduction.
right:
rulings
sec@@
seville
shall,
short-sighted
species,
super-@@
sustainability,
tive,
traditions.
transporting
tsunami
tuesday,
unregulated
unsustainable
ure.
vessels,
visa-free
vote@@
waterway
west@@
worldwide,
22,
58
affair.
alas,
alien@@
autumn,
base,
berlusconi
celebrated
champion@@
compensated
conditionality
cosmetics
criticis@@
cts.
curi@@
deni@@
dictated
draft,
ecosystems
ents
executed
factor@@
florenz
flu
forth
fully,
imports,
ing's
inhuman
instead.
interesting.
iron@@
irregular
justifiably
labour-intensive
landing
leader,
lebanon.
leverage
liberation
lies,
limits,
marriage
mccreevy
meanwhile
monthly
mul@@
nutritional
opt-@@
parts.
paul
pays'
ped.
penalties.
portfolio
prevail.
prevailed
protected,
provision,
quanti@@
reap
repres@@
seminar
signatories
skill
succeed,
suggested,
tactics
techn@@
threats.
unity.
unrestricted
unwanted
voluntarily
wine.
workplace.
-to-@@
addressed,
adjourned.
ail@@
approach@@
arguments.
ashamed
aspire
atic@@
benefit,
chronic
clarified.
collap@@
committed.
completed,
condem@@
continued.
covered.
cultures.
ded?
desired.
egypt.
energ@@
excep@@
exhaus@@
famili@@
footing.
ger.
germans
gh
gy
industri@@
inflicted
influenza
kosovo's
lead.
losses.
manipulation
mc@@
mone@@
palestine,
players,
president's
re's
re-establish
reje@@
repeal
restricts
rises
saying.
scope,
shops
signatory
slovakia.
solidar@@
son,
sophisticated
stand@@
strateg@@
support@@
syria,
technical,
trace
turnout
ving
weigh
winners
alle@@
appear@@
appropriation
appropriations,
ase@@
asked,
attack.
bing
block@@
byrne
cargo
certi@@
cites
civic
commun@@
cost-benefit
craft
crip@@
customary
damage,
dating
dismantle
elaborate
election,
energy-@@
farms,
ferrero-waldner
flagship
forceful
forests,
horse
illegal,
instrumental
interpreting
investor
ishing
izing
ji@@
liaison
mauritania
minority,
news,
nigh@@
no-@@
occurrence
outdated
passed.
pattern
pel@@
pol
pragm@@
public's
r.
received.
recipients
reduction,
regrettable.
roaming
roma,
roma.
run,
scarce
settling
sible.
sid@@
state-@@
stops
subsequently,
subsidising
switzerland,
unavoidable
uncertainty.
unused
var@@
waged
wine,
wn
yo@@
21,
5-@@
53
actually,
alli@@
approval,
audits
benchmarks
brussel@@
calculating
cleaning
combated
competences.
counter-terrorism
country'
cti@@
degrees
deliber@@
doping
ently,
equilibrium
esf
excellent,
existence,
explanation.
extraction
fail.
firm@@
firms.
fleet.
frattini,
hierarchy
housing,
ii@@
improvements,
initiati@@
intending
involvement.
journ@@
le-@@
longer,
minute.
misery
mulder
obvious,
operator
ot
peace-@@
personality
pictures
pling
precautions
reasonable.
reconstruction.
record.
recording
reintegration
remedies
routine
s"
sat
sie@@
smoothly
specul@@
ted:
tests.
tol@@
tunisia,
ty-@@
union-@@
west.
wonder@@
č@@
25.
about?
adjusting
admittedly
advice.
afterwards
aims,
asbestos
b6-0@@
bargaining
barroso.
bureau.
capitals
cies.
clubs
convention's
critically
dangerous,
death,
decentralisation
detainees
doomed
ese
evans
expected,
expensive.
friends.
fruit.
frustr@@
gg@@
giant
helpful.
him@@
ideals
ily,
influential
infrastructures.
las@@
locally
lv
mafia
manoeuv@@
mayor
measu@@
minute's
mur@@
passports
pati@@
patterns
perpetu@@
petitions.
presupposes
promoted.
providers.
provoked
pul@@
r,
rapidly.
reasonable,
recognition.
religions
rome,
salute
sarkozy
satisfied.
scandals
scoreboard
self-evident
sett@@
shopping
show@@
stic@@
strip
surpluses
sustainable.
throwing
tightened
understanding,
vac@@
voic@@
wards
waves
weak@@
wealth.
world'
110
45@@
achievement.
addic@@
adherence
affirm
apolog@@
applic@@
argues
atic.
atlantic.
audi@@
bloc
burg
busy
bösch
cancelled
caring
codecision.
consular
consume
cy,
diversify
documented
drug@@
equal@@
exerting
exist@@
facing.
failings
ferre@@
finishing
free-trade
fy.
fyrom
goo@@
guaranteed,
hiv/aids
ignorance
infectious
isation.
ism@@
lands
lapses.
latvian
lay@@
ling@@
mention,
merkel
mom@@
nomination
opposes
parts,
patten,
peacefully
perceive
police.
prosecu@@
ratings
real,
regional,
rer
return,
rocard
satisfactorily
select
slow@@
strategically
subjects.
subsid@@
suggestions.
sweeping
takeover
thanks.
tion'
undeclared
understood.
unrest
unsatisfactory.
ures
walls
weak.
ń@@
'polluter
1993.
23,
aftermath
alban@@
alexander
application,
appro@@
baby
bar
benchmark
bin@@
blackmail
bluefin
bureaucr@@
burma,
cadmium
chance,
child,
clashes
code.
coffee
command
compensation,
compliments
cost-effective
counteract
countries’
ction
customer
defensive
devastated
dioxin
disadvantage.
doctor
dor@@
fam@@
feared
gallery.
happily
hardest
illu@@
junta
ke,
marin@@
marke@@
maxim@@
much-@@
ned,
neighbour@@
notify
ocean
off-@@
outlining
perfect,
planned.
poli@@
policy:
poll@@
pped
predicted
problem:
property,
quar@@
regis@@
reservations,
scrapping
significant,
sit@@
smallest
speaker.
speeded
spiral
stable,
stimul@@
surrounded
tail@@
technolog@@
tening
theory,
think.
threats,
traditions,
treatments
turn.
unanimity.
underpinned
unemployed,
ves@@
wednesday.
whe@@
white@@
z's
450
above,
alities.
alliance.
ample
applies,
arable
attracting
balan@@
bla@@
bosnia,
boycott
clari@@
clarity,
compli@@
congratul@@
consolid@@
decision@@
deeds
demonstr@@
denial
disast@@
drift
eritre@@
facilities,
fire.
fra@@
gatt
george
hasty
id.
imper@@
incur@@
inflation,
inquiry.
interrup@@
ised,
leadership,
libya.
madeira
modi@@
offici@@
overhaul
picture.
populist
rat@@
reasons:
recalled
recovery,
refuge@@
regimes.
resolution@@
rome.
shareholders
sharply
shows,
somalia
spe@@
stations.
temperature
tendencies
this;
tics
traffickers
trend.
unsafe
was.
wholehearted
widest
wonder,
xi@@
1990,
2015
33@@
absurd.
accident,
advent
ah@@
argument.
behaviour,
benchmarking
chair,
chin@@
community'
comp@@
complete.
computers
coo@@
cted
cy.
decade.
difficulty,
director@@
disappointing.
donations
dozen
endorsing
enem@@
es-@@
exporters
fat
fications
foodstuffs.
fronti@@
fully-fledged
habitats
help@@
hungary.
incomplete
interesting,
internation@@
ise.
juncker
know@@
lau@@
letter.
lon@@
low-carbon
mafi@@
marginalised
mindful
minimum.
nielson
nutrition
ome
ox@@
paradoxical
plainly
plant.
proximity
public-private
pursu@@
qualification
ran
reservations.
risky
route.
ry@@
seen.
shores
spheres
supplier
tasks,
term@@
terri@@
then?
three-year
tragedy,
transforming
ukraine's
venezuela
walk
wanted.
approximation
arguments,
arms.
association,
biodiversity,
boun@@
bse.
certificate
clarifies
coincide
collaborate
commensurate
compiled
complementarity
comprehensive,
confess
constructed
contributors
cultures,
danger,
decided.
decreased
delu@@
dismissed
distan@@
embarking
emphasise,
eradicating
eu-africa
evade
evaluations
exhaust
expiry
fication
flows.
forms.
freedom@@
friendly.
greenland
greens,
gru@@
hed,
hiding
households
injury
internationally.
joy
logistics
mail
market-@@
massacre
miles
milit@@
misgivings
moldova,
morn@@
nitrates
nonsense
pe.
polluted
programm@@
propose,
protectionism.
realism
repetition
revolution.
sci@@
shipowners
ships,
shoul@@
stations,
string@@
taste
tie
tit@@
tobacco,
tobin
uncertainties
universities,
unquestionably
ups
vill@@
watered
'in
+
/02:
10th
2007-2013.
54
55@@
aci@@
admire
affe@@
ame
annexed
approaches.
atives.
banned.
behalf.
betra@@
bom@@
brazil.
breathe
broek
campaigning
cc@@
circles
civilians.
concep@@
croatia.
del
dilemma
discrepancy
distin@@
exercise,
finalise
fischer
flexible.
formerly
gear
graph@@
guar@@
hom@@
horrendous
hungarians
individual.
inflation.
initiating
kes
kinnock,
lebanon,
leon
listen@@
ll
marg@@
needing
nor,
offer.
offshore
oring
ory
oversight
pandemic
participate.
passed,
perspectives,
phra@@
plea@@
polis@@
portion
premises
printed
problem?
problem@@
questions:
racism.
refu@@
reloc@@
remembering
reviewed.
sacrifices
sea@@
small.
son's
sound,
soya
spell
steer
supplements
terrorists,
tests,
ther.
timetables
tired
tonight,
violated.
visas.
warrants
waste@@
workings
xenophobia.
ó
57
abbreviated
advertising,
ambiguity
amended,
appointments
asked.
atypical
bad.
box@@
branches
cho@@
coll@@
common@@
communicating
complete,
conscience.
conserv@@
converted
country@@
critics
davi@@
decide,
deforestation
discharges
disputes.
dram@@
eighth
evasion
exchanged
expan@@
extensively
figu@@
fine,
fool@@
forcefully
forwards
function,
gal@@
gam@@
georgi@@
ges,
happening,
hour.
int@@
ital@@
lab@@
less-favoured
manufacturers.
motto
o'
oldest
ons,
overdue
p-@@
patent@@
performance.
ra
rail@@
restricted.
rightful
sentiments
spar@@
successor
summary,
tigh@@
tonne
topic,
trigger
ty?
upgrading
vulnerable.
wag@@
wallis
warrant.
't
2000@@
ad.
announcing
appreciates
argument,
around.
avi@@
bse,
camps.
charge.
circumstan@@
competences,
compromises.
concentrations
confronting
constituted
contain@@
courts,
dat@@
day's
dec@@
demograph@@
devising
disappear.
downward
eurozone.
examined.
fires.
firms,
following.
front.
gent
growth@@
helms-burton
holy
house’s
il.
individual,
ity@@
lama
ler@@
logistical
manipul@@
matter@@
mean?
mistakes.
monu@@
mood
morally
neo-liberal
note.
opting
organize
patients,
ped,
person's
posing
precise,
prin@@
promises.
quoting
ratified,
re;
resistant
respectful
simplistic
smoking.
soun@@
standpoint
stopped.
tive.
too@@
tool.
transposing
turkey'
union;
unpleasant
velzen
wages,
ão
…
22@@
900
accumul@@
acquiring
adoption.
alloc@@
amount,
anyone.
apparently,
blair,
brilliant
co,
codification
considerably.
conventions,
critic@@
critical,
cts,
cuts.
cy
decade,
destruction,
disappear@@
dog@@
encompass
endangering
enp
europol.
ex
expi@@
expressed.
fellow-@@
files
foreigners
fundamental.
gan@@
german,
handing
ideally
inefficient
issues:
kaliningrad
ke.
ker@@
killed.
lag
latest.
lead@@
lic
mach@@
magic
malmström,
measurement
modern,
nazi
negotiation,
outside.
permissible
pigs
pioneering
prepared.
proceeds
profit@@
provider
railways,
ratification.
rationale
recession.
region's
rese@@
schreyer
secre@@
ser
shortages
sites.
slim
sn@@
speak@@
stages.
subordinate
summit@@
superfluous
television,
thi@@
thorough@@
tolerated
undue
unthinkable
valid@@
volatility
warming.
wellbeing
year@@
50th
abil@@
ace
ached
achievable
admi@@
amount.
applau@@
aside,
astonished
barnier,
boards
burg,
camp@@
card.
clam@@
cleansing
coelho
conflic@@
consistent,
conveyed
cox
cros@@
d'ivoire
determines
deterrent
dictatorial
diet
distor@@
dossiers
edinburgh
enemies
epas
erosion
establish@@
everybody.
exemp@@
exercises
explosion
foo@@
format
g's
generations,
healthcare.
homes.
immigr@@
impro@@
ins,
invaluable
inves@@
investigation,
langen
latter.
livelihoods
maximise
medic@@
mess@@
migrants.
nigerian
nominated
north-south
pes@@
pesticides.
posted
resul@@
sian
sigh@@
sized
solv@@
specifies
surely,
table@@
territories,
thirdly
ts:
unforeseen
voluntar@@
ward
wishes,
ws,
-year-old
62
adap@@
ading
admissi@@
arab@@
arian
assassination
auditing
basin
beliefs
biased
castro
censorship
code,
communications,
convenience
cooperate.
correlation
deficit,
definitively
depart@@
dif@@
e-mail
exempted
finances,
fru@@
geo@@
globalis@@
hard,
has.
hate
ides
igc,
immunity.
influence,
invoke
ira
ishes
isol@@
jan
jan@@
kne@@
laudable
lax
leave,
magnitude
marri@@
master
meat.
mismanagement
organised.
path,
plane
qua
rebel
recreational
released.
resolu@@
restructure
restructuring,
retro@@
ron@@
secure,
seekers.
sion?
spectacular
stal@@
substanti@@
tal
tis@@
unity,
ure,
volunteering
weighing
year?
ys,
zimbabwe,
'?
'one
1989,
1990s,
1991,
2/@@
achieve,
adequate.
alignment
amounted
appraisal
assets.
atic
ations;
bourlanges
burden,
capital@@
corner
councils.
countries:
ct:
cyclical
darfur.
denounced
design@@
dictators
directing
discus@@
disputed
drain
efd
electricity,
emu,
encompasses
ensu@@
este@@
expensive,
experi@@
falsified
grow.
handful
homosexual
hour@@
illeg@@
improper
inging
inhabitants.
inspe@@
lad@@
limit@@
m?
maize
manages
master@@
material,
meat,
missile
monti,
morning's
nonsense.
occupation.
options,
our,
paid.
palacio,
penal@@
permitting
peter
pho@@
polls
proof.
quaestors
realis@@
refin@@
restric@@
rivers
romano
rumours
science.
scrutinise
share,
sphere,
spr@@
sty@@
substitution
tolerance,
trans-@@
ukip
unilater@@
utilised
ve:
vil@@
waterways
wind@@
witnesses
-b@@
1/@@
16.
59
a4-00@@
abortion.
abstract
amend@@
anna
astonishing
beef.
biogas
bonds
brazilian
burundi
charges,
city,
commodities
conferen@@
corporations
custo@@
defined,
denmark.
dering
establishments
expectations,
experimental
expressed,
fiel@@
garriga
habits
hect@@
hungari@@
iled
indifference
ivory
ja@@
jordan
large.
lia
lithuania.
loved
luxury
minute,
mutilation
observed,
olaf.
opportune
organization.
pause
photo@@
proper@@
published.
qualifications,
recognition,
reconciliation.
remark@@
reorganisation
repatri@@
restructuring.
revenue.
revol@@
ribeiro
ry,
says:
shortcomings,
sing,
solemn
stipul@@
summarise
survival.
swe@@
target,
those,
tobacco.
torture.
track@@
traders
tren@@
troubled
umbrella
unpaid
video
wards,
wealth,
weigh@@
wholesale
56
96
address,
advice,
again:
angola
ax@@
b5-00@@
beat
begin.
bes
both.
certainty,
combustion
commenting
complicated,
consequent
conven@@
cyber@@
declar@@
defects
delays.
directors
distress
dominate
doubled
duc@@
effectiveness,
elles
era.
eurobarometer
father@@
founded.
fourteen
frank@@
fuel.
generosity
glo@@
going.
hall@@
harbour@@
harmonize
if@@
indignation
industry's
infection
intention.
intervene.
intimid@@
investors.
killings
law-@@
liability.
many.
mexico.
mineral
miracle
move,
nassauer
necessity,
nit@@
non-compliance
non-european
nuts
one-off
organiz@@
orientation.
ov
pe,
pen
plant@@
pockets
policy-@@
potato
practi@@
preamble
pronounced
proposes,
protectionism,
quote:
reassured
relationship,
row
satisfying
secure.
speculation.
subcommittee
supervise
sympathetic
ther
titley
tran@@
transparently
treats
ts?
underestim@@
undertakings,
utilise
years?
zo@@
ère
's.
-,
000,
35%
49@@
accords
achieves
and.
annexes
anticipation
arrogance
atically,
aware.
bit@@
blood@@
broadest
brok@@
budgeting
cen@@
closed,
committee’s
conceivable
concession
conduct,
counterproductive
courtesy
crops,
cultu@@
cycle.
delegates
desertification
dispel
dreams
drinks
ecologically
enthusiastically
entirely.
fall.
feasible.
ferry
filling
fingerprints
first@@
fluctu@@
fuels,
geograph@@
grams
harsh@@
heart,
hed@@
herzegovina.
himself.
hole
ily.
improvement,
inclusion,
indicators,
intensifying
karas
kyi
lag@@
lannoye
last@@
latter,
lets
lip
ll.
look,
massacres
men's
militar@@
missing.
mono@@
ners
olaf,
organization,
orthodox
ou
overarching
perfect.
pesticide
pig@@
planting
precedent.
produc@@
programme@@
punishing
received,
recognizes
reiterating
revolution,
rwanda
salafranca
satisfactory,
searching
seasonal
senti@@
setting-up
so?
spac@@
speaking.
sterckx
streamline
subsidiary
suits
suppli@@
terrorism@@
timor.
tonnes.
trust@@
u.
undeniably
utter
vo
weakens
without,
xenophobic
yed.
yn@@
ys.
'to
-minded
0.7%
1990s
abstain.
active.
admirable
admiration
alize
alized
alternative,
amazed
anxi@@
asse@@
assemb@@
ately,
aviation.
ba
bab@@
behaving
beyond.
brink
categor@@
cells.
citizens?
clearance
cocoa
comb@@
constituency,
constitutions
consulted.
conversely,
coordinators
days'
deleg@@
deletion
der's
derivatives
directions
dirty
es',
euromed
expose
fabric@@
foresee
fundament@@
gas@@
gaza,
governor
great.
growing.
hanging
harms
head.
imagination
impasse
indirectly,
influencing
infrastructures,
iraq@@
ities.
kazakhstan
kindly
laboratory
lost,
loy@@
massac@@
ming
monday.
monitors
months'
nas@@
negli@@
oc@@
omission
oul@@
paper@@
perverse
planned,
policy;
proposal@@
provoc@@
pvc
refer,
regulates
reimbur@@
reside
resorting
risk-@@
ro,
safeguarded.
seattle
shame@@
shaped
shelter
states@@
strength.
system?
though.
tibet,
tour@@
trip
undertaken.
urgent.
uruguay
version,
vi
wales
wear
wearing
withdraw@@
woo@@
work?
-scale
3.5
66
acti@@
anno@@
aps
atic,
attributable
beer
biofuels.
blame.
book@@
bottom@@
comes,
commerce.
commissioner@@
communications.
complained
council@@
crystal
degradation
destiny
directive's
discharge:
doctrine
doors.
dossier,
eagerly
ecb,
eeas
eit
endeavoured
enforced.
english,
enterpris@@
erdf
exploitation,
export@@
exporter
fascis@@
fires,
first-@@
fold
forbidden
frame@@
fruits
homeland
inconceivable
institu@@
isolation.
lifestyle
manuel
maps
matches
minsk
moldova.
mortgage
ness@@
nine@@
nominal
objects
observers,
order@@
pension@@
prolonged
punishment.
raft
randzio-plath
rec@@
recovering
register.
reopening
report?
requirement,
resolve.
result@@
satisfies
scrap
second-class
secretari@@
sector's
shipyards
sight,
simplification,
spends
spiritual
standard,
started,
stressed,
surrender
sustaining
taboo
teach@@
theato
til@@
underground
unifying
vertical
village
volumes
wants.
way?
'europe
/2005
140
2000-@@
acta
adverti@@
annex.
ants'
apologies
ards
artificially
assessed.
assessments.
attentive
autom@@
begun.
behalf,
bird
blamed
bovine
bridges
briefly.
c6-0@@
cab@@
canada.
chan@@
colombian
comparing
compens@@
complaining
conten@@
continues.
credibility,
crus@@
declined
depos@@
desirable,
disabilities,
disseminate
donors,
doub@@
drivers,
eager
element.
employers'
enting
escaped
expres@@
fast-@@
fight.
forge@@
gift
homel@@
homosexuals
impres@@
indiscriminate
insurance.
irreversible
island.
lea@@
ley
libraries
lodged
lot.
machines
meagre
mistrust
misunderstandings
mother@@
motorways
mr@@
multilateralism
neighbourly
obscure
one@@
ossetia
paradox
persis@@
plat@@
pping
prescribe
presidency-in-office
prob@@
produce,
productivity.
proper,
purchases
puzz@@
re-examine
recipe
regulated.
reli@@
remedi@@
represent,
residing
rigi@@
rise,
senate
shipments
simple:
small@@
sor
speedily
spokes@@
stran@@
suppor@@
tanks
unions.
unscrupulous
uring
vaccine
variable
yar@@
yemen
/2004
00.
1.0@@
12%
88@@
access@@
affair@@
airbus
airports,
alities,
am.
argentina
army.
ation'.
brother@@
buitenweg
cabotage
calculate
cashman
chain,
co-financing
combin@@
commence
compu@@
congo,
convergence.
costing
dayton
dealers
delays,
designations
devi@@
di,
diminish
directly,
dle
eggs
eliminated.
ely
employe@@
enorm@@
escal@@
euros.
evaluation,
expedi@@
eyes.
failure,
famine
fast.
fee
few.
fierce
flawed
fled
fro@@
functions.
gravity
groupings
henceforth
here@@
highlighted.
implement.
intermodal
interrupt
interven@@
investors,
iran's
it's
leng@@
loyal
mark,
members’
mexico,
mines.
navig@@
nomin@@
obligation.
one’s
outbreaks
parent
patent.
periods.
pir@@
plun@@
primacy
process@@
promis@@
prosecute
pérez
reding,
rich@@
rise.
robu@@
scotland.
seas.
sensible,
simultaneous
sle@@
space,
stages,
suffering,
synonymous
thailand
timeframe
traps
useless
vis
vol@@
wol@@
yearly
4/@@
72
abstained.
accomplish
account@@
ans?
ante
anti-democratic
applies.
associations.
avail
benef@@
ber,
berlin,
bles
bowis
brutally
cancer,
ces?
clar@@
committe@@
concluded,
consci@@
construction.
contend
corrid@@
courage,
decision-makers
deficits.
democrati@@
depth.
destroys
det@@
dire@@
directive?
discusses
distribution.
due,
ecb.
echelon
eighteen
elected,
electricity.
element,
embassies
er?
ers’
evolving
expelled
fire,
flame
fluctuations
further@@
galicia
gene@@
giscard
gradu@@
group;
h-00@@
hands,
hard.
haulage
heading.
helpl@@
holistic
homework
ici@@
il,
impati@@
inevitable.
ino
intended.
invoked
ity-@@
jackson
join.
ka@@
la.
layer
livelihood
lock
london.
lyn@@
mann's
minds.
naval
ners.
notorious
organ@@
pleased,
portfoli@@
print
prioritising
productivity,
progressed
proje@@
race,
reason@@
reassuring
regrettable,
rehabilit@@
responsibly.
rus@@
scenarios
secret.
settlement.
sine
sis.
slave
stam@@
stin@@
substitu@@
suffice
syria.
tag@@
test,
thor@@
timetable,
today:
uniting
urgently.
usual.
vacuum
vietnamese
wall,
warsaw
were.
wic@@
world@@
xenophobia,
yardstick
year’s
1992.
85%
9.00
abor@@
accommodation
accuracy
addi@@
additionally,
administer
advance,
advantages.
algeria,
algeria.
analytical
ander@@
app@@
arena
aries.
arity
aspiration
assist@@
beet
belgi@@
berès
brenner
by.
campaigns.
candidates,
case?
chemicals.
coherent,
colom
commissioner:
converting
correspondence
country?
credible,
critical.
cultivated
cun@@
cutbacks
decline.
decreasing
defeated
defer
defici@@
definition.
degree,
document@@
dom@@
dragging
dry
dumping,
employers.
esp@@
fascist
forms,
forth@@
frequ@@
fulfil@@
gen
healthier
hitting
hostages
hour,
ical.
immensely
inconsistencies
interpret@@
kha@@
legislature
leinen
level?
lifted.
loaded
loses
mention.
milk,
move@@
peer
picking
platforms
preceding
pun@@
reaffirms
rebate
recurring
renationalisation
rendered
requests.
responses.
retained.
return@@
run.
satisfaction.
saying:
se-@@
semi-@@
serious@@
spouses
stakeholders,
stark
start-up
stu@@
subjects,
t!
tankers
teleph@@
thes@@
thing@@
thirteen
thomas
tide
told,
toy
transactions,
undertaking.
unhcr
unnecessary.
vigo
w,
want@@
whi@@
wrec@@
years’
-out
2001/@@
accelerating
accumulation
alcohol@@
alists,
als'
antly
appendix
appropri@@
axis
beaten
beforehand
better@@
catering
cau@@
cement
channels.
clever
close.
closures
complex@@
condition.
cooperated
cumbersome
deadline.
deadly
deserve.
dire
dispu@@
double-@@
employs
en's
energies.
eries
eu/@@
examin@@
extension,
fashion,
fear.
firm,
gibraltar
havens
headlines
here;
hindering
ia?
ility.
important:
industr@@
interview
invol@@
jail@@
judgment.
kenya
kit@@
lamy,
leader@@
lul@@
maghreb
mai
mandates
mass@@
mb@@
ministers'
mistake,
modal
montreal
negligence
net@@
north,
objecti@@
occurred.
opium
palestinians,
paternity
payment.
pers@@
plain@@
pleasing
possibility,
practical,
prescrip@@
proceeded
proportions
punitive
q
reques@@
reserve,
rounds
set@@
sever@@
sible,
sjöstedt
spatial
subsidise
superior
suspe@@
sz@@
thro@@
tomorrow’s
tunisia.
underpinning
understood,
unitary
united,
unqualified
volu@@
wallström,
writ@@
-friendly
19.
abe@@
abkhazia
agend@@
aircraft.
americans.
arly
arms,
assets,
ated?
attain@@
awareness-raising
bankruptcy
bau@@
belarus@@
berg,
bility.
bogged
borrow@@
built.
bureau,
camer@@
cause,
cfsp.
chairs
codified
cohe@@
conciliation,
confront@@
conscience,
consul@@
counted
defends
delegate
determination,
detract
dge
director-general
disregarded
distorts
distres@@
downright
dührkop
economically,
elec@@
encouraging.
eness
english.
entails.
eta
exaggerated
for-@@
frau@@
funded.
globalization
gmos,
hake
halfway
himself,
hit@@
homosexu@@
ians.
in's
indonesia,
infringe
interconne@@
iran@@
israel@@
its,
javier
kab@@
law?
lever
linked.
lucrative
lópez
mckenna
meaningless
measurable
metals
metho@@
mile
mine,
n's
nepal
norway,
now@@
obstacles,
olog@@
opening-up
ottawa
ought,
outrage@@
pesticides,
programme's
provoke
radi@@
rain
ree@@
referred,
rejoice
renounce
researchers,
residues
restrictions,
revert
season
sen's
source.
specifying
step@@
streamlining
strengths
stretch
sufficient,
summed
sympathise
tables
team,
technic@@
telecoms
them:
them;
ump
unbridled
unchanged
veal
vers@@
ves?
volatile
weu
18.
2000-2006
2014
26,
372
abduc@@
abilities
abstain@@
accusation
aching
action@@
agreement?
allowed.
appealed
article,
august,
authorities'
awareness,
baringdorf
bility
bills
bond
certific@@
channe@@
comfort
commerci@@
committed,
complements
compounds
confidenti@@
contacted
continents
correct@@
corrup@@
counterproductive.
cultiv@@
decl@@
demonstrate@@
development@@
dismiss
ecb's
educate
efficacy
emphasised.
employees'
enforcement.
entitlement
error,
esteemed
excesses
faith.
feel@@
fitted
fraga
frustrated
fukushima
fy,
g7
gay
gged
greece's
hampered
healthcare,
hes
horn
humili@@
ils
imposed.
inadequacy
ing!
inge
ingly,
institutions'
invented
kov@@
learn@@
legislating
liberals,
lie.
loans.
locations
logical,
macedon@@
marco
mark@@
market?
meaning.
medicine.
misused
models.
monopolies.
mount
ninth
oo@@
panic
paths
plac@@
politically.
possibilities.
presume
prevails
previously.
psycho@@
reach,
reaction.
redouble
renov@@
representation.
resign
reversal
sab@@
sacrific@@
sav@@
scant
sche@@
school,
se;
serbia's
severity
sia
spect@@
speed.
stance.
standar@@
standardis@@
stru@@
submitted.
survive.
ta.
temp@@
third-@@
tionally
ton,
tou@@
travel,
un's
unambiguously
undermined.
upgrade
weighed
wel@@
who@@
widen
wisely
workforce.
wto@@
wynn
young,
án
1371
above-mentioned
accep@@
africa's
amb@@
americans,
ances,
ared,
aries,
ature.
background.
barome@@
battery
berlin.
biotechnological
brand
broadening
burdened
caucasus,
chancellor,
checks.
claims.
cloned
coasts
concise
constituency.
contamin@@
coping
curtain
dece@@
decree
degrading
depriving
despair
deter@@
discre@@
distances
drag
eb@@
ech@@
eminent
enlarging
ers;
expires
extended,
failu@@
fairly.
federation,
fications.
focus.
forever
fraction
freely.
front,
ges.
ges@@
govern@@
guantanamo
homophobia
ineffective.
installation
institutes
intergovernment@@
interpretation,
intra-community
inven@@
irrelevant
is?
jen@@
ka,
kashmir
kers
langu@@
liberties.
ma.
mexican
neutr@@
nord
offices.
one'
post-war
posts.
praised
pro-active
productive.
prostitution.
prudential
punished.
realm
record,
regretted
regularity
resistance.
respond.
revival
romania's
routes.
says.
scandal@@
school.
selecting
separately.
shir@@
spokesman
spring,
supervising
supplies,
surve@@
susceptible
teen@@
telecommunications,
theor@@
tia.
tors
tortu@@
total,
versus
website.
websites
‘yes’
170
2000/@@
71
add@@
adequacy
alarmed
alcohol.
apparatus
ate:
awaits
awareness.
backing.
benchmar@@
bert
bin
blokland
brok,
burg.
ce-@@
chicken
chocol@@
cies,
city.
coin
communicable
cub@@
cus@@
deaths.
defin@@
destabilise
dete@@
difference,
differentiate
dig@@
disproportionately
ec-@@
egg
emergency.
employers,
england,
ent?
eu-china
faithful
faul@@
finalising
flights.
friendly,
genocide.
granted,
guise
hesitant
i-@@
ignor@@
imagine,
impe@@
impending
independent.
irregularities.
jews
juncture
kosovo@@
kyoto.
label.
lacked
lampedusa
land's
lights
limit,
living,
martí@@
misguided
mitchell
moldovan
mt
multitude
municipalities
myth
neighbour,
norm@@
outside,
oversee
parcel
partnerships.
pie@@
polar
possibility.
powerless
promo@@
reasoned
repeated.
represented.
sai@@
sanc@@
sentence.
separating
shipyard
show,
slip
studies.
swept
switzerland.
tackles
television.
them@@
then@@
threatened.
tibetans
tle
unchanged.
uniformly
unites
vel
vist
worsen@@
ă@@
!@@
21.
48@@
accumulated
ado
agricultu@@
aim@@
alan
alarm@@
alists.
answered.
answers,
anyone,
appropriately.
assessments,
assimil@@
authorisations
bb@@
bes@@
binding,
brief@@
butter
carrier
causes,
cell@@
ceremony
cies
claims,
compe@@
complicate
computer@@
congolese
contr@@
cuts,
d'.
deem
defend@@
deplo@@
deserved
deteriorated
develop,
diagno@@
dictator@@
doct@@
drif@@
elected.
embryo
emphasiz@@
engine@@
enterprise,
eplp
ethiopian
eures
exacerbating
expect,
factor,
falcon@@
fao
fascinating
feedingstuffs
flax
flee
focal
g-@@
gebhardt
geographically
haug
hotel
ically.
ics,
importation
incomes.
ined
iness
insufficiently
invent@@
joins
junior
jurisdiction.
leak@@
likes
lisb@@
loophole
mand@@
manifest
migrants,
ministries
mountains
necessar@@
norwegian
number.
obligation,
officer
om
outgoing
pla@@
pom@@
ported.
prefer@@
prison@@
privacy.
prosper@@
protesting
quick@@
regar@@
renault
restored.
reviews
revised.
row@@
sharia
sheer
significantly.
slaughtered
society's
suspen@@
tem@@
testimony
than@@
that@@
thin
tism
tortured
underlining
urs
veritable
visas,
warrant,
weekend,
ya
zimbabwe@@
£@@
110@@
2014.
3/@@
abuses.
added.
ai
align
almunia
ams
anger
announcements
appli@@
apprehen@@
arabia
bananas.
blatantly
bloo@@
carcinogenic
cf@@
chi
cis@@
committee'
complac@@
compromising
confirmed,
constructive.
councils,
county
courage@@
ctive.
databases
deliver@@
destin@@
devoting
directorate
discar@@
discipline.
disrupt
divides
docu@@
duisenberg
elderly.
enacted
ening
enrich
equally.
erup@@
eston@@
even,
expect@@
far-@@
fas@@
fer
figh@@
focus,
foods.
games.
generation,
gies.
guatemala
halting
homes,
hormones
horrors
hospital@@
human,
ics.
identified.
iling
illiter@@
in'
incitement
indicators.
inequality.
inherited
inner
judiciary,
justifi@@
kla@@
lange
lobby@@
locate
logy
ments:
mobili@@
model@@
monnet
montenegro,
non-attached
north-east
noticeable
oceans
on-going
one;
operative
oppressed
organisms.
ousness
overdue.
overturn
owner
p.m.,
paren@@
partnerships,
peace-keeping
peoples'
percent@@
periodic
philippines
physically
political.
practicable
predictability
prejudices
presence.
presidencies,
protocol@@
random
read,
reb@@
relax
reminiscent
rene@@
residential
resounding
resource.
respectively.
rotation
rs
ré@@
sadd@@
say@@
scal@@
seekers,
ser,
silence.
sixty
sponsored
stagn@@
streamlined
suffer.
suggestion.
suppress
surveillance.
survi@@
syri@@
tape,
terror.
there?
thir@@
thri@@
tickets
ts;
ture
underestimated.
unesco
unfairly
vain
ve;
vitorino,
wards.
weaknesses.
wed,
weekly
whichever
wife
workers’
160
78
ace@@
ades
africans
allow@@
arts
associ@@
atically
ations'
atory,
attaining
avert
awak@@
backwards.
bosnia-herzegovina
bosnia.
boys
caucasus.
classi@@
clinton
combines
comment@@
commissioner’s
communists
connecting
convinced,
countries;
countryside.
crazy
debate@@
demon@@
deter
devastation
diplomats
dog
donors.
drivers.
dun@@
elementary
embarrassing
equatorial
exercis@@
experiences.
extern@@
fact@@
figure.
flat@@
formalities
freed
fruit@@
gain.
global,
government’s
harm@@
harves@@
holder
hughes
hurricane
ign@@
ill.
illegal.
imag@@
imagined
imbalances.
inadmissible
instability.
instan@@
insur@@
interregional
journal
ken
locked
maturity
minor@@
not@@
opposite,
optimal
organizations.
ortega
patently
patho@@
penalising
pensioners'
predecessor,
presidency'
president-@@
problematic.
procurement.
profession@@
profit,
purchased
ready,
recalling
recover@@
referen@@
reformed.
relevant,
remainder
rent
requested,
require@@
resid@@
responsibilit@@
revealing
roman
safest
savary
savings,
schmid@@
score
sheep@@
sis@@
smokers
sour@@
spani@@
specific.
spoken.
swoboda,
tendering
ti,
timor,
torn
tour
trading.
transfer@@
triumph@@
turkmenistan
turks
upon,
us-@@
vent@@
verge
veri@@
vienna,
violations,
vision@@
wages.
xes
3%.
47@@
6/@@
achieve@@
achievements.
acies
ak,
ambassadors
ances.
annum
arbitration
area?
ask:
at-@@
attained
avoids
belief,
bomb@@
bridging
cabinet
ceased
celebr@@
cessation
codecision,
commercialisation
communiti@@
comprise
construction,
contract.
contractors
contravene
courage.
criter@@
cs,
decommission@@
denies
described.
dictates
differently,
disabled.
dissidents
ement
enlargements
epa
eradic@@
ese.
estimates,
expect.
findings.
ft
gent@@
glaring
grade
group’s
hed
hindered
ily
implement@@
ines,
infl@@
infringing
ins@@
insurance,
integrity.
intensification
irrational
itself@@
journalists.
kic@@
ky
leyla
losses,
low-cost
ludford
major@@
marketed
matter?
mentality
missions.
mockery
morillon
motivate
nationally
nigeria,
observers.
omitted
opened.
oppres@@
part-sessions
periods,
picked
player.
precisely,
pregnancy
preparedness
prize.
procedu@@
rain@@
realistically
recei@@
recession,
reconciliation,
remains.
remit.
rers
revolution@@
richard
scor@@
shifted
sign.
significance,
sm,
societ@@
soil.
solvency
spared
sts.
stupid
suspects
th-@@
things:
threshold.
ti
tongue
transmit
treaty?
trial,
typically
undertak@@
vietnam,
visible.
yesterday'
yields
é,
'no'.
-in-@@
/ec
63
65@@
66@@
absen@@
accusing
across-the-board
addres@@
aerospace
akis,
alarming.
alists
all?
ange@@
annex@@
apart.
appalled
appliances
assumptions
atics
august.
avoidance
beauty
body@@
bos@@
bounds
catastroph@@
caus@@
cease-fire
cfp.
cheapest
collins
compan@@
concentrates
contex@@
continues,
controversial.
conversations
cows
declarations,
declarations.
demo@@
democratization
dictatorship,
disagreements
discovery
distrust
ds?
dys@@
earth.
electron@@
enrichment
ero@@
exploring
feed@@
fit@@
foundation.
frontex,
frontiers.
fta
fuel,
full@@
fundamental,
goes,
goldstone
great,
had.
ham
hautala
hold.
homo@@
housing.
hypocrisy.
ia@@
imf,
insert
inventory
investigated.
ira,
ished.
lawful
leone
letter,
livelihoo@@
loose
loss.
lucky
malaysia
manoeuvre.
martin,
nationality.
non-member
non-tariff
oblig@@
opinion@@
originate
overlooked.
parents,
partnership@@
passion
patents.
paved
possible?
precision
prisons.
prolong
punishable
reassur@@
rebels
reconstruction,
reiterates
removed,
repeat:
res?
ridiculous.
rit@@
rival@@
rotating
sa,
saturday
scientists,
scrutin@@
sensibly
serb
sligh@@
sm
socialis@@
sounding
spra@@
spring.
stream@@
stricken
strong.
stronger,
suggests,
suspicions
team.
telecom
tern@@
tible
tional
tolerance.
torres
traw@@
unanimously,
uncertainty,
unfair.
uniqu@@
unwillingness
verhofstadt
vietnam.
warm@@
watched
wonders
zan@@
-european
24,
7-@@
acceler@@
accustomed
adopt,
ale
alive.
anchored
aroused
atmospheric
berger
bind
bou@@
boundaries.
brake
builds
byrne,
camps,
cfsp,
changing.
child's
civilis@@
coherence,
collapse.
community-@@
comparisons
complaints.
compliance.
compromis@@
conce@@
confirmed.
contravention
corporation
covenant
crespo,
crossed
crowley
cyanide
da,
desig@@
desp@@
dian
disability,
disregarding
doyle
dragged
durable
ec,
embracing
enforceable
enterprise.
entirety
eventu@@
exceptions.
exchange,
facility.
fantas@@
fastest
fills
flexicurity
flora
floren@@
footwear
for?
forums
ft@@
generally.
gentle@@
h-05@@
harmonized
impunity.
indebted
interdependence
into.
involvement,
juncker,
liberalism
lulling
made@@
majorities
menting
mess
morgan
mour@@
movements.
nation-@@
nav@@
offence.
onwards.
ou.
ov@@
partner@@
paves
penalties,
persistence
personally.
place?
plant,
populations,
prevent,
prevented.
produ@@
producer@@
producers'
proportionality.
pru@@
publis@@
pulling
rail,
rapporteur@@
rated
recommend@@
releasing
rewarded
sant@@
schreyer,
scrutiny,
sellafield
sex@@
side-@@
sively.
slowed
slowly.
soon@@
sovereign@@
tar
taxpayers,
tracking
tradi@@
tting
unbundling
ven
voted,
wasted.
weapon@@
win-win
wiped
world?
y',
yours
‘european
-day
...@@
/2009
20%.
2010@@
2050.
61
able?
acquainted
additions
affair,
after@@
alike
alleg@@
alling
andean
ang
applauded
applications,
arena.
austri@@
bed.
belarussian
breyer
campaign@@
cat
centuries,
centuries.
certain@@
children’s
christ@@
clarifications
cler@@
colleagu@@
comfortable
commissioner?
common.
compani@@
condition,
consent.
considerable.
countryside,
counts.
cow@@
cox,
credible.
darfur,
dead.
deportation
destabilising
dev@@
dimas
disappeared.
disco@@
discussing.
dishonest
distributors
e.g.
earning
endure
equivalence
eurovignette
exhibition
eye@@
fair@@
fast,
ferber
frassoni
fron@@
fur
garcía
ged,
god,
growing,
humanity,
ik@@
immune
improve.
increases.
independ@@
inhabitants,
initially,
introduction,
invention
investigative
just@@
kol@@
laboratories
lankan
least-developed
leisure
level@@
lot,
meet.
mented
minded
mines,
minis@@
moti@@
motive
mountainous
naz@@
noted.
numbers.
og@@
on'
on-line
overwhelmingly
parliamentari@@
percep@@
pluralism,
porto
pose@@
predecessor
premi@@
prevalent
procurement,
proportions.
provocation
remain@@
repression,
retailers
revenu@@
revisit
routes,
ruthless
scandal.
seems,
seldom
should.
six-@@
slovak@@
soli@@
specially
stagnation
state?
stemming
stock.
sun
tch
thorny
three,
tolls
track,
trees
uk@@
unfounded
unhealthy
us'
v.
visit@@
wed
whitehead
withholding
wording.
yes.
/03:
11%
1980s
1990.
2%.
28,
40,
a6-0@@
aegis
affili@@
amen@@
answer@@
appla@@
arise,
ately.
atmosphere.
atory.
authorization
backwar@@
bicy@@
billi@@
broadcasters
buil@@
campaigns,
cash@@
chairing
chilean
chooses
circulated
circulating
colombia.
contributor
cott@@
cunha
dal@@
dam
dated
dead,
deeds.
deficits,
depressing
described,
designing
disturbed
dogm@@
doing?
domain.
doubts.
drow@@
eastward
empi@@
europe!
europe'.
even@@
expertise.
fava
feedback
ferrero-waldner,
floo@@
forese@@
forth.
foundations.
free-@@
gangs
genic
grap@@
haiti.
hectare
hed?
hierarch@@
hop@@
hostility
identified,
incenti@@
inci@@
inconsistency
ironic
isation,
ishment
james
jean-@@
judgment,
lamassoure
landmines
leeway
levies
lled
louis
modul@@
networking
noise,
observation,
occup@@
occur,
offer,
one-stop
opel
our.
papers.
paragraph,
paramilitary
parents.
pat
persecu@@
personnel.
persuading
petty
philosophical
pill@@
pipeline,
pivotal
plu@@
possible@@
preserved.
pretending
prior@@
prison,
put,
quantified
rab@@
real.
reconciled
reflection,
retrospe@@
rom@@
rumin@@
sceptic@@
seas@@
secretary-general,
shocks
short.
shu@@
sights
since@@
sinking
solbes
star
staun@@
stres@@
structu@@
sufferers
suggested.
supermarkets
supple@@
surprise,
symptoms
tain@@
tation
that!
to?
trapped
usu@@
valid.
varieties
ves;
vocation
weak,
weight.
well?
wide.
wipe
ws
zai@@
és
",
17.
20-@@
2007@@
abiding
absolu@@
additionality
advent@@
agendas
ago@@
aler@@
allied
altener
any,
appeal.
approaches,
assault
asser@@
assurance.
ato@@
b7-0@@
balk@@
bananas,
barrot,
bear@@
bury
call,
capacities.
car.
caution.
chair.
cheap@@
choices,
chron@@
clearer.
competitors.
condemned.
contemplate
continent@@
contradic@@
controll@@
coordinated.
copies
cut.
cypr@@
delic@@
deliver.
destination.
destroyed,
died.
district
domination
duff
easily.
economical
economists
ell@@
eminently
end-@@
enhances
enriched
eurobonds
evil.
exac@@
explained,
ey@@
eyes,
fats
fine-@@
friday.
gradin
grows
gul@@
high-risk
holi@@
honey
however:
ice@@
illegally.
inappropriate.
incentives.
iraq's
isa
itation
jum@@
jurisdic@@
legitimate.
legitimise
liquid
los@@
lukashenko@@
marín
meet@@
moderation
multicultural
natur@@
negative.
ners,
newly-@@
nicholson
north.
obstac@@
obstruct
operational.
ordin@@
overtaken
paid,
pap@@
paragraph.
ped@@
politici@@
preven@@
properties
protested
pulled
reactionary
recipi@@
registers
regret.
regulated,
reh@@
retains
retraining
rooms
ruin
sacrificing
sand
screen@@
sexes
shake
shaken
shy
size,
skin
smi@@
stable.
stayed
stolen
strength,
suppliers.
suspended.
terribly
traded
translations
trialogu@@
troops,
twin
versa.
victims'
visit.
za
špidla
1/200@@
2008-@@
82
99%
acquis,
anton@@
armaments
arrogant
ase
ased
atically.
autonomy.
barbar@@
birth@@
bizarre
britain's
bull@@
butt@@
bö@@
cambodian
carbon@@
catastrophe.
censor@@
chang@@
civilians,
coloni@@
combatting
commemorate
conserve
consuming
convenient
conversation
cord
criticises
deleted.
denominator
descrip@@
deserving
despicable
dimension@@
disappointed.
distinguishing
diversified
dness.
doubts,
electorate.
electromagnetic
empowered
entrepreneurship,
expen@@
faith,
fischler.
fla@@
focus@@
follow@@
followed,
foundation,
four-@@
gun@@
h-06@@
handicap@@
healthy,
hurt
hus@@
imo
imperi@@
implements
inalienable
indul@@
inequalities.
insecure
inserted
interactive
interception
invitations
ited
kashmir@@
lah@@
licen@@
lists.
maladministration
memor@@
mentary
minors.
models,
multinationals.
negotiated.
nigeria.
norm
occupies
offices,
one?
onerous
ong
optimise
owes
ownership.
paci@@
paul@@
pedestrians
perme@@
phthalates
pirker
plum@@
poly@@
prodi.
productions
propag@@
r&d
recall,
reserves.
retired
ri
rompuy,
s.'
sau@@
scenes
simpl@@
simplification.
speculators
spl@@
stakeholder
sts,
tackled.
tangi@@
testi@@
therefore.
thirty-@@
till
tioned
tip
tissues
token,
transplantation
tribu@@
trivi@@
tsunam@@
turkmen@@
unbalanced
unrealistic.
unworthy
vat.
vity
want?
wondered
wordings
world-@@
zimbabwean
zones.
á
1.2
14%
19th
2015,
45%
68@@
actor
afraid,
aga
alo@@
an's
ana,
angle
antibio@@
anticipating
asymme@@
asymmetric
ata
attemp@@
bail@@
basing
be:
ber.
breadth
bree@@
brow@@
buried
candidate,
carr@@
cd@@
ce's
character.
check@@
chequ@@
childhood
circum@@
clock
cloning.
comparability
congress,
constructive,
controlled.
conviction.
criminality
crisis?
culmination
daul
defender
delight
democratisation,
denouncing
device
discuss.
discussing,
doctr@@
doors,
drama
dynamics
earnings
elu@@
emotion
endeavour.
equal,
essen
eva
evolve
eye.
ferries
flexicur@@
floods,
foodstuffs,
front@@
gaddafi
gap.
gging
grew
harvest
howitt
impor@@
iner@@
inje@@
interruption
intra-@@
invalid@@
invites
iously
iraqis
ireland@@
ita
iuu
kallas
keys
kno@@
l's
lawmaking
legitimacy,
let's
ley's
location,
loyalty
map@@
measures@@
medicine,
mented.
miguélez
mirac@@
modernised
mps
obsession
obtained.
occasion@@
occupation,
optimism.
ord@@
ought.
papua
parking
party's
patentability
permission,
permitted.
pessimistic
place@@
plastic
postponed.
prefers
prerogative
priv@@
prosecuted
prosecuting
prostitution,
protest.
pursued.
pv@@
rearing
reck@@
reco@@
reference.
reliable,
renovation
residence.
residue
route,
scandinavi@@
scapego@@
single,
size.
ski@@
sky.
stateless
stays
strong@@
stumbling
sup@@
suppres@@
tandem
tes@@
tolerant
tools.
tor.
touch@@
transfers.
translation.
transnistri@@
umpteenth
undoubtedly,
urgent,
ve-@@
vehemently
veness
visi@@
visions
vodka
volcanic
wall.
wary
watson,
web@@
well-founded
wer
wreck
yed,
ys@@
ç@@
16%
1999@@
30.
31,
90/@@
aarhus
abandoned.
absorbed
advantages,
airport,
altering
alternatives,
amendments:
announced,
anti-semitism
arbitr@@
arbitrarily
ared.
argent@@
athle@@
authoritative
avenues
azores
beforehand.
beneficiaries.
bolster
bridge@@
broadened
car,
case-law
categories.
channelling
ches.
christians,
cinem@@
cle
clear-@@
clients
co.
coherent.
cohn-bendit,
comitology.
commits
compel
convene
criticized
ctively.
delegations,
denomin@@
deposit
desires
dilu@@
dings
discer@@
distribution,
divergence
doctors,
dynamic,
ears
ebrd
effici@@
emphasizes
energy-efficient
ensured.
estonian
expenses.
fault.
financed.
flights,
fora
foreca@@
fundamentalism.
gases,
germany's
governan@@
greater.
gsp@@
guarantor
guch@@
happy.
hearing,
highlighted,
hoo@@
horri@@
ide,
imparti@@
implement,
inflexible
inspiring
irrit@@
ity'.
jur@@
klam@@
kr@@
liquid@@
macedonian
malta.
man-made
managed.
military,
misunderstanding.
notice.
numbers,
objectives:
occurren@@
offences.
ore
organizations,
organizing
overlap
paint
peculiar
people@@
physi@@
pipeline.
pluralism.
pluralist
prohibi@@
prostitu@@
rectified
regeneration
release.
relocate
replaces
respect@@
respectable
rights;
rights@@
sacred
scenario,
securi@@
sensitivities
seppänen
set-@@
shor@@
shortfall
simpler,
socio-@@
soul
sten@@
story,
sugar,
suggestions,
summer@@
switching
ten-year
tended
tent
testify
the-@@
theat@@
thought-out
thurs@@
tives
trade-@@
transition.
ucits
unanim@@
unclear.
unreported
use@@
vals
ve'
verified
veto@@
voted.
wait@@
wheat
wheel
wim
wishful
women@@
worl@@
world:
yer
.’
1%.
1980s,
2004/@@
3-@@
64
68
abo@@
abu
acceleration
activate
actors.
adoption,
advertisements
afterwards,
ale@@
allies.
als?
anti-terrorism
ares
arsen@@
asive
association.
ation!
atro@@
au,
augu@@
blanket
bled
budget?
category.
cent.
cin@@
cock@@
colour
complaints,
concer@@
conspicuous
convention@@
corbet@@
corridor
counterfe@@
cres@@
ctively
deadloc@@
decentralized
democracies,
devoid
disbur@@
dismantled
diversit@@
dres@@
duty-@@
ecolabel
effect@@
enact
eritrea
evolved
fact-finding
famil@@
fleet,
forwarding
fp7
fruit,
gab@@
gauge
grossly
guarantee,
hampering
han
hul@@
important@@
incur
inspect
intervened
irs
islam.
kers.
killed,
knock-on
laos
launched.
li
lind@@
loans,
manage@@
martens
mont
multilater@@
munich
napolitano
nato's
negatively
normal@@
ology
oned
ori
osce.
overshadowed
parallel,
peijs
picture,
plead
pover@@
precise.
profess@@
rapidly,
regular.
renewing
reproduction
scre@@
sed?
sh,
shipping.
shooting
sorely
sound.
statu@@
ster,
subject@@
submitted,
summarised
sure.
tabled:
tali@@
tense
thanked
thr@@
through@@
tyres
u-@@
uganda
unanimity,
univers@@
valenci@@
valencia
verde
vie@@
waging
waive
wars.
wed.
withdrew
words:
'it
/2008
1990s.
92/@@
abduction
absur@@
accident@@
administrations.
airport.
ali
all:
andalu@@
andri@@
apology
attachment
battle.
blo@@
cannot.
cells,
chic@@
cit@@
conclusive
contest
continents.
conveni@@
customers.
decision-making,
delivers
demol@@
desc@@
distinctive
earthquakes
easing
ecosystems.
employment@@
endemic
endorse.
enormous.
epidemiological
equival@@
era,
ers:
essenti@@
europol's
everybody,
flaws
fleets.
flexi@@
flows,
focussed
frank,
fratt@@
galeote
global@@
grass
grouping
harbour,
hazard
icao
impede
in?
inconvenience
incorrect.
inspections.
inte@@
introduction.
investigations.
is'
israeli-palestinian
iss@@
ite@@
kam@@
kor@@
lancker
laun@@
lers
logical.
madrid,
manifestly
market;
medium-@@
minute@@
mitigation
mod@@
modifying
neglecting
nitrogen
non-existent
number,
oil-@@
oligo@@
ols
om.
on;
ounded
palestini@@
paradoxically,
parity
pet
pipelines
plunged
pregnan@@
prey
pronoun@@
provide.
quo@@
recogniz@@
reimbursed
reproach
reversing
revision.
righ@@
s-based
sahara.
satisfaction,
schedule.
schuman
seemingly
sensib@@
seven-year
sible
signal,
spir@@
stein
strictest
stun@@
suggestion,
sul@@
technique
tely
ther,
thom@@
timid
tin
tisation
together@@
tool,
trades
trakatellis
triumph
type.
ually
underdeveloped
universities.
unpopular
upheld.
utilis@@
variations
verbal
verbatim
visit,
vivi@@
warran@@
wea@@
woman,
x's
yielded
ying,
y’
zeal@@
'no
'what
.–
17%
280
75@@
78@@
acces@@
achievements,
aggreg@@
aircraft,
alist,
aliz@@
alliances
amo@@
apparent.
appl@@
aqu@@
ards.
ater@@
ath
attribute
authorized
begin,
belder
beneath
best-@@
bli@@
called,
carlos
cathol@@
certified
champions
check.
cogeneration
collaboration.
colombia,
compensating
competen@@
concern@@
concili@@
confines
congratulations.
consider.
convened
corpor@@
corps
crews
dd@@
dding
dedicate
defective
deficient
degra@@
delegations.
delegations:
demago@@
depart
deriving
direc@@
disciplines
disguised
disseminating
divided.
dna
dness,
draf@@
ec.
emi@@
emotions
entailed
eurogroup
fertile
few,
forged
game,
geneva.
georgia's
geostrategic
guarante@@
guarantee.
half@@
hauliers
hezbollah
hr@@
icc
identities
immoral
implic@@
indonesia.
ini,
inquiry,
inseparable
involve@@
island@@
ist.
ja
kills
le:
lean
legislators,
li,
long-distance
maria
marie
markedly
milest@@
milk.
mix@@
naïve
observation.
occasional
offenders
often.
orb@@
out-of-@@
outweigh
petro@@
phones
pierre
plooij-van
pollute
precur@@
presidencies.
proposing,
provocative
quorum
radicalisation
reassess
receipt
reciprocity.
recruit
recurrent
recycled
redundant.
reflections
refus@@
regimes,
relation@@
relaunching
report’s
resale
rights'
ruined
rübig
safeguards.
satelli@@
satisfied,
schroedter
score.
seafarers
self-determination.
sh
sim@@
sizeable
span@@
sparsely
spee@@
speed,
starving
stereotypes
strik@@
struggle.
suc@@
suggest,
sum@@
supervised
synthesis
tactical
te's
thys@@
timely,
tolerated.
total@@
trapping
tricky
tti
tunnel.
two-year
tyre
unacceptably
underpins
uprising
visible,
voc@@
year'
zi@@
&#x02bc;s
-.
1985
5/@@
750
99
abducted
abolished,
abortion,
academ@@
accountability,
adam@@
additives.
ade.
admit,
advisers
akin
amazing
ambassad@@
anomal@@
appeal,
arma@@
autonomy,
bare
blan@@
blown
bonus
borrow
bosnian
breached
by-products
bégu@@
candid@@
chlor@@
christianity
chur@@
cil@@
cinema
cked
clear-cut
coali@@
compelling
competiti@@
confusion,
consu@@
criminals,
dark@@
deadlines.
deepen@@
diabe@@
differential
digi@@
discards
distressing
dust
efa
empire
ene,
energy-saving
enlightened
envis@@
err@@
even-handed
event@@
exchanges,
exper@@
exploited.
extr@@
extraterritorial
factions
finished.
fired
foresees
forwards.
fulness
gap,
going,
groundwork
haarder
hamas,
hampton
heigh@@
herbal
hitherto,
honest@@
honouring
hypo@@
ignored,
image.
implications,
incentives,
inextricably
inferior
ing’s
insignificant
intermedi@@
intermediary
interventions.
io
ire
ished,
judici@@
judiciary.
juncture,
kon@@
laundering.
let,
liberty,
life-long
liikanen,
lo,
loudly
lé@@
madagascar
marginalisation
mari
mccar@@
medium-
methodolog@@
minimum,
mixture
naming
niel@@
ok
olaf@@
omissions
open-@@
ore@@
orientated
ors'
osce,
oul
oured
payable
perfe@@
phases
pious
potočni@@
prioritised
proposing.
providers,
published,
purpose@@
read.
realises
recommen@@
regionalisation
regret@@
reign@@
relev@@
report@@
requests,
resolution:
reversed
rhin@@
right-@@
rompuy
seat.
secon@@
seg@@
shield
sivity
sky,
smoothly.
soldiers,
spoken,
stifle
straigh@@
suic@@
tamil
taxpayer.
team@@
territori@@
thors
timorese
tional,
to:
toxic@@
toys.
tractors
try.
ulate
unit,
varela
vigour
volunteers
voters.
vul@@
wanted,
warn@@
work;
worked.
xed
ł@@
.1
1.3
11.00
12.30
18%
1991.
2-@@
22.
29,
65%
77
ably.
abusing
acceded
accor@@
acid
activated
adhering
admitting
and-@@
andersson
angry
antagon@@
apartheid
archi@@
arrogan@@
aside.
asylum-seekers
aviation,
avoided,
bad,
beef,
biofuel
boar@@
brea@@
brittan
cancelling
candidate.
capabilities.
caused.
character,
checks,
chemicals,
comfor@@
complicity
compromised
concede
consisted
contravenes
convergence,
coreper
correcting
cred@@
credi@@
criterion.
cut@@
decep@@
depletion
deserves.
diox@@
discriminating
disease@@
dissatisfied
dream.
duma
dumped
dwell@@
eag@@
educating
efficiently,
ego@@
embar@@
emer@@
emerg@@
encies,
encompassing
encro@@
ene
energies,
enhancement
explan@@
fate.
fighters
fisch@@
fished
fles@@
fon@@
foods,
found@@
fourth,
freeing
full-time
gallagher
gat@@
geneva,
globally,
graphic
guards
gue
hans
has@@
he,
hege@@
hind@@
hood
horizon
hök@@
improve,
index
instructed
integra@@
intention,
items,
itous
itting
jarzembow@@
lahti
lawyer,
long-awaited
maternal
meaning@@
mes@@
millennium.
mind@@
minister's
minors,
mitigating
money?
monitored,
moscow.
movements,
mulder,
municipal@@
nationality,
nightmare
non-commercial
north-west
numer@@
one-way
oppressive
osse@@
paris,
paving
percentages
perio@@
pessimis@@
philos@@
possel@@
powered
pre-emptive
prisoner
privile@@
prize,
profession,
profits,
projected
prominence
promises,
promotional
proposal?
protect@@
protracted
ption
put.
quarters.
redefine
rehn,
reliance
remark,
remarkably
removes
repression.
repu@@
requires.
resigned
revenue,
revitalise
revo@@
schröder
sciences
scrat@@
seiz@@
shipy@@
signalled
signalling
significantly,
sis,
slow.
societal
statutes
succession
superficial
swee@@
tacs
tajani
tajikistan
take-@@
targe@@
terminology
three.
timescale
ton's
totalitarianism
troops.
two-way
uniformity
utili@@
vicinity
widen@@
álvare@@
0%
1989.
3:
81
ach.
acqu@@
action?
admissibility
adopt.
advan@@
advancement
affirmation
african,
agent
alcohol,
anti-grass
anyway
ashton.
atu@@
batter@@
behaved
bodi@@
broken.
brown
bun@@
campaigned
casualties
cc
chains
chairmanship
civilisation,
clarified,
classed
clearest
co-ordin@@
collection,
coming,
community-wide
compile
complemented
compromises,
congress.
consensual
constraints,
counterpart
country-of-origin
cynic@@
cz@@
dared
debated,
debts.
decision-mak@@
defenceless
dent@@
depar@@
dge@@
difficul@@
dimensions.
diminished
diminishing
dispose
dispute,
dogs
dp
duplicate
dy,
ecj
els
employability
ence@@
enjoy@@
epidemic@@
examines
exhausted
expe@@
expire
expired
exploration
expor@@
extrem@@
fail,
failed,
ff,
fibre
figure,
fiji
flourish
forging
forthcoming.
fortune
frequencies
gaz@@
gd@@
gence.
griev@@
ha
handicapped
higher.
hood.
hull
ide.
impoverished
indefinitely.
inflationary
influences
insulting
intended,
internalisation
intrinsic
invisible
ira.
irrever@@
isler
iter
jarzembowski,
jean-claude
kac@@
klaus
kok
kyrgyzstan
land-@@
mam@@
manifes@@
mati@@
mier@@
mistakes,
nations'
negle@@
non-food
non-military
nurses
obe@@
ome@@
onwards,
outrage
parish
particular@@
polo
pornography.
proceed@@
propaganda.
reassurance
recep@@
recognis@@
registering
reinstate
reintroduce
reiter@@
relied
repro@@
resisted
resisting
retrograde
rewarding
rushed
sac@@
sadc
sales.
sarkozy,
scan@@
schmid
sector?
segregation
sen.
skies
sleep
slic@@
somalia,
ster
studi@@
superfluous.
supranation@@
tabo@@
take-up
tax-@@
te-@@
technocr@@
tely.
ticke@@
timely.
tonnes,
tools,
totalling
tourism@@
transnistria
transplant
underestimated
ung
up?
usefully
va,
vaccinated
vain.
val,
warming,
wars,
withstand
wr@@
ws.
2007-@@
27.
67
96@@
acknowledge,
advantage,
age;
alism@@
anne
armenia,
authoriti@@
avoid@@
awkward
backs.
bankrupt
ben
bet@@
between,
bill.
biome@@
biotechnology,
blue-card
brian
brother
bulgaria's
careers
carte
celebra@@
chal@@
channels,
characterises
classical
coin.
collapsed
controlled,
conviction,
cornelis@@
ctive,
curtail
custom
defl@@
dence.
designs
diligence
disabled,
disappoint
discredit
divorce
drafted.
e-ma@@
encouraged,
entirety,
entity.
envelope
er:
evident.
fernan@@
finish,
fire-@@
firmer
flesh
flowing
fore
futu@@
globe.
good-@@
governs
guer@@
haitian
haste
hazards
herzegovina,
hinders
holocaust
honest.
humiliating
hygi@@
iaea
incident.
incidentally
ines.
ing’
injured.
inspector@@
intervene,
invit@@
irregularities,
island,
issue?
items.
jungle
katiforis
kun@@
latvi@@
leaf@@
lear@@
lends
lent
liability,
linear
location.
long-term,
lucas
luck@@
lulling,
lum@@
lur@@
maastricht.
malay@@
married
mechanical
mediator
messages.
met@@
miser@@
mislead
mistaken.
modalities
motorway
nationalism,
nationals,
negotiate.
non-binding
occurred,
occurs.
overall.
pace.
partisan
people;
planes
pooling
predecess@@
problems:
professionals,
prosecutor,
provin@@
quasi-@@
raison
reaction,
refute
related.
remark.
resour@@
rub@@
rubbish
rum@@
russia’s
rübig,
s's
safer.
sake,
secondly:
self-sufficiency
sem@@
shif@@
shipow@@
shoes
slovenia.
solemnly
sors
spotlight
ss
sson
sugar.
suitably
swine
taxing
tending
therein
thy
tibet@@
tor,
traine@@
treasury
tree
triang@@
ture,
uclaf@@
uncertain@@
undertaken,
undertaking,
unusually
unwise
us;
uses,
vagu@@
viable.
vice-presidents
visa.
warning.
washington.
weight,
wheel@@
willingly
word@@
wynn,
yiel@@
z-@@
'you
0.0@@
1/2001
137
30%.
32,
abatto@@
abstention
accessible,
aded
adequate,
affirm@@
afterno@@
alises
alleviating
ambition,
anti-european
anti-terrorist
anticip@@
aquatic
ass
b5-05@@
band
bangemann,
barni@@
basle
beating
become,
bee@@
biofuels,
bod@@
bolkestein,
boxes
bush@@
buzek
cabin
careful,
celebration
clearly:
cloud
coincides
colog@@
complications
confisc@@
confron@@
congratulations,
convening
cop
couples
culturally
cyber
debate:
debated.
declares
deliberations.
demen@@
depres@@
destabil@@
diplomacy.
disgu@@
disguise
dismant@@
dispen@@
dispense
door,
easiest
either@@
elector@@
embassy
ena
energetic
equals
ered
er’s
examination.
exce@@
exchange.
exchanges.
exhibi@@
expense.
experiencing.
expo@@
ez
fabra
faceted
fare@@
feasible,
feet.
flemish
floods.
footb@@
framed
fé@@
gau@@
gender,
genocide,
gothen@@
grants.
grateful.
groun@@
habitat
haiti,
half.
hand-@@
hatzidakis
headline
high-tech
hin@@
homeopathic
hormon@@
hosting
houses.
husban@@
ideal.
ill,
illness.
impartiality
increases,
injustices
instituted
intelli@@
intercep@@
interlocu@@
invariably
isolation,
italians
kare@@
kilo@@
landed
latest,
leghold
length.
links.
loophol@@
losers
lower.
maastricht,
map.
mention@@
michael
mix.
mounting
multilingual
multimedia
multinationals,
murderous
nafo
naive
nationalistic
neo@@
net.
noise.
non-compulsory
nowhere.
offer@@
one-third
optimistic.
orange
organised,
ough@@
parliamentarians,
participatory
pass.
perry
persu@@
petitioners
pillars.
plas@@
ples
pluralistic
plurality
possibilities,
practising
present-day
ramp@@
really,
recovered
remedied
repercussions.
represent@@
repri@@
resource,
ress
restate
ro.
royal
sahrawi
scanners
schmidt
scores
scri@@
semin@@
shiel@@
shipment
shortcoming
shoulders
silva
sittings:
slowdown
sman
socialists.
substan@@
surprises
surveillance,
tampere,
te:
testing.
that;
therapy
tindemans
tion-@@
tional.
tomlinson
trading,
two-state
ums
unbelievable
understandable.
upris@@
viewpoint,
voicing
volunte@@
weighting
wiebeng@@
wiel@@
wijsenbeek
writing,
york.
';
0
1032
180
2004-@@
absor@@
acquisi@@
affirmed
al's
alia
alien
aligned
america's
announce@@
ans;
anti-competitive
array
aspirations.
atism
atives
attac@@
banned,
battles
bear.
bees
before@@
begg@@
beha@@
beliefs.
berg.
better-@@
blocked.
bottlenecks
bow
boycot@@
bright
broad-based
budapest
bund@@
cancún,
cartels
catalan
celebrations
characterise
choic@@
citizen's
close@@
colour@@
coming.
commencement
consciously
contempl@@
contra@@
critici@@
deploy@@
derives
detaine@@
discipline,
displaying
domes@@
dop@@
dow@@
dropping
earn@@
eda
emergencies
enforce@@
enquiry
erroneous
eurozone,
eventually,
examined,
facility,
fairness,
fered
flau@@
flourishing
foolish
forcibly
fortun@@
fuelled
gasòliba
gers
ghet@@
globe
green,
guess
gün@@
hague.
hood,
hunger,
improve@@
indispensable.
ingredient
insecurity.
insist,
insolvency
intermediaries
introdu@@
jump
justifying
keenly
kong.
kore@@
lacking,
lak@@
lamassou@@
lamentable
legislator.
legitimate,
leh@@
literature
logis@@
longest
main,
maintain@@
managed,
managerial
manipulate
mankind.
mechanis@@
metal@@
microfinance
nationalities
no-fly
non-discrimination.
non-legislative
opposi@@
orderly
orient@@
overnight.
own@@
pack,
parties'
performance,
persevere
piebalgs
piment@@
poison@@
politician,
potatoes
poul@@
practitioners
pre-empt
predomin@@
preparation.
prevent@@
printing
privacy,
profession.
proof,
prophe@@
publications
py@@
question?
rally
ramos
re-use
realities.
receptive
redu@@
referendums.
reflection.
rejoic@@
relaxation
releases
rena@@
resig@@
rewards
rhetoric.
rig@@
rocket
room@@
rossa
sadness
schengen,
schwaiger
shortly,
shutting
simplified.
simpson
sites,
slogan@@
spre@@
stak@@
students.
sweden@@
symptomatic
taiwan.
taxed
teacher
technologically
terminal
thoroughly.
translates
translating
treasu@@
tunis@@
ty;
underway.
upholds
ut@@
workable.
.5
1-@@
130@@
140@@
2/2001
20%,
2005/@@
2007-2013,
44@@
6.30
abbas
able;
acqui@@
acutely
addicts
afghanistan@@
allu@@
anonymous
ap
ars,
ation’
atised
attentively
awaited
aznar
badly.
bag@@
baltic.
barcelona,
barri@@
batt@@
bee
beginnings
blottnit@@
breathing
british,
buenos
c7-0@@
ca,
calmly
cambodia,
carpe@@
carte@@
caspian
caudron
centralisation
chamber@@
chaos.
characteristics.
cheque
cher
chichester
christmas,
circulation.
circumven@@
circumvent
clarification,
cofinanced
commercially
concealed
concerne@@
condone
conges@@
cons@@
continuing.
contraven@@
convenience.
countri@@
crying
ctively,
cynicism
da.
deferred
delayed.
density
deploying
diamantopoulou
dimin@@
diplomacy,
disagree.
discriminates
disillusion@@
eea
emphatic
entertain@@
esa
eurocontrol
excell@@
excessive.
experien@@
ez@@
fairly,
family-@@
fauna
fine.
fit.
five@@
flexibly
geno@@
genuine,
geography
goes.
governors
grow,
h-07@@
hamas.
hang
harmonised.
heal@@
highligh@@
hostilities
iceland,
implied
incident@@
individually.
inevitable,
ini@@
instig@@
insu@@
insufficient,
interdepend@@
interes@@
intolerable.
io@@
iz
jimé@@
kept.
kilometre
lanka.
lawyers,
lean@@
lep@@
library
likewise.
liqui@@
ll,
logically,
mann@@
marvellous
meaningless.
medium@@
merging
minu@@
missi@@
mistak@@
mistaken,
much@@
mundus
murde@@
murder.
myanmar@@
na
negotiations?
normal.
notice,
nour@@
objective:
omissi@@
opoulo@@
ortuondo
overlapping
parliamentarians.
patron@@
possesses
predominant
preparation,
principle@@
procedure:
prof@@
prone
prospective
prudence
pum@@
race.
rank
recognise,
recognizing
refriger@@
refund
reintroduction
remuner@@
renoun@@
researchers.
ridicul@@
riots
rough
rugo@@
running.
savage
schedu@@
schulz.
sign,
simultane@@
sively,
slavery.
slower
sorrow
sta
staunch
sters
stimulated
subsistence
successfully,
suffer@@
swiftly.
syn@@
te?
tedly
thing!
tragically
traum@@
trichet
turmes
twentieth
unacceptable@@
uneven
unfair,
unfounded.
universality
ur
usage
vely,
verheugen.
verhofstadt,
wait.
welcom@@
what?
wheeled
wide@@
workplace,
worrying,
wounds
yer,
zer@@
'youth
..
175
2003/@@
3/2001
4.5
89
aches
additives,
aggravated
agri-@@
als:
annul@@
ante@@
approxim@@
arduous
attack,
aug@@
bankrupt@@
barroso's
bbc
behind,
birth.
bottlenec@@
bs.
buffer
c-@@
cancún.
casaca
catch@@
christians.
cla@@
classify
coins.
collateral
commended
conducted.
confer
consigned
contracep@@
cosme@@
croati@@
cross-party
cy@@
depends,
despo@@
diamon@@
disappointment.
disarmament,
disarmament.
disgrace.
disgraceful@@
divergences
diverted
dollar@@
drafts
dy.
ebr@@
effe@@
ek
eloquently
emas
emphas@@
endor@@
engineers
enic
entrust
errors.
esca@@
ethnic@@
european-level
ever@@
exceeded.
exces@@
excuses
expenses,
explored
exposing
extra-@@
facing,
fait
federations
feeds
follow,
fraud@@
fullest
gender-based
grati@@
hable
handicap
hits
hunt
ices
import@@
incomes,
incomprehen@@
inefficiency
ings?
integrated,
ium,
justification.
k'
kg
laugh@@
lect@@
led@@
lef@@
legi@@
licences.
licensed
lifetime
links,
lists,
market-based
masters
ments;
mes
modes@@
monopolies,
moving.
nationalism.
not!
observations,
oneself
ong@@
operates.
originated
overestim@@
panacea
paralysed
patchwork
petition@@
piti@@
please.
polici@@
positioning
potenti@@
presumption
probability
problem;
prohibited.
promp@@
questionnaire
queu@@
recalls
reces@@
reciproc@@
recorded.
red?
reference,
reinforced.
religions.
resistance,
retail@@
retur@@
revised,
rights:
rising.
rot@@
saryusz-wol@@
schul@@
screen
seas,
separatist
shape.
shortest
simplified,
slowing
smart,
soil,
standpoint,
strategy?
stretched
strongly.
succe@@
succeeds
suffoc@@
supermarket
suspicious
tajani,
take?
talk,
techniques.
tell@@
terror,
therap@@
tis
together:
towns,
tram@@
treated.
trends.
tyrann@@
unrelated
unsuccessful
unsuitable
unt@@
urban@@
vat,
vienna.
virtues
wav@@
weekend.
well-being.
well-functioning
wolf
wording,
world-wide
yard@@
year-@@
ze.
ć
'human
'if
1967
1970s
2%,
50,
69
76
93
abol@@
abundance
accreditation
actors,
adam
added,
addition@@
admit@@
admits
agon@@
aided
alger@@
allay
amateur
ambitions,
ans:
ared
asing
assertions
assess@@
attractive.
australia,
autonom@@
awar@@
barcelona.
bases.
bic@@
bloch
bottom-up
braz@@
brutality
build@@
burdens.
buy@@
cal.
cali@@
cape
case@@
chris@@
christian@@
coherence.
colum@@
commu@@
comparis@@
compatible.
compet@@
compound
consistency.
coordinator,
corri@@
cresson
criminalisation
currencies.
dangers.
daughter
day:
dela@@
densely
destru@@
dij@@
directive@@
directorates-general
discouraging
dismayed
disper@@
disrupting
dol@@
downturn
drafts@@
dramatically.
dybkjæ@@
earmark
emigr@@
ences.
encountering
ener@@
enquiries
ensuing
enthusiasm.
envisaged.
escaping
espe@@
essness
evi@@
evo@@
exi@@
exile
expul@@
f's
fact:
featured
fight,
foreign@@
forgot
fraught
french.
furthering
gies,
gsp+
h-08@@
hammer
hap@@
happened?
hell
hernández
hou@@
humans.
hungry
hurry
ideology,
ier
imaginative
imf.
imperative.
inaction
inertia
infant
inhi@@
innoc@@
integrity,
inter-institutional
internally,
intru@@
irresponsible.
islamist
italy's
journe@@
ket
ldcs
lined.
lobbies
maat@@
maij-weggen
manpower
manufacturer@@
mer,
might,
mission@@
monti.
multi-ethnic
multifunctional
mut@@
n+2
n-@@
naf@@
nan@@
nicaragu@@
non-state
nord@@
nutri@@
ol
oning
orph@@
overcrow@@
pains
part-ses@@
peaceful,
peter@@
plur@@
poll
poor@@
pope
poverty-@@
practice?
predictions
prepares
proclaim
professionalism
programme?
promotion.
prospects,
purpo@@
qualific@@
ques@@
recruiting
redondo
remin@@
reprocessing
responsive
rockets
russian-@@
sanitary
satellites
scandalous.
scene.
sely
sentiment
sessions.
sg@@
silver
slots
subjecting
superpower
surpris@@
survived
tec
technocratic
teenth
ten,
ten.
tered,
thu@@
ti.
tions;
trampled
tribun@@
troub@@
turke@@
type,
tyranny
unconditionally
understandably
undertakes
unfortunate,
unofficial
upward
ust
vehic@@
veil
viewpoints
vulnerable,
websi@@
withhold
wood@@
york,
zealand
%@@
/99:
1.7
10-@@
1000
103
125
169
1:
98
able:
accessible.
accurate,
accurate.
activ@@
ada
agenci@@
alps
anywhere.
arrangement.
arrested.
as:
audio-visual
banknotes
blame,
blaming
boarding
bosni@@
brakes
brothers
brun@@
bureaucratic,
cardif@@
carers
carriage
censure.
centrally
certain,
charles
coal,
coast.
coc@@
cohn-bend@@
commemor@@
commodity.
conceals
consumer's
containers
contention
contested
contradictory.
corre@@
council;
crash
custody
dag@@
danu@@
daugh@@
dead@@
degres@@
deleting
dence,
depre@@
detain@@
deteriorate
diabetes
dissent
dream,
drug-@@
dump@@
díez
easier,
eel
elmar
embodied
enduring
episode
euphemis@@
eurlings
evacu@@
evans,
evening's
evident,
expropri@@
extra@@
extracted
fast-track
fatuzzo
federalism
first-reading
fool
forever.
founded,
fragi@@
frightening
fundamentalists
future@@
games,
gauzè@@
ght.
goe@@
grid
grossetête
gröner
harming
harmonization.
hear,
heartily
hereby
historically,
hn
home-@@
home@@
ia’s
iliti@@
implication
includes,
ind@@
infer@@
informative
ing'.
inhabit@@
internationally,
invent
ion
issue;
ity's
juven@@
kabul
kidnapped
kosovar
lac@@
le's
le;
legislature.
liese
lose.
madeira,
manifestation
manipulated
marker
mble
mean.
meps'
metre
midnight
miert
missions,
mmed
montenegro.
monterrey
mountain@@
nagorno-karabak@@
nervous
newspapers.
non-existent.
noteworthy
obesity
ocean.
oomen-ruijten,
oppression.
organisms,
ounding
paasilinna
particular:
pensioners,
perseverance
port.
post.
preclude
preparations.
prerog@@
president:
prospe@@
rang@@
reign
relaxed
reliable.
religi@@
report'
report;
reprehensible
residence,
rigor@@
sarajevo
satisfactorily.
schierhu@@
scientists.
scot@@
sear@@
secretariat.
sepa
sex.
sia.
silent.
sink
site.
sits
sloven@@
spirits
splitting
stoning
stream.
street.
strengthen@@
stro@@
suffe@@
surprising,
swif@@
taking,
tanker
teaches
telecommunications.
tia,
tically,
time:
time;
tireless
tures
uk's
unborn
unit.
utility
utop@@
vitality
withdrawn,
won@@
worri@@
woun@@
y"
zar@@
zation,
ø@@
$@@
0.5
1950@@
1980
2004@@
2009@@
2050,
3/200@@
above.
abu@@
accountable.
acknowledged,
again?
again@@
agri-food
ak.
akis
alar@@
announced.
arisen.
arrested,
ased.
ashing
asylum-@@
b5-06@@
backdrop,
berlusconi,
biotechnology.
blu@@
bly.
boom
bour@@
box.
bread
breath
built,
bull
capitalism.
carto@@
centur@@
ces:
charge,
cke@@
class@@
clauses.
college.
columbi@@
commerce,
compassion
concrete,
consensu@@
conservation.
controvers@@
convictions.
courageously
csr
cure.
curtai@@
cycle,
deadline,
declin@@
deep-sea
default
defer@@
destro@@
devil
dial
displays
divor@@
dless
documents:
dogmatic
dolph@@
dose
dover
draconian
drilling
echo,
emancipation
enshrine
entitlements
establishment,
eurostat.
execute
exodus
fan
fingerprin@@
fingers
five,
flav@@
flour@@
forgotten,
freely,
freigh@@
frightened
fulfilled,
gif@@
globaliz@@
gmo@@
gnp.
gps
grasped
ha,
happy,
harmonised,
havens.
heightened
hill
honesty,
how@@
husband
hussein's
hussein.
ia;
ian,
imprison@@
indisputable
indulge
infin@@
infrastructural
inspir@@
inst@@
institute,
intelligent@@
internet@@
intim@@
jail
jeopardises
jerusalem.
jes@@
judicious
karaman@@
kazakhstan,
kidnapp@@
kidnapping
knowledge@@
kyrgyzstan@@
lamber@@
ld
ld@@
lectu@@
levelling
ley,
lia@@
limitations.
lo
lodge
look.
lung
madagas@@
mari@@
mario
martínez
matur@@
memories
metal
meted
misconcep@@
misled
mixing
motorcycl@@
motors
mozambique
mugabe's
ner's
non-agricultural
notes,
novel@@
overthrow
packag@@
pandem@@
panel@@
patents,
persists
planet,
pled
plo@@
plug
presence,
prevail@@
process?
productive,
professions.
pursues
put@@
quali@@
quarters,
quer@@
realise,
realised.
rebel@@
recti@@
redeployment
redress.
reformist
regener@@
regi@@
register,
reliant
renew@@
resett@@
resign@@
retreat
reuse
reverse.
risking
roll-@@
roots.
sailing
sain@@
salmonella
scenari@@
schleic@@
schnellhardt
secrecy.
segment
selfish
senegal
shown.
sibly
sixteen
skilful
slaughter@@
speculation,
staggering
stalin
stance,
state-owned
still.
stir
storms
strang@@
summits,
sunday,
t'.
tariffs,
termination
terrorist@@
three@@
thriving
too?
tot@@
tread
trend,
trichet,
ultra-@@
understandable,
unpredictable
vall@@
vehicle.
vide@@
vigor@@
von@@
wales,
watts
wester@@
wijk@@
woman.
woul@@
y’.
zes
í
špidla,
1988
36,
50%.
83
92
able@@
about@@
achievement,
activity-based
adaptability
adequately.
admissible
adri@@
aeroplanes
affront
age?
agents.
air-@@
ally:
altar
amp@@
analys@@
appear,
around,
arrange@@
authorisation,
bench@@
bever@@
bilater@@
bits
bombings
borrowing
bread@@
bureaucrats
bypass
cappat@@
carriers.
casual@@
character@@
chickens
chol@@
christmas.
circle.
clandestine
clearer,
competitions
compiling
conceive
concessions.
conferences,
confiscated
consent,
constituting
constraints.
container
convention’s
cooperate,
costa,
counterfeiting.
cowardly
cruel@@
da's
dable
davies
daw@@
deaths,
defended.
delin@@
deplores
deriv@@
desi@@
dio@@
disability.
disadvantages.
discipl@@
disclose
divid@@
dock
done@@
dupuis
echoed
ecu@@
eleg@@
eleventh
emerge.
encoura@@
enforcement,
enthusiasm,
equal.
ert
es"
et.
ethically
evenly
exhaustion
expertise,
explanation,
extract
fake
far-sighted
fati@@
fav@@
fifa
fingerprinting
firmness
fp@@
frater@@
fresh@@
frustrating
fundamentally,
g'
gazprom
generously
gers.
girl
gm@@
group'
göteborg
hair@@
happen?
herman@@
hitler
honduras
ideal,
ied
ignore.
ili@@
immun@@
immunities
impl@@
inaccurate
industrialized
inequality,
iness,
infringed
ini's
innumerable
install
installations.
instruction
interrog@@
into,
investigations,
it-@@
item,
jar@@
jord@@
judge,
known@@
kong,
kyprian@@
laughter
le'
leader.
legally,
lev@@
mainland
manageable
methane
mo
modernisation,
mortg@@
moscow,
nearer
nes@@
nicol@@
normalisation
objections.
observes
occupations
oils
onwards
ori,
orm@@
out?
ownership,
paints
pakistan's
participants.
passages
peak
performan@@
petersberg
peti@@
pleasure,
portfolios
position?
possess@@
posts,
precedent,
presiding
prohibiti@@
protector@@
pus@@
rationalise
reach@@
ready.
recital@@
reinfeld@@
relieved
renowned
resuming
rog@@
roure
saddened
scrupulously
seminars
separately,
serbi@@
sex,
sexually
shal@@
shore
smith
smoking,
soldiers.
spencer
sponsor@@
ston
succeeding
supervisor
sweden's
swift,
s’,
tacho@@
taiwan,
taking.
tannock
tari@@
tely,
ten-t
theatre
token
traceability,
transform@@
transparency@@
trivial
tunnels
turk@@
two-speed
unambigu@@
unfol@@
uniform@@
unresolved.
unwarranted
venezuela.
vered.
ves:
vibrant
vigilant.
weber
well-informed
willing@@
workload
worry@@
year-old
zal@@
ő@@
ž@@
'for
1986
2010-@@
220
220@@
23.
35,
4-@@
40%.
43,
5%,
86
87
abused.
abuses,
abusive
accommod@@
allowed,
angela
another@@
arrived.
ate'
atives,
attractiveness
attribu@@
audience
b4-0@@
beauti@@
bed,
begun,
beware
bioci@@
blood.
books,
borrell
buiten@@
call.
cambodia.
career.
catastrophes
china’s
claim.
collabor@@
compar@@
complement@@
conditioning
conferences.
confidence-building
considerably,
constituencies
corbett,
countering
crack
creators
cruelty
curbing
das
decidedly
dedic@@
deduc@@
deli@@
delude
died,
dilem@@
dinner
doubly
driver@@
duisenberg,
eable
earmarking
economically.
economics,
economics.
efsa
emigration
emissi@@
encouraging,
enrich@@
equipping
euros,
eurosceptics
eurostat,
familiar.
financi@@
flat
food-@@
fort@@
fortnight
from?
galileo,
garcía-margallo
gates
gentleman
glan@@
government'
graduates
gui@@
gus@@
happiness
height
helsinki,
hero@@
historical,
hitherto.
hiv/aids,
holidays
holland
horrified
humanist
ias
icelandic
ideolog@@
impo@@
inadequacies
inasmuch
inaugur@@
indicated.
individually,
infringes
injustice.
inshore
inspections,
institute.
interference.
intrinsically
invi@@
iran’s
iro
isolating
israel’s
istanbul
japan@@
jer
kouch@@
kra@@
lack@@
lagendijk
landmark
lapse
last-minute
lehne,
levied
lewandow@@
licence.
liness
lingu@@
lip@@
ltte
mal
mandelson,
marshall
mauritanian
maximising
mayer
mayors
mechan@@
memory.
mep@@
mercosur.
mobi@@
nail
natu@@
neighbour.
neighbourhood.
net,
neutral.
nightm@@
nominate
nominations
now:
obey
obvi@@
ombudsmen
ops
or's
orien@@
ors’
overcome,
paedophi@@
painted
permissi@@
perv@@
phasing-out
physical,
pillar@@
policy-making
posed.
pragmatism
precari@@
pressu@@
probable
proces@@
propo@@
propose.
prosecutions
proud.
pseudo-@@
rationalisation
rd
real-@@
reduc@@
relocating
remarked
renders
representati@@
repris@@
republics
require.
resources@@
ret@@
retic@@
retirement.
ride
rock
schengen.
seam@@
sensible.
sexu@@
shifts
shoot
signals.
simplifies
sincerity
situation:
ski's
spectre
spent,
sticks
strand
stupid@@
sug@@
suitability
suppliers,
swa@@
switched
tactic
taxpayers’
tehran
tel
tensions.
terror@@
thankfully,
theft
tig@@
tonnage
tool@@
transi@@
triangle
trying,
uc@@
uncompetitive
utopian
ved?
venice
vice-chairman
vitamins
vity,
way:
widened
worsen
yi@@
yielding
zation.
zero-@@
århus
ér@@
ón
εu
'everything
,'
0.5%
1980s.
2005@@
2006@@
74
absence.
accentu@@
accessions
accountan@@
agenc@@
ah
ailed
alizing
ama
amid
ane
annivers@@
ar-@@
armen@@
aro@@
arrangement,
assis@@
attractive,
authoris@@
azerbaijan,
aznar,
bacter@@
bacteria
baghdad
bargain@@
beekeeping
belts
bene@@
benzene
berès,
bility,
blokland,
bones
bric@@
broker
build.
buttiglione
calendar@@
cederschiöld
ceremon@@
chaotic
chapter,
checked.
chen@@
cks
cofinancing.
com2001
combat@@
compati@@
comra@@
conceiv@@
concessions,
conscientious
convic@@
coordinated,
cot@@
country;
coupl@@
customers,
ded;
deems
derog@@
desirability
devalu@@
developing.
dimas,
directory
discuss,
dispar@@
dispos@@
disputes,
divisive
drives
ds;
earthquak@@
echo@@
editorial
egg@@
embedded
embryo@@
encies.
enjo@@
entrepreneurs.
escalating
estonia.
ethics.
euro-atlantic
evidenced
excellence.
exempting
explained.
fares
fascism
favourite
feed,
fias@@
fications,
fige@@
firing
fleets,
fontaine,
ford,
fostered
fragility
french@@
fried@@
funds?
futile
gap@@
gen.
gender.
genes
gordon
great@@
guilt
guinea.
hail
haiti@@
hne
homeless
hooligan@@
horrible
id,
ills
implicitly
importer
inadequately
inconsisten@@
inequalities,
infamous
ingen@@
inhabited
intergroup
isi@@
issues?
istan.
ium.
iv@@
kauppi
keeper@@
key.
kla
klin@@
lambert
land’s
liechtenstein
lls
lowered
m's
maaten
magaz@@
mainstream@@
mandated
mas
mckenna,
metap@@
micro-enterprises
minde@@
mine.
minimising
missing,
modern-day
modus
monopoly.
mora@@
morality
mothers,
muster
müller
names.
nex@@
niger@@
nomencl@@
non-discrimination,
nutshell,
obi@@
objection@@
objections,
objectivity
obliging
occurrences
oce@@
operate,
opposed.
optical
organisation's
orphan
oth@@
outlined,
paedophile
park
participants,
penetration
people-@@
pere@@
perman@@
persecution.
pessimism
pharmac@@
pigmeat
pinhe@@
pipe@@
ple
policemen
polling
post-2013
predecessors
presentation.
profil@@
promoted,
proteins
prover@@
proverb
provisionally
punishment,
punishments
quarte@@
quarterly
queen
radiation.
rage
rely.
rence
res:
restricted,
romania’s
s/@@
salaries,
salu@@
sam
santa
screens
se!
seats.
seconds.
sel
settled.
short-sigh@@
shorten
siber@@
sinn
siz@@
skill@@
slip@@
slogans
source,
spectrum.
spur
stadi@@
starting-@@
stay.
strides
strike.
stronger.
sturdy
subje@@
suffic@@
suit.
tampere.
tariffs.
tb
tear
terminate
thing?
tial
tioning
tomorrow@@
tongue.
topics.
transit.
tremendously
twofold
ty:
ugan@@
unfamiliar
untenable
uran@@
urg@@
vague.
valuable.
vation
vig@@
visibly
visitors'
walking
watchful
weakness.
workforce,
wro@@
ying.
å@@
ú@@
000@@
1.4
152
2014-@@
33,
88
a/@@
achieved?
actu@@
adapt@@
alavanos
alibi
ambiguities
american@@
angolan
annually.
annum.
ano
applicable.
appropriations:
arises.
arrives
ary:
aspects:
ators'
attainment
attend.
auction
authentic@@
back-@@
beau@@
beaz@@
beneficial.
beverages
bore
bother
boy
burn
capac@@
cappato
carriers,
category,
chapter.
characteristics,
check,
chosen.
circulate
citizens:
civilisations
civilisations.
cloning,
colonies
competencies
complementing
compounded
concerned?
confederation
confiscation
consistently.
consultan@@
consulted,
contingency
contradictions.
cool
copyright,
crespo@@
cross@@
crosses
curren@@
customs,
czechs
dangerously
decisi@@
ded:
deforest@@
demanding,
democratisation.
dent
dge.
dimitrak@@
directorate-@@
discharged
discretionary
disintegration
distric@@
dock@@
dogma
drafted,
dut@@
ecofin@@
ecolog@@
embargo.
empty.
end-of-life
enough:
entrepreneurship.
equilibri@@
erb@@
eu-india
eurosceptic
expel
exponential
extre@@
extremism.
falsi@@
fatalities
favoura@@
felt.
fisheri@@
flynn
gad@@
gaul@@
ge's
genetically-modified
gir@@
gli@@
glori@@
government?
graça
greatly.
greeks
grosch
gues
guests
hardship
harm.
heaven
helsinki.
high-ranking
highly-@@
hypothetical
illiteracy
imperial
increase@@
independently.
indictment
installed
instances,
intents
interoperability.
invoking
jac@@
jeopardised
journalist,
just,
juvenile
karl
kilometre@@
kinnock@@
knes@@
kroes
larre@@
late@@
leagu@@
libr@@
lifesty@@
lindq@@
link.
link@@
linkohr
litigation
live@@
lli
logic.
lump
luxembour@@
markov
meat@@
messrs
meticulous
minute'
misunderstandings.
misunderstood
modernization
moldova's
murdered.
museu@@
nam@@
never,
never-ending
non-conventional
non-violent
of-@@
orders,
ouring
ouse
papayannakis
paralysis
payment,
pernicious
perpetuate
pharmaceuticals
phrases
pinochet
plutonium
pocke@@
pollin@@
portal
post-conflict
pouring
praises
preferences.
prescription
pressur@@
primarily,
privati@@
priz@@
proclamation
profiles
proposal:
protagonists
provide,
public’s
questionable.
rack@@
rail.
rapid@@
ray
read:
recycling.
referring,
rels
repeti@@
represented,
rers,
residual
restrain@@
restrained
reti@@
review@@
reviewed,
reviving
rewar@@
rhetorical
riis-jørgen@@
rojo
room.
sacrosanct
sahara,
sak@@
sars
schaff@@
second.
senten@@
serv@@
setback
settlements.
shark
shop@@
sided
sin
smet
sort.
sorting
spaces
sta@@
starvation
stevenson
stup@@
subordinated
subver@@
succin@@
sunset
supervisors
supplementing
tack@@
tend@@
tenders
testing,
thy@@
tionally,
tooth@@
tos
touching
transition,
tunne@@
tz
unauthorised
uncomfortable
unease
unloading
upwards
uses.
utilization
vered,
verifiable
watering
weakened.
weap@@
work-life
worsened
wurtz
ze,
‘we
1.27
131
190
2.4
2020@@
230
235
24.
41,
55%
abstentions.
accommodating
accura@@
achiev@@
adaptations
adjustments.
affor@@
after-@@
ahern
alter@@
amends
anachron@@
annan,
apologize
applicability
arabia,
article.
articles.
ashed
asserted
ast
audited
azores,
b'
babies
bilaterally
blanc
boast
bogus
bonde
book.
born.
broch@@
buddhist
burden-sharing
calam@@
camisón
cancelled.
card,
cards.
categories,
cauti@@
ce'.
ceiling.
challen@@
characterized
chem@@
children'
chile.
chosen,
codif@@
coelho,
commodities.
competitors,
consciousness
constituents.
consultations.
contracted
coven@@
criticize
cycles
d-loo@@
das@@
deadlock.
degre@@
dell'alba
denominator.
deprivation
destitu@@
development:
devol@@
dies
direct,
disregarded.
disregards
disturbances
diversifying
divert
dollar.
dominance
dwindling
dynamic.
eaggf
ear
edi@@
electorate,
eme@@
emergencies.
endured
engage@@
enhanced.
environ@@
es’.
eurocr@@
european-@@
excluded,
expenditu@@
experiences,
export.
expulsions
falls.
fare
features.
fil
first-hand
foet@@
formidable
foundations,
four-year
full-@@
functions,
fund's
gic
gifts
gnss
gom@@
gomes
goodness
grim
guest
harmless
head,
hearing.
heaven@@
hender@@
herald
hire
holes
houses,
hybrid
impaired
ina,
ina.
incom@@
incomprehensible.
influ@@
infring@@
ingly.
injur@@
inqui@@
irreplaceable
johannesburg.
jointly.
kel@@
koh@@
laborious
lanck@@
langenha@@
lar
lax@@
liby@@
licences,
macro-@@
madrid.
magn@@
magp
manifestations
marking.
marset
masses
mccarthy
mega@@
mercury,
metro@@
momentous
monopolis@@
mother,
mounted
mutu@@
nanomateri@@
nap@@
national.
natural,
neutrality.
nitrate
nomine@@
non-negoti@@
notions
ny
obtain@@
offers.
openly.
orphan@@
ots.
overfishing
papers,
parad@@
parliament;
peripher@@
piecemeal
planted
poland's
portra@@
portuguese,
presti@@
prisons,
prist@@
problematic,
profile.
provoking
public-@@
putin,
quin@@
radwan
raging
re-establishing
reads:
rectified.
reformed,
relief.
renegotiation
renewables.
repeate@@
representation,
repudi@@
rers.
restructur@@
ric
right;
river@@
roth-behrendt,
salaries.
same-sex
sanit@@
sanitation
section,
senseless
sensitive,
settlement,
seychelles
shopp@@
simil@@
sion;
ske@@
ski.
slavery,
software.
spontaneous
springs
staes
stalin@@
storage.
strict,
structurally
substantiated
supplement@@
surprise.
sweep
synchron@@
table?
tary
tempt@@
tenacity
than,
the,
theato,
tightly
timeframe@@
trademark
transcend
tribunal.
twinning
ue
unjustifiable
validation
versions.
vilni@@
visionary
wants,
wednes@@
whole@@
wide-@@
worthwhile.
years:
years;
zana
zones,
ţică@@
'non-@@
-down
129
13%
4/2001
42,
57@@
6-@@
79
84
98@@
a'.
abkhaz@@
absent.
abundant
ach,
acu@@
ads
adulter@@
aff@@
ageing.
aid?
aired
airlin@@
allies,
allocated.
alternatively,
amply
anonym@@
appreciated.
arranging
ascri@@
assign@@
astonish@@
attaching
b5-04@@
banotti
battle@@
belong@@
bered
bertens
bi-@@
blasphemy
blun@@
blunt
board@@
boeing
bonino,
bourlanges,
bowis,
breaching
bring.
brok's
burnt
bush,
busquin
carcinogen@@
castro,
ceases
censu@@
cheaply
climate-@@
co-existence
codi@@
communism.
compliance,
compulsory.
constituents,
controversial,
cooperatives
copyright.
cowar@@
cultur@@
curtain@@
databas@@
daul,
dawn
defence@@
demonstrated,
dents
desert
destabilisation
determined,
devotes
diagnosis,
dingly
disastrous.
dual-use
earth's
echelon@@
elect@@
elephant
emi
ences,
ended.
er;
esd@@
ese,
esteem
ethiopia.
europe-@@
examples:
explic@@
f-@@
fatten@@
fears.
fee@@
femal@@
fertilis@@
footing,
fren@@
frontiers,
fronts
fundamentals
galileo.
gang@@
gestures
ggling
gho@@
gill
go?
greens/@@
habsburg
harmful.
haste@@
have?
hindrance
hing
hiv@@
honou@@
hänsch
ideo@@
ilit@@
imbalan@@
impover@@
improving.
incidents.
incompatibility
indirectly.
innovations.
intoler@@
ion,
irony
islam,
jensen
jerusalem,
journalis@@
judg@@
jurisdiction,
kallas,
kauf@@
ki,
kir@@
kis@@
koso@@
kul@@
lawy@@
leban@@
length,
leni@@
lesbi@@
lian
ludicrous
madness
maes,
mainstreaming.
makers,
mandatory.
massively
matic
memorandu@@
moham@@
moratorium.
mous@@
mouth@@
mé@@
names,
neuro@@
normal,
num@@
objected
occurring.
ongoing.
ope@@
oppo@@
opponents.
orden
orientation,
ourselves:
outlined.
outstanding.
overnight
pandemic.
paradigm
participate,
patten.
peat
pension.
persistently
perver@@
petroleum
phi@@
philosophy.
pkk
placement
player,
poetter@@
practical.
preach
preserv@@
president-designate
principles:
private,
processing,
prodi's
professionals.
promotion,
pronouncements
proportionality,
proposes.
prosecutor's
prosecutors
purvis
queir@@
ranking
redres@@
relationships.
relax@@
rely,
remunerated
repli@@
represents.
resili@@
resis@@
reson@@
restart
rich,
road-@@
ros
roth@@
ruling.
salt
sect@@
sentencing
sequence
sharing.
sizes
slovakia's
solved,
some.
spain@@
spanish,
speech@@
spontane@@
standstill
stones
stubborn
sympath@@
talking,
tedness
theirs.
thic@@
those.
timescal@@
tomorrow'
topoláne@@
trans-atlantic
two:
ual
united.
unleashed
unpunished.
valle@@
vanguard
vege@@
viral
voters,
waiving
weiler
wholes@@
wisdom,
wish@@
witness@@
won.
wool
writes
you!
young.
zaire
"no@@
':
'all
'do
'good
'made
-hour
-oriented
/01
1.5%
1.6
10%.
15.@@
26.
34,
39,
6%.
absurd,
acceptance.
accidental
acknowledged.
administering
aeroplan@@
aged,
allegi@@
anchor
answered,
appalling.
appoint@@
arouse
asensi@@
assistant
assume,
assuring
astron@@
auto@@
azerbaijan.
barro@@
basic@@
bath@@
beli@@
bells
bish@@
boel
bourlan@@
böge,
cake
calves
cancer@@
cares
carro@@
casting
catch-the-eye
ches,
cigarettes.
circu@@
claim,
clout
coer@@
commemorating
commission;
company's
compliant
concentr@@
confirm,
congratulates
consciences
consolidated.
consult@@
contingent
cool@@
copy@@
covered,
daring
deceive
decoupl@@
democr@@
departments,
devast@@
developmental
diagnostic
die.
diplomas
directions.
disappearing
disbursement
disorders
dissi@@
dity
dn't
dublin.
ecosystem.
effor@@
eib,
el-@@
emergency,
empower
end?
ends,
entitle@@
entrepreneurs,
enumer@@
epidemic.
epidemics
eroded
eu-canada
extradited
extraordin@@
fairness.
faster.
favou@@
first-class
fjell@@
flooded
follow-@@
fontain@@
foregone
foreign,
forum@@
founder
france's
froz@@
genoa
gentlemen@@
gibral@@
girls.
google
grids
groundwater.
harness
heav@@
hetero@@
hopeless
hosted
hulthé@@
ideology.
ification
illusions
immin@@
implicit
incorrectly
indiscriminately
inflexi@@
infringe@@
ingredients.
inject
insinu@@
inspectors.
invo@@
ira@@
itary
iter@@
ity!
judges,
justly
kall@@
kellett-bow@@
kh@@
klaß
know-how.
korhol@@
kyoto,
launched,
leg
legislation?
ler,
lessen
lied
litres
liu
lob@@
lynne
macao
madame
maes
mainten@@
mccreevy,
merits.
michel,
miguel
minimis
missiles
moura
multidisciplinary
murderers
needlessly
negative,
newspapers,
ngo@@
nis@@
nogueira
notic@@
occupi@@
od
om,
on-the-spot
ona
on’s
organs,
ory,
ory.
outraged
outsid@@
overloo@@
packaging.
peru
philip
pin
piracy.
polledo
popp@@
positively.
pour
preference.
premature.
premises.
prince
procedure?
promised,
promised.
proper.
provision@@
punish@@
ra.
readings
recasting
reconci@@
recruited
region?
regulator
reinstated
reputation.
reserves,
resol@@
resort.
romanians
roots,
roughshod
sacconi
sail@@
selfish@@
semester
sensitive.
seveso
shared.
sharing,
shire
sickness
sity,
slowly,
song
speople
spinelli
stand-@@
state'
stop,
storing
suffra@@
summ@@
surpl@@
tackle.
teams.
teeth
thankful
ties?
tissue
tobacco-@@
toulouse
trou@@
tual
ultra-peripheral
unbearable
unknown.
vacuum.
val.
viable,
viewpoint.
virrankoski
wak@@
warring
well-defined
well-intentioned
why?
worthiness
writer
án,
‘no@@
”
'better
-month
1408/71
1987
1994-@@
2009-@@
48,
650
99@@
aberr@@
accru@@
advant@@
advising
aeroplane
affirming
after,
ances@@
annu@@
anthro@@
apo@@
apping
appointment.
ara
architectural
ard.
ari,
arming
arrest.
arrest@@
ask.
assemblies
ate;
athens,
ation',
b5­0@@
began.
bers
bless@@
bluetongue
brit@@
broadcasting.
broadcasts
brunt
brus@@
budap@@
burdensome
campania
campos
carcass@@
catherine
ce!
ced?
ceil@@
cel@@
chris
cm
cogn@@
collaborating
colossal
comes.
commissions
complimenting
components.
comprehend
computerised
condemned,
considerable,
consistency,
contents.
contribute,
cooling
cos
counterfeiting,
criminalise
criterion,
crossroads
cubic
culp@@
currency@@
d-looking
death@@
december@@
deha@@
delivery.
dementia
demonstrated.
dep@@
departments.
deport@@
deprives
deregulation.
destabili@@
disbursed
discredited
dou@@
dru@@
dump
earnestly
eligi@@
emanating
embryos.
enlighten@@
entities.
environmentally-@@
equate
errors,
ester@@
eternal
europol@@
eus@@
evaluated.
exaggeration
exceedingly
excellence,
expedite
extor@@
extrajudicial
fel@@
femin@@
feminis@@
ferreira
fidel
figueiredo
filed
financially,
fishermen's
flanders
foun@@
franch@@
fü@@
gats
gence,
gil-robles
goebbels
got@@
guantánamo.
gue.
haarder,
hab@@
halted
harmonis@@
hautala,
health-@@
heat@@
heroic
hindran@@
hormone
horses
ibrahim
illegally,
indefinite
indefinitely
induce
innovations,
institutionalised
intensely
interconnections
irradi@@
ite,
kaz@@
khartoum
kid@@
kittel@@
kou@@
label,
lagendij@@
langen,
lee@@
legalisation
ler.
lers,
literacy
lloy@@
load@@
logging
longstanding
losers.
lunch
macro@@
manchester
manual
manufactur@@
marking,
matching
maystad@@
mcnally
me;
merkel,
minerals
mistakenly
mongo@@
morgantini
nago@@
newspaper,
ney
nez,
nickel
nish
north@@
obvious:
officers,
old-@@
open-ended
opened,
opponents,
orches@@
organisation@@
organisers
originates
ortega,
otic
out:
outlets
outstand@@
ov,
pace,
papayann@@
participant
particles
pass,
patch@@
patience.
patient@@
penetrate
peninsu@@
people:
percei@@
periphery
persever@@
persisting
persua@@
persuasion
petitions:
pex
pilots
placed.
poisoning
pornography,
portrayed
portugal's
possible;
post,
pounds
powerful,
prepar@@
principle:
priorities:
proposition
prosecutor.
prospect@@
realiz@@
reallocation
reject.
relaxing
relegated
remed@@
rendi@@
repayment
restrictive.
reuni@@
reveal@@
reversed.
roadmap.
running,
rwanda,
sa.
salmon@@
sand@@
satur@@
scandal,
scen@@
secretariat,
seem@@
sesar
sewage
ship-@@
shipping,
sixthly,
slaugh@@
slim@@
socioeconomic
solid,
souchet
spear@@
specification
speculate
sper@@
spheres.
spokesperson
spreads
sr@@
srebrenica
staging
stenmar@@
stigmati@@
stock,
struggles
such@@
suffice.
surroun@@
tat@@
tempus
tension.
ter'
texti@@
thankfully
thyssen
tier
time-consuming
today;
togo
tra
treati@@
trends,
trials.
triple
tsatsos
twic@@
ukrainians
ul
unavoid@@
unicef
unjustified.
unmistak@@
unparalleled
unquestionable
user-friendly
vare@@
veto.
vii
virtuous
vis,
void
voluntary,
vote?
wake-up
warfare
waterways.
whatsoever,
willing,
wiser
wrap@@
wre@@
wretched
wri@@
wu@@
”@@
'green
'more
'new
'no',
112
2000-2006.
2006-@@
8/2001
acidification
act?
activis@@
activist
additive
affection
afghans
afo@@
age'
agendas.
albertini
alexand@@
aling
alluded
ally?
alvar@@
ancy
angeli@@
animal-@@
ankar@@
answerable
apart,
ard,
areas@@
argentina,
arisation
artists,
aspir@@
assassin@@
ate-@@
athen@@
attracts
ature
auctioning
away@@
berluscon@@
beset
birth,
birthday
bjerregaar@@
blak
bott@@
box,
bradbour@@
bud@@
buzek,
cabrol
candidacy
cann@@
cardiovascular
carer@@
carl@@
catalytic
cautiously
cav@@
chad,
chemic@@
children?
chávez
coastguard
colleague.
college,
colours
compulsory,
concre@@
condu@@
consultations,
contexts
continued,
contract,
controversi@@
conveying
could.
courte@@
cradle
crushing
cumulative
dail@@
dares
database.
deceived
deficiency
degrad@@
deplor@@
depopulation
deported
depth,
deregulated
deregulation,
desk
desper@@
destination,
devaluation
development?
disciplined
discoveries
discovering
disen@@
disturb
divide.
doha,
downstream
dublin,
dura@@
edf,
eec,
efficienc@@
egypti@@
eight-@@
employed,
employed.
employment?
england.
ent;
entry.
environments
equates
equit@@
euphor@@
evic@@
exorbitant
experimentation
eye'
faces.
fantuzz@@
features,
federalists
finan@@
find,
flames
flouted
flouting
frankfur@@
frui@@
fuelling
färm
gang
gigantic
god@@
grasp@@
grateful,
greens.
groups:
guardians
guine@@
guns
halt.
handicaps
homophobi@@
hr
ica
ice.
ida
igno@@
impression,
incomplete.
indefensible
inexplic@@
ingredi@@
inno@@
instability,
instigate
instin@@
institutionally
intellectu@@
intelligence,
inventing
involved?
irresponsibility
italian,
iv,
john@@
join,
jure
laeken,
lags
lands.
lands@@
landscape.
laud@@
lement
lethal
levying
licence,
lives@@
long-lasting
loss,
lunch@@
ly'
map,
mar
market's
mathi@@
meaning,
meantime.
medvedev
midday
militi@@
milosevic.
momentum.
monopolistic
morator@@
morgan@@
multilingu@@
neglected.
nielson,
offences,
old-fashioned
olympics
omin@@
opo@@
orders.
orientations
ories
outlying
overcapacity
overri@@
overseeing
painfully
panels
paperwork
parliamentarian
passenger@@
penny
pensioners.
perceptions
personnel,
pile
piling
pit
plagued
plen@@
plethora
pointless.
portability
precis@@
premis@@
president-in-offic@@
prestigious
privatisation,
privatisation.
privileg@@
pron@@
pros
prosper
reactors.
red-@@
referendu@@
regions'
released,
relocated
replying
respectfully
responsib@@
responsibly,
restaurant
resto@@
resu@@
reve@@
revisions
rife
rising,
saakash@@
safeguar@@
santer's
saves
scep@@
sceptics
seated
seattle.
secu@@
sham
sians
sib@@
since.
site,
smugg@@
smuggled
somewhere.
sounded
sparked
spot.
staff@@
stalemate
standardise
state-of-the-art
station.
strategy's
subjug@@
sudden@@
summon@@
supremacy
surprisingly
tables.
tail
talk.
tap
teams,
tech
terrorism?
text@@
thank,
theoretically
thous@@
tragedi@@
transcends
traut@@
triggering
trusted
turbulence
typ@@
ukraine@@
uncertain.
unciation
understand@@
uniform,
unspent
updates
vastly
vatan@@
vegetables,
vein,
verdic@@
wage.
was:
washington,
weil@@
wemheu@@
wine-growing
worn
xxi@@
yemen,
yon@@
yours,
yu@@
"y@@
'eu
-type
/eec
13.@@
170@@
1930@@
1956
2/200@@
2002/@@
2011-@@
37,
38,
?u
aboli@@
absten@@
abstention.
ac
accumulate
activation
activists,
activists.
adi@@
advances.
adver@@
ago?
aires
aj@@
alavanos,
all!
allergies
along.
ance?
anti-doping
appointed.
apprenticeshi@@
approach:
appropriated
arbitrar@@
archa@@
arias
armies
as-@@
ase.
ased,
ases
assump@@
asts
ationist
atlantic,
attendant
ature,
authorisation.
bail
banner
bars
basin.
bauer
belaru@@
besto@@
bias
bodes
brain@@
brittan@@
bushill-matthews
businessmen
cane
cartel
caudron@@
centralized
challeng@@
chap@@
characteris@@
choose,
cis
civil,
class.
clauses,
closing,
closure.
co2.
coast,
collins,
colonisation
communautaire.
comparison,
concentra@@
concert
consequen@@
contains.
contemp@@
corrigendum
ctor
ctors
cultivate
cut-@@
cut-off
d'état
de:
de?
deaf@@
deception
dedly
delayed,
demonstrations,
dependence,
deposits
desire,
destiny.
dg@@
dies@@
dioxins
disab@@
disapproval
disgrac@@
dismissal
disrupted
distill@@
districts
eels
embraces
endeav@@
endowed
engagement.
english@@
enjoy.
enough?
enriching
enshr@@
equation
espion@@
establishment.
ethics,
eufor
euthan@@
everyone’s
explain@@
exploited,
extractive
fanatical
fij@@
fiori
food@@
football,
forecasts,
fosters
frameworks.
fruitful.
gaddafi@@
gallery,
ghilardotti
gil@@
gilad
glas@@
glen@@
gni
greening
guard.
hauli@@
helm
herring
hide@@
hint
hipc
holidays.
hs
ia:
ility,
illogical
imperfect
implants
inadmissible.
incidents,
increasingly,
independents
india's
industry?
infections
informs
inhuman@@
inter-regional
interconnected
interface
istan,
istanbul@@
ition
jer@@
jon@@
judgments.
kedo
kiv@@
kohl
kratsa-tsagar@@
kyi,
la's
ladi@@
lannoye@@
laughing
leaks
learn.
leav@@
left-@@
leinen,
ley.
liberia
liikanen.
logic,
logo
magazine
mahmoud
make-up
makers.
manders
marinuc@@
marked,
marques
marriages
matter:
melting
memorial
menrad
mercury.
milin@@
military.
misgiv@@
moratin@@
mortal@@
multiplied
musi@@
muslims,
n't
nabuc@@
nal
negotiate,
nelson
nez
o-00@@
obstin@@
obstructing
occurs,
ol,
ola
olymp@@
ombudsman@@
one-size-fits-all
organizational
organs.
outsourcing
pacific@@
paragu@@
paramilit@@
passport@@
patented
peninsula
pent@@
persecution,
pipe
pleasure.
poin@@
poison
pollutant
popularity
populism
possibly,
poster@@
poured
powerlessness
practition@@
pre-emp@@
premier
preoccupied
prescriptive
preserves
programs
proud,
qualit@@
quantifiable
quot@@
ramo@@
randzio-plath,
react.
recon@@
recruit@@
relinquish
remit,
renegotiate
reported.
reprehen@@
rer.
resent@@
resorted
respiratory
resumed.
revolu@@
rigorous,
ripe
ro-@@
rolled
roundly
ruling,
scand@@
scourge.
seizure
self-handling
self-interest
sem
sequ@@
setbacks
shining
shirk
signatures.
slan@@
sleep@@
snu@@
socialism
sought,
sovie@@
spade
stalinist
stars
step-by-step
stif@@
stimulates
stipulating
stone.
straight@@
stripped
stur@@
subsidiar@@
substitutes
successes.
summits.
swobo@@
sánchez
tables,
tailor-made
talent
tax-free
taxpay@@
teenag@@
tenden@@
testifies
tia
tical
tillich
timi@@
tin,
tionary
tirelessly
titude
tongue,
toub@@
tow@@
traced
transplant@@
trojan
trus@@
tuning
turbulent
tus
twice.
tying
undoubted
unfortunately.
university.
unnecessary,
unreserved
upgraded
upstream
using.
vague,
valley
venezuelan
ventures
vine
vo,
vy
wadding@@
wash
whisky
wogau@@
work:
wounded
yugoslavi@@
zel@@
-by-@@
-on
/2001,
1.8
111
1976
2003-@@
2050
28%
300@@
308
45,
a!
a6-00@@
acious
adjust@@
afflicted
afford.
afternoon's
aiding
aked
alike,
altern@@
anomaly
antibiotic
areas?
articles,
assesses
assured,
aston@@
atism.
attainable
attitudes.
attributes
australian
austrians
auto-oil
ball@@
bangemann.
banglades@@
bay@@
beekeepers
beforehand,
beijing.
belief.
belli@@
bilba@@
bitterly
bjerregaard
blacklist
blessing
blindly
bn@@
bo
bolivi@@
bonde,
boy@@
brid@@
bs,
built-@@
c5-00@@
cabro@@
cages
cancun
carrot
case:
cashman,
catal@@
catania
cattle,
ces;
chambers
change?
choose.
clash@@
clich@@
closu@@
coins,
colleagues'
communautai@@
comparatively
compatri@@
completely,
concepts.
congratulate,
cons
conserving
considering,
consignments
contexts.
convincing.
country-@@
crash@@
create,
creditors
cries
criticisms.
cross-compliance
culminate
dal
decision?
dependence.
desire.
dest
detecting
deviate
diet.
directi@@
disarm
discharging
disparate
disrepu@@
disturbing.
division.
donors'
downgra@@
dread@@
earth,
ecall
ed'
egnos
electronics
embraced
endocrine
enlighten
enthusias@@
envelo@@
esc@@
essly
establish,
ester.
ethiopia,
evidently,
evil@@
executing
exer@@
existen@@
exponenti@@
familiarise
far-reach@@
farage
fashionable
fervent
fights
finalised.
finished,
flan@@
fluorinated
focussing
franco-german
fronts.
furthest
future:
ge'
geological
goepel
governments'
grants,
greet
h's
habs@@
happily,
harness@@
hatred,
havens,
hea@@
headlong
heavy-@@
helicop@@
helpful,
hg@@
house:
househol@@
hungary's
hunger.
hyster@@
ideologies
impotence
impress
incident,
inflic@@
inflict
influenz@@
inju@@
insecurity,
inspect@@
instigated
instigation
institutions:
intact.
intellectuals
interpreters.
intransi@@
irreparable
is;
issued.
ja,
jeopardize
joseph
journey.
jpa
katifor@@
khadraou@@
kinnock.
ko,
kreh@@
landsca@@
law-making
less-developed
lessen@@
link,
locating
long-stay
lotter@@
lt@@
m'
m:
maccormic@@
mammo@@
mandel@@
manifested
manu@@
marra@@
materialis@@
mcmahon
measurements
medication
mei@@
mented,
merge
micro-credit
microphone
midd@@
middle-@@
militarily
militaris@@
mming
moderates
modernisation.
monetar@@
monit@@
monstrous
moun@@
mp
munitions
musot@@
mutilation.
naples
nepalese
nerve
nets.
nineteenth
nutrient
o'@@
obli@@
obsolete.
omit
one!
oni
ophi@@
orden,
oursel@@
oxy@@
oz@@
pandora's
papandre@@
parallel.
parame@@
part-@@
particul@@
partners'
patent,
peij@@
perspective@@
pione@@
pity,
pled@@
pn@@
pois@@
politkovskay@@
pomés
preferences,
presidency?
priori
privatis@@
prosecutor@@
publicise
punished,
purpos@@
quaest@@
questionnai@@
rable
radiological
rami@@
ratification,
ravaged
reinvigorate
reporters
respond,
restitu@@
retained,
revitalising
ring,
rothe
ruins
sand.
sarkoz@@
secretary,
segreg@@
shame,
sick@@
silence,
singled
sitt@@
skir@@
smuggling,
social-@@
socialist,
sold.
spectacle
speeds
spells
st-@@
stakes
station,
storage,
stranded
strate@@
stretching
stuff
substantial.
succeeded.
suit@@
superstate
suppressed
surprised,
surviving
sö@@
tac
talented
targeted,
tay@@
tempting
tenor
tens,
thai
threw
ths.
tieth
towns.
tox@@
traces
trade-related
transfer.
tric
trouble.
tuous
turing
underlie
underlined,
unfolding
unify
unionists
valid,
veness,
vers.
ves'
vibr@@
vier
viii
virtu@@
vor@@
wa
what.
whistle@@
wine@@
with?
you?
yours.
youth.
­@@
°@@
‘a
'no@@
'there
/2002,
/2007
1085
19.@@
1960@@
1970s,
2008@@
21%
370
60th
accredited
achievable.
acros@@
action:
addiction,
advers@@
ae
against@@
agreeable
agreement:
ahtisaari
ailing
airspace.
all'
all-out
allowances.
almunia,
ambient
and-a-half
angola,
angola.
apolo@@
apparat@@
approximate
ariel
arms'
arsenal
attack@@
attwool@@
azo@@
b7-@@
baltic,
bay.
bbing
begin@@
begins.
beliefs,
bes,
beside
bill@@
blackmail.
blow@@
blueprint
bos
bottle
brac@@
break-up
breakthrough.
breath@@
breeders
buitenwe@@
californ@@
capability.
carlo@@
catalon@@
ccctb
censure,
cents
cep@@
ces'
cheese
chernobyl.
children@@
china'
chirac,
christi@@
civil@@
claim@@
clic@@
coheren@@
communal
competitor
concent@@
confers
confrontation.
confused.
consecutive
consequence.
conservatives,
consorti@@
constrain@@
contact.
contacts,
contrasts
corners
counterbalance
counts,
cris@@
crisis-@@
culprits
cultivating
cumul@@
cup.
damag@@
danger@@
day'
deduction
deep-rooted
democracy?
democrat,
democrat@@
ders'
descend@@
devices.
devis@@
dictator,
differ.
directorates-@@
dischar@@
diss@@
disseminated
dissoci@@
diversion
divorced
doctors.
doha.
domain@@
dossi@@
drastic@@
e-mails
earli@@
earthquake,
echoing
ecology
edf.
edific@@
edit@@
elabor@@
electing
electors
elev@@
elimin@@
elis@@
emble@@
emph@@
en'
encla@@
endan@@
endeavours.
ended,
ened
enn@@
entail@@
entrenched
ety,
eu:
euron@@
exacerbates
expansion.
eye,
fa
face@@
fanaticism
fault,
feeling,
ff.
findings,
finn@@
first:
flies
florenz,
fm@@
free-market
funded,
galician
gender-@@
ghent
glance
gloomy
gone.
gram@@
grö@@
guinea,
h-04@@
handled.
heads.
herc@@
holders.
holm
homosexuality
honoured.
horror@@
huge,
hurdles
hutchin@@
hydrological
ignalina
iii,
ij@@
illnesses.
imit@@
impasse.
impetus,
inadequ@@
inconveni@@
inevitably,
infringements.
initiated.
ino.
inspection.
inste@@
intergenerational
international.
inviolability
jakar@@
jo
joke
judge@@
karas,
kenyan
kinder@@
labelled.
laborator@@
labour@@
laden
laeken.
lake
lament@@
lapsed
laug@@
leaf
lecture
lefto@@
light@@
likely.
litre
loads
lud@@
ly!
maij-weggen,
malta's
marketplace.
marty@@
marx@@
maría
mercosur,
message:
misleading.
monks
mot@@
myths
nation's
negligible
neutrality,
newer
ning,
nonetheless.
novo
npt
occur@@
oner@@
opponent
outward
overe@@
palacio.
parliament!
paro@@
pattern@@
permanent,
phare,
pittsbur@@
platform.
polar@@
policy'
precipit@@
prejudge
principled
profit-making
program@@
programme:
proliferation.
pronk
propor@@
prospectus
provinces
puri@@
quantities.
quarrel
quer
quic@@
rains@@
rape,
reciprocity,
recycling,
redundan@@
referendums,
reper@@
requires,
respectively,
resur@@
retaliatory
revis@@
rojo@@
rol
roy@@
rt@@
rulers
safer,
sail
sanders-ten
sara@@
schizophren@@
schly@@
schu@@
sea-@@
section.
self-determination,
seville,
simul@@
sional
sir,
slap
slow,
slowness
society'
socrates,
somalia.
sought.
spill
sportsmen
station@@
sted
steered
ster.
stereotyp@@
stering
stigm@@
stimulation
straightforward.
strains
strategy:
stray
strike,
structur@@
struggle,
suspicion.
swedes
symbolises
söderman
tally
terrón
tested.
thing;
thread
three-quarters
thum@@
thwar@@
thwart
tist
tiveness
tness
tolerable
totalitarianism.
toxicity
tracing
tracted
traffic@@
transfers,
tre
tried,
trilogue
truce
truths
turin
turmes,
ues
ul.
unblock
underway,
unes@@
university,
unmik
uous
usa's
uzbekistan,
velzen,
vessel@@
victim.
villi@@
vinci
violated,
vsk@@
vulner@@
washing
weaken@@
week’s
wholeheartedly.
widely.
wine-@@
wives
workshops
ė,
'on
....
/2006.
100%.
122
16.@@
2/2000
2006/@@
22%
4/9@@
6.5
7:
about:
absurdity
accent
add.
adol@@
adults,
affords
age-@@
ain
airs
ala
alegre
allowable
alternati@@
amalgam@@
amendment?
amicable
ammunition
amounts,
andor@@
andr@@
andreas@@
ane@@
angl@@
anglo-saxon
anti-counterfeiting
antwerp
anxieties
appears,
applicable,
appor@@
architect@@
architects
arises,
articulated
as'
asset.
assign
assurance,
austria's
authentic
bac@@
backgrounds
bank'
baringdorf,
bavaria
bel
belder,
berisha
bild@@
blur@@
boogerd-quaak
book,
books.
bowe
bre
brilli@@
bron@@
buitenweg,
burdens,
bureau@@
burn@@
burying
bush.
captain
caucasian
cereals,
cfr
chapters.
charg@@
charity
chil@@
chile,
circul@@
cleans@@
cles
cmo
coexistence.
comitology,
commissioner'
complaint.
comprehensive.
computer-implemented
conditions?
conservation,
consultants
continuing,
counties
countrymen
creativity,
cryst@@
culminated
damas@@
danes
debating.
decim@@
decrees
defaul@@
dell
deprez
design,
detailed,
deterren@@
diametrically
dict@@
digit@@
dil@@
diluted
disagrees
disappoint@@
discrepan@@
disparities.
dissuasive
distinctly
dre@@
drought,
ds'
ds:
dupu@@
dührkop@@
early.
earth@@
eded,
eec.
effective@@
egyp@@
elaborated
elapsed,
emphasis.
endangers
energetically
engineering.
entertainment
entrance
enzym@@
epas.
eurojust,
europeans'
evils
example?
exc@@
executive,
exemplary.
extremism,
fans
farmed
fe
fear@@
fees,
fili@@
firm.
firstly:
fissi@@
fixed-term
flaw
flim@@
flor@@
flower
fodder
football.
fore.
forums.
fragment@@
freer
gel
gend@@
giansily
go-@@
go-ahead
gollnisch
grace
gradually,
greed
grossetête,
guinea-bissau
harmonizing
hasten
haven
havoc
heart@@
helpless
heralded
hijacked
hollow
horiz@@
hospitals,
humble
humiliation
iccat
ign
impoverishment
imprisonment.
incontrover@@
inhal@@
insis@@
intake
intelligent,
interi@@
interlinked
interventionist
irish,
iss
itarianism
ium
jeggle
jeopardised.
jeopardy.
job-@@
jové
juncture.
karl@@
kazakhstan@@
kin
kling
km@@
kremlin
kroes,
kron@@
lament
landf@@
lastly
laundering,
lein@@
lessness
lia,
linked,
lithuania's
locking
lofty
loving
luck.
luggage
mao@@
marketing.
mary
mauro
mbe@@
meli@@
memori@@
ming@@
minoriti@@
modest,
moul@@
mudd@@
multilingualism,
murder,
myanmar
narco@@
negotiated,
nepal,
nepo@@
neyts-uyttebroec@@
nico@@
nicole
non-community
normally,
nurs@@
obstruction
oecd,
ol.
oli@@
omni@@
opher
ous:
overlooking
overlooks
packed
papastamko@@
paramount.
paris.
parkins@@
passionately
payers
peop@@
phenomen@@
phil@@
poet
policies?
poos
prece@@
preparations,
pressures.
preten@@
principl@@
privately
privatise
problems?
products?
profitable.
profite@@
prominently
promise.
promptly.
protect.
purse
qualifying
quota,
quota@@
quotation
rapid,
rc
redistribute
relief,
relieving
relinqu@@
rendering
reorganise
reorganization
rer,
rescu@@
rescued
residents.
respect?
restraint.
reunification.
revision@@
revolutions
richness
rigidity
rigour,
rival
rivalry
salary.
sales,
santer.
scattered
scenario.
schedule,
schi@@
schooling
self-sufficient
senator
seneg@@
sensiti@@
shadow@@
shame.
shat@@
shortened
shortening
siege
sighted
signi@@
simplicity
skil@@
sky@@
sm.
somali
somewhat.
specialisation
spectacul@@
spelled
sponsorship
spots
spous@@
squandered
staes,
standardising
statistic
sterck@@
streets.
stud@@
superb
superse@@
suspic@@
taiwanese
targeted.
techniques,
temper@@
temperatures
tenac@@
ter's
thereof.
thermal
thra@@
threshold,
thrive
tighten@@
tons
too:
top-@@
topics,
total.
town,
trafficked
transeuropean
transpired
transplants
trilli@@
true:
tuberculosis,
tuna,
ty'
unanswered
unbeliev@@
undisputed
unfortunate.
unhcr@@
units.
unquestion@@
upheaval
upro@@
useless.
vallelersun@@
variab@@
variation
veld
victory.
violen@@
vitam@@
vojvodin@@
wales.
weaknesses,
wee@@
well-off
wer@@
wet@@
when@@
whis@@
whom,
whom@@
winds
work-related
worth.
yasser
youngest
â@@
ô@@
‘better
'as
1/2000
120@@
135
1951
1975
2:
47,
7th
89/@@
aceh
adequ@@
advertise
ail
aligning
allocated,
allow,
analyses,
anticipated.
anyone's
appen@@
appetite
appropriateness
aquaculture.
are?
armenia.
arre@@
assaul@@
ationary
ation’s
attraction
auschwit@@
bahrain
band@@
bankruptcy.
banks'
banot@@
bases,
basin,
battle,
become.
begging
behaviour@@
belie@@
belonged
beneficiaries,
berenguer
bet
binds
bit.
bn
boats,
bohun@@
bolder
bontempi
bottles
boundaries,
broadcast@@
budgeted
cameroon
camp.
caribbe@@
cartagena
casts
catch.
categorical
cease.
chanter@@
child-@@
chinese,
chip
church.
cing,
citing
classes.
claus@@
cloth@@
cold.
commander
communities'
comoros
concepts,
conclusion@@
confid@@
consolidation,
contacts.
contemplating
contradiction.
contributory
counterparts.
counterweight
cumber@@
cushna@@
damaged.
ddle
deadlines,
decency
decision:
decline,
decreas@@
deducted
deep-@@
defini@@
definitions,
degenerate
demarcation
denmark's
denominations
depen@@
depths
deputising
der'
derogation.
descriptions
designate,
dili@@
dimensional
diminis@@
dir@@
disappear,
disar@@
discouraged
disorder
dissemin@@
distortions.
don
doses
dossiers,
dt@@
ed!
edd
edition
education@@
eib's
emak@@
eman@@
embodies
ending.
enqui@@
entren@@
est-@@
eu-level
eu;
euronews
europe’
euroscep@@
ever-growing
examinations
exclusive.
executions,
executive.
exemptions,
exemptions.
expands
explain,
explosi@@
extinction.
extradite
extravag@@
favour@@
favourable.
fe.
feedingstuffs.
fence
fig@@
fighting,
fing@@
finns
fitzsimon@@
five-@@
flat-rate
flawed.
flooding.
flowers
fold.
follow-up.
forecasts.
formulae
formulations
forth,
four,
frames
frassoni,
frontex.
fund:
fying.
gateway
gear.
gently
glos@@
grandchildren
gratitude.
greek,
greener
greeted
greetings
half-way
hamas@@
hand-in-hand
heal
heckling
hemp
hezbolla@@
ho
hold,
hydroelectric
ie@@
iles
ility
illustr@@
immunity,
importan@@
impossibility
incorporated.
indent
indivisible
infan@@
initiation
input.
interlocutors
interoperability,
intra@@
inventions.
inver@@
iso
itted
ity',
jet
jointly,
judges.
k?
kauppi@@
kerosen@@
kiev
kirk@@
kosovars
lah
lambrin@@
landmines.
languag@@
latter's
league,
leaked
least-favoured
legislator,
lever@@
lig@@
light-@@
[...]
