<unk>
<blank>
die
der
und
in
zu
den
wir
ich
das
für
von
es
dass
ist
nicht
eine
des
auf
im
mit
sie
auch
dem
ein
sich
um
wie
europäischen
diese
als
herr
über
werden
daß
zur
kommission
an
-
einer
dieser
bei
sind
uns
wenn
haben
wird
einen
hat
aber
möchte
union
noch
nach
diesem
werden.
nur
so
müssen
zum
europäische
was
sehr
aus
vor
dies
bericht
durch
parlament
oder
dieses
ist,
er
ihre
mitgliedstaaten
frau
werden,
einem
hier
alle
man
ist.
kann
präsident,
mehr
unsere
diesen
muss
wird.
europa
damit
rat
keine
zwischen
eines
eu
da
am
gegen
heute
jedoch
frage
habe
meine
haben,
mich
ihnen
wird,
dann
herrn
unter
maßnahmen
können
sondern
bereits
sind.
anderen
denn
immer
haben.
ihrer
jetzt
unserer
daher
gibt
sind,
doch
ganz
sein
deshalb
.
bin
können.
sollten
dazu
weil
sowie
vom
entwicklung
hat.
hat,
wurde
einige
denen
menschen
vorschlag
sollte
mir
war
darauf
meiner
insbesondere
neuen
präsident!
parlaments
dafür
arbeit
bereich
ohne
–
seine
bis
bürger
sein,
recht
neue
jahr
viele
zusammenarbeit
allen
natürlich
"@@
nun
un@@
darüber
andere
rahmen
ob
ihren
richtlinie
%
allem
geht
schon
unterstützung
zwei
-@@
,
länder
en,
jahren
einmal
also
zeit
muß
en.
fragen
t.
politischen
etwas
viel
politik
ihr
unternehmen
aussprache
problem
sein.
kann.
selbst
land
sagen,
fall
ver@@
würde
wieder
thema
dabei
t,
sicherheit
gemeinsamen
können,
ländern
ab@@
ende
lage
wirklich
er@@
wäre
namen
abstimmung
zukunft
zusammenhang
en
an@@
seit
letzten
mittel
situation
fraktion
ziel
unseren
vielen
zwar
während
ten
probleme
seiner
regierung
kein
kollegen
staaten
rolle
t
bezug
internationalen
frauen
schutz
eu-@@
große
be@@
ein@@
te
wurden
politische
besonders
weise
teil
nämlich
müssen.
davon
sowohl
drei
welche
gemeinsame
meinung
damen
artikel
bedeutung
rates
ja
ge@@
allerdings
nationalen
vorschläge
besteht
gegenüber
unser
punkt
rechte
änderungsantrag
kolleginnen
s
weiterhin
aus@@
deren
vor@@
welt
weg
gerade
kommissar
debatte
lösung
wurde,
großen
jahre
"
präsidentin,
wo
verfahren
umsetzung
nicht,
zunächst
gemeinschaft
es,
möglich
wissen,
außerdem
lassen
art
e,
vielleicht
weiter
innerhalb
europas
solche
strategie
verhandlungen
darf
wichtige
änderungsanträge
hilfe
beim
:
wurde.
wichtig,
beispiel
ebene
wichtig
müssen,
millionen
weitere
brauchen
abkommen
menschenrechte
alles
aller
auf@@
ersten
daran
ausschuss
sozialen
ziele
meines
glaube,
vertrag
euro
grundlage
zu@@
beiden
wollen
hinblick
einigen
ebenfalls
kann,
hoffe,
wirtschaft
keinen
gut
über@@
berichterstatter
e
entschließung
all
nichts
ihrem
verordnung
genau
leider
grund
gleichzeitig
?
ich,
präsident
verantwortung
stellen
abgeordneten
s,
system
auswirkungen
worden
seinen
beispielsweise
stellt
dürfen
liegt
leben
förderung
kommission,
waren
werde
eigenen
behörden
stimme
aufgrund
wirtschaftlichen
angesichts
möglichkeit
ansicht
kosten
demokratie
ebenso
gesagt
weniger
erachtens
-,
verschiedenen
gute
ausschusses
könnte
vereinigten
schließlich
indem
beziehungen
regionen
hinsichtlich
interesse
kommissar,
programm
bedingungen
jeder
informationen
nächsten
bekämpfung
schaffung
hinaus
ten,
ent@@
krise
ausdruck
klar
deutlich
ung,
sogar
zugang
dort
wichtigen
!
öffentlichen
tun
gebiet
entscheidung
institutionen
soll
steht
verbraucher
erst
einfach
s@@
türkei
schritt
gilt
erste
e.
derzeit
einzelnen
reihe
besser
macht
auf,
obwohl
antwort
beitrag
erweiterung
vor,
mein
verbesserung
begrüße
region
äußerst
ung.
dank
machen.
soziale
t@@
morgen
dessen
europäischer
s.
markt
tatsächlich
unter@@
fortschritte
machen
wurden.
meinem
vorschriften
anwendung
darin
kontrolle
en@@
meinen
ihm
warum
gemeinsam
bürgerinnen
schriftlich.
ihn
weiteren
bevölkerung
möglichkeiten
berichts
bitte
stehen
kommen
wollen,
gibt,
form
erklärung
folgen
ergebnis
denke,
handelt
völlig
te,
mitglieder
halte
machen,
standpunkt
haus
geben
bereichen
geben,
an,
interessen
gesamten
muss.
initiative
forschung
wurden,
wirtschaftliche
darum
betrifft,
wissen
internationale
einführung
um@@
enden
jahres
in@@
reform
aufgabe
hätte
wohl
ausschuß
mehrheit
bisher
g@@
präsidentschaft
wort
tun,
weit
ung
sie,
abschließend
bestimmungen
danke
dennoch
ten.
unterstützen.
präsidentin!
ter
ungen
gesellschaft
a
wenig
diskussion
unserem
sei
dialog
a@@
de
kommt
stelle
wir,
;
kampf
gemacht
usa
jeden
finanz@@
unterstützen
seinem
finanzierung
geben.
vergangenen
ergebnisse
entscheidungen
auch,
unterstützt
e@@
herren!
i@@
großer
bürgern
richtung
unseres
rechtsvorschriften
solchen
voll
union,
tagesordnung
er,
bezüglich
gemäß
danken.
uhr
regierungen
dadurch
sollte.
eigentlich
etwa
führen
lange
findet
erster
selbstverständlich
en?
umwelt@@
angenommen
punkte
k@@
notwendigkeit
will
kollegen!
bemühungen
mal
gen
oft
meisten
lediglich
hohen
d@@
darin,
seite
verfügung
gesundheit
demokratischen
gesagt,
„@@
beschäftigung
tat
geld
transparenz
regeln
tatsache,
zweitens
angelegenheit
würden
wichtiger
erreicht
sitzung
1
landwirtschaft
lissabon
wegen
zudem
war,
zu,
text
dafür,
aus,
betrifft
glaube
o@@
arbeiten
sektor
trotz
ungs@@
sagen
gewalt
gehen
gibt.
umwelt
soll.
bestimmte
handel
geschlossen.
mitgliedstaaten,
sicher
zweite
frage,
konferenz
protokoll
notwendig
000
gründen
finanziellen
zahl
2
das,
russland
gelegenheit
aufmerksamkeit
bringen.
ansatz
nicht.
erfolg
mitglied
binnenmarkt
c@@
hatte
kommission.
mit@@
bzw.
kinder
rechts@@
allein
woche
allgemeinen
regelung
vertrauen
grenzen
vier
qualität
sollten.
bedeutet
industrie
werte
änderungen
fonds
geht,
hinsicht
sehen
kurz
ferner
kriterien
habe,
schnell
daten
haltung
programme
änderung
investitionen
ins
haushalt
dringend
dinge
zeit,
wer
weder
zweiten
präsidenten
kommen.
sprechen
union.
anstrengungen
solidarität
wobei
la@@
gar
gestimmt.
wollen.
gestellt
verpflichtungen
prozess
te.
fast
wettbewerb
themen
arbeitnehmer
erhalten
integration
öffentliche
gleichen
somit
berichterstatterin
guten
mitteilung
bessere
muss,
i
li@@
an.
annahme
endlich
energie@@
kraft
zurück@@
fragen,
gestimmt,
arbeitsplätze
eren
wichtigsten
war.
lassen.
finanzielle
wesentlichen
jedes
kollegen,
sicht
liebe
sache
m@@
nutzen
b@@
erneut
übrigen
nationen
danken,
nr.
aspekte
gehört
zusammen@@
tun.
gen,
nehmen
nach@@
fünf
freue
china
ungen,
zeitpunkt
3
seiten
meinung,
darum,
öffentlichkeit
könnten
weiß,
unterstützen,
überhaupt
halten
jede
zumindest
sicherlich
gegenwärtig
vertreter
dienstleistungen
tag
p@@
verfassung
freiheit
richtige
bildung
de@@
wahlen
erstens
worden.
opfer
richtig
würde.
20
wirtschafts@@
kleinen
eben
statt.
ge
position
d.
wachstum
haushalts@@
druck
mich,
insgesamt
en:
eindeutig
konkrete
antrag
re@@
gesamte
ange@@
vereinbarung
ma@@
führen.
fällen
einigung
landes
sch@@
wettbewerbsfähigkeit
anfrage
bedarf
n@@
treffen
sinne
hohe
anerkennung
einzige
unternehmen,
bestimmten
unterstütze
stellen.
vereinten
anderer
arbeits@@
vertrags
tes
nationale
angelegenheiten
denke
mitgliedstaat
ra@@
terrorismus
dar.
hinweisen,
f@@
al@@
unbedingt
monaten
stellungnahme
reformen
gipfel
verwendung
jedem
bringen,
ihres
finden
erforderlich
beihilfen
einschließlich
heutigen
linie
armut
gegeben
herren,
sollte,
prioritäten
bereiche
steuer@@
beitritt
ganze
stärker
parlament,
sozial@@
soll,
dezember
hoffe
schwierigkeiten
ti@@
lesung
sollen
betroffenen
ert
di@@
entschließungsantrag
genannten
n,
l@@
klare
berichte
sieht
stimmen
gebracht
getan
sa@@
berücksichtigt
bleibt
erklärungen
parteien
bestehenden
5
stark
teile
stabilität
ansicht,
umgesetzt
durch@@
stehen.
gern
sehen,
gefahr
vorliegenden
entwurf
10
forderung
2000
heißt
bevor
erreichen
nutzung
ta@@
größere
gen.
organisationen
ganzen
deswegen
fordern
frieden
instrument
se@@
aus.
genommen
regelungen
gab
bringen
finden.
achtung
markt@@
ro@@
hin@@
sorgen,
stärkung
sagte,
produkte
personen
republik
betonen,
menschen,
vorgeschlagenen
zehn
erreichen.
letzte
geführt
einzu@@
positive
lösungen
besondere
andererseits
weiter@@
initiativen
kommen,
gebieten
geht.
land,
behandelt
neuer
grund@@
lichen
t?
kommissarin
liche
europa,
gleiche
hätten
kommenden
abge@@
auffassung
schaffen,
n.
notwendigen
sten
anfang
ch@@
stellung
ungen.
durchführung
'@@
projekte
notwendig,
grundsatz
ar@@
beide
d
n
handels@@
gruppe
herausforderungen
stellen,
ger
ausgaben
raum
maßnahmen,
15
freien
länder,
verwaltung
eher
entsprechenden
z.
zahlreiche
zustimmung
ressourcen
führen,
staat
bereit
u@@
da@@
gerne
schaffen.
praxis
kommissarin,
beginn
abgeordnete
4
energie
vor.
folgt
einhaltung
darüber,
scheint
entsprechend
haupt@@
sollen.
sicherheits@@
behandlung
absatz
bericht,
g
versuchen,
einsatz
t:
verschiedene
g,
ab,
zusammen
rede
uns,
besten
stets
st@@
aufgaben
beteiligung
nie
kompromiss
projekt
sollten,
mehrere
geschäftsordnung
produktion
schritte
juni
aufzu@@
rück@@
liberalisierung
möglicherweise
mitteln
politischer
bedeutet,
durchaus
erhalten.
erinnern,
kultur
anzu@@
geschichte
aktivitäten
gestern
verkehr
weiß
vorgelegt
gegenwärtigen
welt@@
vergangenheit
häufig
demokratische
darauf,
licher
gesetzgebung
recht,
hatten
hinter
nimmt
dank,
auszu@@
instrumente
sechs
el
gemeinschafts@@
gebiete
1.
priorität
tragen
würde,
milliarden
dagegen
tatsache
worden,
außerhalb
lassen,
bewertung
koordinierung
möchten
zahlen
geschaffen
aspekt
end
ens
falle
grunde
mi@@
25
abzu@@
aufmerksam
wert
or@@
überwachung
abschluss
januar
engagement
entsprechende
setzen
wesentlich
liste
führt
g.
zu.
könnte.
wochen
zweifellos
möglichkeit,
aufgenommen
ern
fraktionen
sicher,
auffassung,
handeln
kenntnis
bald
bestehen
zeitraum
ort
50
verbot
größten
einrichtung
tier@@
el@@
je
sicherzustellen,
finden,
le@@
bitten,
bleiben
fest,
fr
leitlinien
frankreich
daran,
dienste
heißt,
erreichen,
weshalb
währung
forderungen
programms
worte
zeit@@
erzielt
sorge
agenda
erung
tagung
mai
bar
arbeitslosigkeit
6
nationaler
neben
übereinkommen
b.
h@@
absolut
verehrte
überzeugt,
ka@@
direkt
nachhaltige
partnerschaft
derzeitigen
fordere
tätigkeit
aufnahme
eigene
partei
künftig
ein,
standards
rechts
weltweit
durchgeführt
wege
ge,
getroffen
delegation
prinzip
irland
k
organisation
offensichtlich
v@@
ab.
ländlichen
o
regionalen
ratsvorsitz
sprache
agentur
si@@
verbindung
kleine
teilen
möglichst
systems
habe.
richtlinien
einiger
lich
grundrechte
besteht,
gerecht
nicht@@
kollege
einge@@
märz
anforderungen
brüssel
her@@
enthält
nochmals
pa@@
zeigt
wichtiges
bereit,
daraus
diskriminierung
begrüßen
allgemeine
überprüfung
3@@
erforderlichen
geleistet
z@@
hoffen,
niemand
muß.
augen
außer
gruppen
größte
ri@@
empfehlungen
y
klar,
ja,
sprechen,
fälle
r@@
folge
jüngsten
maße
kosovo
schwer
fischerei@@
wäre,
gt
möchte,
wahl
stehen,
ko@@
willen
erforderlich,
halten.
er.
ländern,
nehmen.
technischen
y@@
ber@@
ung@@
vielmehr
zusätzliche
diejenigen,
em
erhöhung
parlaments,
volk
verpflichtung
30
änderungsanträgen
europäer
2010
bedenken
gut,
hin
ter@@
höhe
to@@
ha@@
m
gesamt@@
fördern.
konkreten
britischen
persönlich
fortschritt
schaffen
erhalten,
ab
lebens@@
positiven
globalen
landwirte
verbessern.
anderem
herren
sanktionen
besseren
zweifel
wesentliche
2007
stand
sorgen
harmonisierung
8
“
fischerei
gehen.
h.
neu
trotzdem
dokument
erfahrungen
verkehrs@@
krieg
2004
september
offen
vorschlägen
konzept
grundsätze
kaum
vorschlags
wirtschafts-
pl
seitens
wieder@@
vorgehen
neu@@
positiv
anders
maßnahme
vi@@
deutschland
dar,
mittel@@
waren,
abend
märkte
anzahl
festgelegt
veränderungen
gewisse
helfen,
liegen
ts
gen@@
november
wichtig.
keinerlei
7
weiterer
ein.
ihnen,
abkommens
israel
europäisches
solcher
2009
besonderen
vergessen,
agrarpolitik
europa.
politisch
selbst@@
vielfalt
plenum
basis
sp@@
nutzen,
ert.
fa@@
angesprochen
entwicklungen
genug
ausführungen
gehen,
niveau
möglich,
nachdem
l
problemen
zeigen,
ausge@@
mio.
1999
bi@@
steht,
nächste
feststellen,
vorgeschlagen
bekannt
unterschiedlichen
normen
te@@
verträge
ausdrücklich
partner
2005
würden.
darstellt.
ernst
erwähnt
bedeutung,
ga@@
künftigen
sollen,
unterschiede
mitgliedstaaten.
eren,
dimension
siehe
spielen
später
bleiben.
vollständig
2006
bemerkungen
globalisierung
mo@@
gesetz
beteiligten
mar@@
bedeutung.
gesetzt
ni@@
gesundheits@@
technische
setzen.
schwierigen
königreich
rechnung
kontrollen
wahrscheinlich
erfolgreich
es@@
eingesetzt
d,
gefunden
steht.
formen
irak
strukturfonds
umfassende
sämtliche
botschaft
schutz@@
wünsche
diskussionen
freie
rat,
wichtigste
ziffer
vorschlag,
minister
zi@@
gewährleisten.
charta
en;
problem,
vollkommen
wahl@@
hauses
prüfung
hoch@@
internationaler
aktionen
unterschiedliche
anteil
aktiv
vorteile
staaten,
erwarten
inhalt
van
umfang
voraussetzungen
bei@@
gewährleisten,
berichterstatter,
ert,
sage
ischen
fehler
dritten
status
gesetze
zugleich
waren.
ba@@
preise
verbessert
40
entwicklungs@@
ständig
zielen
ratspräsidentschaft
gesehen
einklang
rechten
hand
unabhängigkeit
miteinander
regierungskonferenz
sprechen.
strategien
eur
tagen
kommissar!
information
bietet
blick
festlegung
jedoch,
ne@@
eren.
hintergrund
alten
ische
angeht,
osten
keiner
lich.
politiken
agrar@@
einbeziehung
regionale
chance
vertreten
leisten
neues
verständnis
anspruch
falls
volle
aktuellen
aufge@@
kritik
echte
ere
mitgliedern
vereinbarungen
rechtlichen
hoffentlich
kern@@
oktober
ukraine
völker
gt.
enthalten
drittens
gleich
gründe
sagen.
sonder@@
ausbildung
grundlegenden
na@@
mir,
technologien
unabhängig
2008
braucht
diesbezüglich
verhältnis
hause
halten,
konnte
nunmehr
so,
ereignisse
2@@
r
sich,
lässt
antworten
st
4@@
könnten.
vorgeschlagene
zweck
verbrechen
beste
j@@
möglichen
griechenland
ausschließlich
gt,
solange
w@@
eu,
au@@
versucht,
größeren
verringerung
verwendet
empfehlung
ausreichend
berücksichtigung
reaktion
schlussfolgerungen
zahlreichen
klaren
ste
fähigkeit
lich,
anderes
beschlüsse
es.
herausforderung
richtigen
nahen
zuletzt
nachhaltigen
anpassung
einerseits
zeiten
nehmen,
entschieden
acht
punkten
beitragen
zugunsten
gehören
bare
nen
übrigens
entlastung
politik,
kommt.
do@@
einfluss
gutes
dem,
einheitlichen
finde
berichten
monate
frei@@
gerichtshof
stimmen.
gespräche
voll@@
drittländern
ziehen
gewährleistet
land@@
2003
betreffenden
mechanismus
modell
jeweiligen
zeigt,
c
grundlegende
kürzlich
phase
baren
bürger,
gefordert
verantwortlich
wa@@
anstatt
effizienz
besorgnis
endes
fördern
herzlich
preis
zuständigen
iran
medien
befugnisse
gi@@
pro
bürger@@
afrika
betroffen
sicherstellen,
will,
zufolge
angemessene
ges
klimawandel
beschluss
tieren
bestandteil
anliegen
gel@@
kmu
vorbereitung
systeme
dienst
juli
paket
weiteres
zeichen
starke
strukturen
erfüllt
sen
staats@@
bin,
flexibilität
derartige
notwendige
den@@
letztendlich
verwaltungs@@
darunter
lang
mechanismen
realität
ei@@
entscheidender
ten@@
unternommen
wunsch
reden
6@@
ausgezeichneten
großes
innovation
welchen
grenz@@
haushaltsplan
rumänien
".
9
arbeit,
erhebliche
fi@@
en!
mehreren
muß,
po@@
ziel,
betrachtet
sehe
werden?
bau@@
redner
die,
beteiligt
'
2002
gelöst
rechtsgrundlage
internet
wto
definition
fest@@
kommt,
statt
wann
genauso
gesprochen
problems
plan
voraussetzung
der@@
glauben
sehr,
arten
vorgesehen
vorsitz
analyse
kindern
gleich@@
länger
mindestens
den,
risiken
beschäftigungs@@
entscheidende
ermöglichen,
untersuchung
gleichstellung
gezeigt,
idee
chen
dritte
angriff
bemerkung
steuern
vorliegende
bewusst
ger@@
verfahrens
methoden
genutzt
eingeführt
glauben,
arbeitsplätzen
französischen
kollegin
7@@
tiere
gleichgewicht
kultur@@
übereinstimmung
entwicklungsländern
moment
umständen
ergriffen
erte
forschungs@@
wollte
frei
außerordentlich
justiz
ordnung
sagen:
sin@@
aktionsplan
führung
5@@
april
diejenigen
schluss
lo@@
setzen,
vorhaben
kulturellen
lebensmittel@@
rasch
damals
b
erzeugnisse
gestatten
vergleich
worten
bestehen,
europa@@
lage,
gefördert
umfassenden
jene
ziehen.
rechtliche
verhalten
2020
konsens
geschehen
kontroll@@
mögliche
aufbau
konflikt
men
arbeiten,
vorgeschlagen,
gekommen
ss@@
beweis
wäre.
lan@@
verfolgt
erten
ck@@
marktes
setzt
unterstützt.
humanitäre
s-@@
wären
inzwischen
teilweise
einrichtungen
einwanderung
un-@@
auf.
probleme,
minderheiten
bislang
fordert
komme
richtig,
deutschen
weise,
welcher
diskutiert
ermöglicht
funktionieren
mindest@@
zuerst
menge
beschlossen
jetzigen
entwicklungsländer
ge.
gemeinschaftlichen
künftige
niemals
end@@
on
parlamentarischen
a,
handels
folglich
italien
verbessern
zuständigkeit
platz
schwierig
institutionellen
punkt,
spanien
ergreifen,
gemacht,
zoll@@
handelt,
elemente
illegalen
geltenden
solches
trägt
anfragen
a.
gewissen
beitragen,
letztlich
mobilität
manchmal
arbeitsmarkt
verbesserungen
zufrieden
12
all@@
befinden
eingehalten
eingehen.
hierbei
groß@@
lokalen
freizügigkeit
polen
sti@@
verstärkt
ender
erfahrung
hatte,
abschaffung
konnten
verbunden
berücksichtigen.
katastrophe
paar
wirksam
entwickelt
gedanken
ur@@
könnte,
ischer
gelegenheit,
hingewiesen,
seines
dazu,
...
liches
wirklichkeit
allgemein
schweden
treten
stoffe
ts@@
so@@
überall
gewesen
pt
nachdrücklich
p
vorausschau
hoch
tätig
verhindern,
se
wissenschaftlichen
1998
gelten
tet.
ale
regime
sehen.
anbelangt,
prüfen,
tige
überlegungen
informations@@
frage.
glaubwürdigkeit
sprachen
betrifft.
schlägt
heutige
insofern
wirkung
reduzierung
27
8@@
dürfen.
wenige
erklärt
et@@
grund,
erwartungen
risiko
sonst
eu@@
außenpolitik
den.
guter
gra@@
legen
danach
it
wasser@@
anwesend
2001
einzigen
versichern,
familien
kurzem
signal
hin,
mittel,
co@@
ratspräsident,
tragen,
mann
krankheiten
tet
men@@
denken
näher
on@@
speziell
struktur
gehört,
gelder
gu@@
waffen
wirksame
angemessen
einheitliche
sinn
betont
preis@@
britische
globale
/@@
100
betrifft:
einzel@@
sch
los
bringt
grenze
legen.
fördern,
liberalen
seien
zahlungen
folgende
verbraucher@@
vereinfachung
gefahren
grundsätzlich
maß
ernsthaft
frauen,
organe
stehenden
einbezogen
förder@@
volksgesundheit
würden,
leisten.
de,
will.
erfordert
ä@@
straf@@
wenigen
mittelpunkt
notwendigkeit,
helfen
praktisch
folgenden
jungen
tiger
rei@@
und,
irischen
politiker
tragen.
verteidigung
schen
sektoren
deutlich,
handel@@
schriftliche
binnenmarktes
leben,
prinzipien
wider@@
behörde
freiheit,
vorgelegten
wettbewerbs@@
ca@@
abgeschlossen
eu.
jedenfalls
miss@@
schaden
davon,
mangel
verabschiedet
praktiken
sektors
sta@@
tra@@
verstehen,
gemacht.
erzielen.
gesellschaften
abgelehnt
sobald
ursprünglichen
allzu
mittleren
stimmt
mu@@
wirtschaftlicher
ziel@@
ziemlich
heraus@@
möchte.
tz@@
illegale
kohäsionspolitik
thema,
zeigen
hoffnung
ablehnung
amerikanischen
hauptsächlich
enen
geworden
konkret
kriminalität
arbeit@@
derzeitige
gte
vorge@@
entwicklung,
begriff
schlüssel@@
echten
erheblich
junge
leistungen
bereich,
menschenrechts@@
betreffend
russischen
verkehr@@
gang
mut
bestimmter
debatten
besteht.
kinder@@
tigen
tion
fischer
flüchtlinge
gefahr,
bar@@
sozialer
angaben
ern,
spielt
t;
soweit
welches
amsterdam
bedürfnisse
konsequenzen
freiheiten
eng
ländliche
nl
staatliche
spanischen
alternative
meine,
familie
schützen.
staatlichen
starken
entscheidend
he@@
belarus
brauchen,
gegensatz
gewährleistung
ru@@
klima@@
unmittelbar
vorzu@@
60
enthalten.
weg,
kräfte
wünschen
männern
vorgesehenen
dar@@
februar
programmen
soeben
e-@@
pflicht
spezifischen
zivilgesellschaft
großbritannien
politik.
problematik
eu-mitgliedstaaten
studie
handelt.
vertretern
wiederum
1997
nutzen.
stärkere
bericht.
genehmigung
hinter@@
politisches
entweder
bieten
gratulieren.
9@@
arbeiten.
außen-
früher
hälfte
me@@
laut
verpflichtet
fahr@@
stimmen,
unternehmen.
zusätzlichen
auffordern,
erklären,
liegt.
bereitschaft
element
fisch@@
tig
verpflichtet,
ansichten
bekommen.
effektiv
palästinensischen
pläne
sofort
drogen@@
entgegen@@
akzeptieren,
teil@@
versucht
portugal
regierungschefs
leicht
spielen.
ausgezeichnete
gegenstand
hervorheben,
öl@@
fallen
wi@@
ratifizierung
beitritts@@
weisen
z
erklärt,
schlagen
speziellen
geehrte
geändert
humanitären
",
sagte
legt
tet,
verhindern.
reichen
zunehmend
menschlichen
reicht
benötigen
privaten
anerkannt
außen@@
wodurch
zentralbank
geschützt
methode
parlamente
alle,
beseitigung
strategischen
bezieht
al
kon@@
demokratie,
emissionen
m,
grenzüberschreitenden
leute
widerspruch
bewusst,
der,
unverzüglich
verfahren,
aber,
netze
struktur@@
mandat
spreche
stärken.
bekommen
ermöglichen.
bekannt,
bestehende
macht,
vergessen
langfristig
schutzes
.@@
finanziert
laufenden
war@@
de.
jährlich
volks@@
12.00
straßburg
versuchen
steuer
absicht
eingehen,
f
fällt
kulturelle
gegeben,
konvent
pi@@
eigen@@
ziehen,
80
institution
verteilung
bar.
dialogs
handeln.
zentrale
aktive
bereitstellung
ter,
akzeptiert
unterstützt,
danken
fall,
sen@@
hatte.
entspricht
staats-
tage
teilnahme
sieben
treffen,
entscheiden,
gegenwärtige
schul@@
aufgabe,
einverstanden
alen
lösen
rahmen@@
prozeß
sche
spezifische
usw.
austausch
trifft
untersuchungen
verfügen
bo@@
darstellen.
einzelne
mrd.
letzter
zuge@@
klein@@
langen
beitragen.
gezogen
todesstrafe
wesentlicher
hoffen
männer
nur,
erscheint
wirtschaft,
gestimmt
lin@@
see@@
zusätzlich
tabak@@
ergreifen
hängt
le
treffen.
ungs-
überaus
verfassungs@@
vorlage
bild
verwirklichung
beispiele
gestellt.
wohlstand
afghanistan
rates,
st,
darf.
diskutieren
festgelegten
gung
nächster
senkung
bulgarien
großem
menschenrechte,
relativ
beglückwünschen.
ging
ken
verfolgen
verletzung
wahrheit
entwickeln,
wasser
begrüßen,
beiträge
kooperation
verstehen
begrüßt
beschlossen,
entwickeln.
früheren
schwerpunkt
umfassend
aufgefordert,
gebracht.
bleiben,
mach@@
ro
tion.
fach@@
fort@@
hält
faktoren
fer@@
grünen
produkten
fordern,
weitgehend
berücksichtigen
ci@@
lösen.
offenen
scher
ecu
energieeffizienz
18
erforderlich.
qu@@
raums
genügend
hierzu
bedrohung
geprüft
konvention
kopenhagen
nun,
ändern.
infrastruktur
k,
sofern
stehende
1996
akzeptieren.
anlagen
parlaments@@
sicher@@
13
gemeinsames
höhere
militärischen
welt,
abgestimmt
ausgesprochen
betriebe
monat
versammlung
öffnung
geld@@
schwierige
verhandlungs@@
zukünftigen
darstellt,
charakter
tut
verbessern,
erfüllen
21.
garantien
hatten,
abgesehen
banken
liegt,
prozesses
sicherheitspolitik
technologie
zusammenhalt
festgestellt
ermöglichen
informiert
mittel-
geist
sodass
versorgung
besonderer
gesch@@
könnten,
leben.
militärische
netz
problem.
sorgfältig
werten
mitgliedschaft
laufe
pf@@
wirkliche
wissenschaftliche
einstellung
pro@@
sches
sagt,
san@@
manche
durchsetzung
sicherheit,
währungsunion
ausarbeitung
erfüllen.
erreichung
jegliche
kosten@@
breite
haushalts
weltweiten
verbraucherschutz
entscheiden
euro@@
gegenteil
kennzeichnung
weg@@
militär@@
anti@@
ausgesetzt
wirtschaftlich
angenommenen
frist
situation,
entwickeln
faktor
herzen
no@@
bio@@
kommissions@@
plan@@
tätigkeiten
italienischen
langfristige
urteil
negativen
offenbar
spezielle
afrikanischen
zurückzu@@
diskutieren,
schreiben
produktions@@
regel
hindernisse
spiel
sv
aussprechen.
bestimmt
gericht
armen
bestehen.
ene
richtlinie,
vollständige
zwei@@
angemessenen
berichterstatters
dauer
mm@@
rechtsstaatlichkeit
abhängigkeit
fragen.
zuvor
abbau
ehemaligen
führt.
infolge
kam
leiden
rechnungshof
spiel@@
14
fest
parlaments.
stolz
wirtschaftskrise
bewegung
gegen@@
türkischen
vieler
waffen@@
strategische
tisch
menschliche
bar,
hervorragende
ja@@
fall.
ak@@
flug@@
hingewiesen
nieder@@
funktion
unterstreichen,
verabschiedung
vertrages
vorgenommen
also,
gemeinschaften
gesundheit@@
natur
stunden
ts,
berichterstatterin,
berücksichtigen,
konflikte
end,
inter@@
bedeutende
energien
gemeinsamer
schwedischen
deshalb,
spricht
arbeitnehmern
lie@@
ursachen
überzeugung
dokumente
zweiter
kontext
lebensmittel
kennen
auswärtige
indien
stattdessen
verbrauchern
bestand
industrie,
kar@@
nato
500
entscheidenden
europas,
roma
schiffe
übernehmen
11.
patienten
wiederholt
10@@
gap
legen,
ob@@
welt.
anbetracht
gestellt,
regierung,
u.
du@@
staates
stärken
taten
wiederaufbau
anmerkungen
anträge
pp@@
umgang
geführt.
hal@@
us-@@
aufhebung
gefordert,
euro-@@
mag
nehme
wonach
alternativen
politik@@
recht.
abfall@@
genommen.
kapitel
regulierung
ständigen
verdient
agenturen
anstieg
eisenbahn@@
erzeuger
gelten.
gestärkt
gs
kan@@
unabhängigen
wirtschaftswachstum
quoten
reform@@
smus
ster
märkten
situationen
sport
19@@
kapital@@
leisten,
uneingeschränkt
westlichen
überein,
ergebnissen
generell
warten
bilden
chancengleichheit
daher,
gewesen,
umzusetzen.
angenommen.
effektive
erstens,
festgestellt,
mission
schützen
ho@@
ki@@
minuten
perspektive
recht@@
gegeben.
hören
nachfrage
anlass
übernommen
bau
entwickelten
nachdruck
verbreitung
aktuelle
einstimmig
grünbuch
regierungs@@
ß@@
bürgerbeauftragten
verordnungen
–,
11
parlament.
th@@
vorteil
vorrang
zurzeit
beratungen
genden
volkspartei
besteuerung
emissions@@
hersteller
zustimmen.
einkommen
erfüllung
industrie@@
ol@@
ben@@
ärmsten
gelegt
gestaltung
macht.
ändern
österreich
wird?
wohl@@
hören,
werbung
ausmaß
chancen
eindeutige
sicherung
abhängig
grenzüberschreitende
höchste
jahres@@
übernehmen.
akzeptieren
eindruck,
eingereicht
erkennen,
gerechtigkeit
praktische
t!
u
weist
stattfinden
verantwortlichen
wesen
cht
genannte
ö@@
dingen
fortsetzung
hingegen
keineswegs
x@@
fischereipolitik
handeln,
leit@@
lohn@@
menschen@@
bekommen,
nachmittag
nen,
voller
vorschläge,
2.
hatten.
nahrungsmittel@@
vorhin
ausnahme
drei@@
erkennen
fassung
geführt,
partnern
positionen
schwer@@
um,
verstehe
daten@@
landwirtschaftlichen
protokolls
regional@@
ck
erfolgen
helfen.
west@@
ergreifen.
korruption
personen,
ten?
arbeit.
beschluß
et
geb@@
licht
mündlichen
eindruck
endgültige
erhaltung
ku@@
verbundenen
vielzahl
zukünftige
internen
betrug
rein
zustand
gleichwohl
revision
zielsetzungen
zuzu@@
formulierung
mor@@
umweltfragen,
bekanntlich
erarbeitung
heit
erhöhen.
geeignete
hierfür
jemand
schneller
ungsp@@
fehlen
schäden
bu@@
erzeugung
gewährt
solch
tem
teten
tion@@
freude
geschlossen
klarheit
konstruktive
krankheit
mon@@
respekt
rund
fen
gilt,
institutionelle
liegen.
1,
denken,
det.
errichtung
zeitplan
gewährleisten
man@@
verurteilt
befassen
kräften
macht@@
sierung
zweitens,
beachtung
besorgt
bestätigt
lebensmittelsicherheit
stadt
verhindert
20@@
beginnen,
betrag
amt
enorme
jetzt,
milch@@
verstanden
we@@
welchem
su@@
wahrung
bei.
französische
vertrags@@
dasselbe
per@@
schließe
lich@@
ben
dürfte
gezeigt
konnte.
oben
sach@@
fehlt
jenen
m.
einsetzen,
berufs@@
bringt.
referendum
enthalten,
gipfeltreffen
hinweis
abgeordneten,
auge
ausschüsse
barroso
kla@@
bilanz
lieber
tausende
1@@
beamten
entwicklungshilfe
parlamentarische
serbien
gipfels
konzentrieren.
verloren
wirtschaftspolitik
beschränkungen
familien@@
schu@@
umso
aller@@
besuch
branche
begrüßen.
genommen,
nachhaltigkeit
wto-@@
as
for@@
gewählt
schwere
ausweitung
bürokratie
gebühren
sichergestellt
tete
bip
erneuerbaren
friedens@@
ger,
inkrafttreten
kroatien
mal@@
möglichkeiten,
eb@@
rechtzeitig
wirklichen
dienen
fragestunde
haushaltsplans
konzentrieren,
lissabon-strategie
me
prüfen
unterschied
wer@@
effizient
herstellung
schweren
ster@@
bedauern
fraktion,
irische
70
international
pflicht,
ste@@
zypern
ssen
unterstützung.
kapazitäten
tions@@
verträgen
beziehung
demokraten
gegenseitigen
person
aktion
negative
sport@@
vermeiden.
amtierender
brauchen.
genannt
ideen
lichkeit
verlust
mängel
nachbarn
abkommen,
ermöglicht,
gerichtet
spar@@
st.
ändern,
det
entschlossenheit
höheren
notwendig.
bei,
lei@@
modernisierung
nutz@@
sorgen.
oftmals
stand@@
vorsitzenden
nord@@
projekten
verehrten
versuch
volkes
16
bildung,
gesprochen.
hervorgehoben
ii
gelungen,
historischen
vernünftige
verursacht
einzelstaatlichen
investitions@@
kommunikation
nizza
bemühen,
gleichermaßen
lebens
mehrfach
opposition
wirksamkeit
angewandt
en"
lernen
erwarten,
verstärkte
ähnliche
öffentlich
gen?
gten
änderungsanträge,
hilfen
schuld
angewendet
anhörung
tischen
ökologischen
ezb
not@@
200@@
det,
institutionen,
konnten.
1995
b5-0@@
entwickl@@
erreicht.
schlecht
arbeitsplatz
gehalten
kontinent
kurze
offene
bedauerlicherweise
gehört.
kern
potenzial
regionen,
argumente
belastung
einheit
enthaltenen
hoher
keinem
mündliche
polizei
tä@@
klar@@
aufzunehmen.
eller
ist?
regelmäßig
betracht
dessen,
geregelt
geworden.
mitteilen,
stellt.
umweltschutz
bleibt.
erwägung
schafft
transport@@
verlangt
vorlegen
zuständig
beginnen
gefühl
%.
199@@
bisherigen
kommissarin!
ner@@
erzielen
freut
regionaler
satz
zugrunde
ach@@
diskutieren.
finanzierungs@@
luft@@
menschenrechtsverletzungen
ner
va@@
0@@
geschäfts@@
strenge
t-@@
wahr@@
wort.
zwecke
darf,
erheblichen
h
umfeld
gebracht,
land.
lasten
erhöht
grundsätzen
konfrontiert
möchten,
übereinkommens
krisen@@
nro
offenheit
schlage
souveränität
statistiken
tri@@
vollen
alles,
finnland
führ@@
griechischen
kompromiss@@
mehr,
sicherheit@@
tt@@
vereinigte
vermeiden,
at@@
europol
fehl@@
gesetzes@@
akteure
miß@@
tiges
verfolgen.
zivil@@
zweitens:
mitarbeiter
etwas,
gewicht
uno
bilateralen
kampagne
kandidaten
n?
persönliche
tion,
2011
angst
betrieben
isches
massen@@
praktischen
ausführung
ch
direkte
frauen@@
schützen,
verhindern
versch@@
ansonsten
ers
überzeugung,
200
erst@@
grün@@
vorgelegt,
achten,
che
vorhanden
3.
erwähnt,
extrem
hervorragenden
auto@@
entschlossen
entwicklung.
falsch
gesprochen,
kapital
deutliche
dürfen,
entscheidung,
studien
tische
verlauf
bemühen
endgültigen
ordnungsgemäß
tern
verbindungen
zustimmen,
ern.
obgleich
privat@@
car@@
deutsche
läßt
2,
bewältigung
laufen
ungarn
äußerungen
aspekten
bedeutenden
energiepolitik
konsequent
management
post@@
prodi
steigerung
unabhängige
verfügen,
vorhandenen
grundlegender
v
verletzungen
allianz
bedauerlich,
her
läuft
organen
weitaus
angesehen
erneuerbare
hei@@
len
sten,
tor@@
unterzeichnet
aussage
befindet
ursprünglich
zunahme
klausel
konsultation
menschenrechten
wähler
zer@@
zulassen,
zwischen@@
gas@@
ungeachtet
zusammenarbeit,
5.
demokratisch
ernsthafte
klima
subventionen
diensten
drittel
eingereichten
fra@@
pe@@
sitzungsperiode
abstimmungen
stärksten
unterzeichnung
vorgelegt.
annehmen
größter
ministerrat
möglich.
natürlichen
ne
persönlichen
ist:
reisen
risiko@@
sagt
statut
wandel
ausbau
steuerzahler
alte
ausgrenzung
behandeln
ehrlich
gelungen
geäußert
grad
schließen
aufgenommen.
berücksichtigt.
ens,
kohärenz
langem
tschechischen
zuständigkeiten
bürger.
kompetenzen
rußland
ellen
festzustellen,
ganzes
ll@@
alter
end.
entstehen
häfen
punkte,
ung:
wünschen,
befürworte
begonnen
gende
gesetz@@
konstruktiven
selbst,
abschluß
dann,
erfolgreiche
georgien
stellte
x
ausbeutung
eln
froh,
bereitgestellt
direkten
effiziente
folgen.
le,
mehr@@
rats@@
8.
dung
erwähnen,
einschätzung
gegebenenfalls
nein,
getan,
konzentrieren
langfristigen
ratsvorsitzes
richtung.
übergang
drittstaaten
entschließungen
führt,
wo@@
zahlungs@@
finanzkrise
liegen,
momentan
reden,
13@@
dienstleistungs@@
jahrhundert
kt@@
lösen,
rahmens
ungsverfahren
festen
aler
gekommen,
katastrophen
dieselben
ens@@
gesprächen
meeres@@
quelle
17
angenommen,
jahresbericht
nen.
se,
auftrag
geworden,
sinnvoll
bauern
befassen.
eh@@
einig,
wein@@
mittels
stabilitäts-
vorstellung
überarbeitung
bestimmung
bevorstehenden
gemeinschaft,
rückkehr
ausgewogenen
aussagen
ernste
go@@
sozialdemokraten
tionen
unterstützung,
sprach@@
klimawandels
bereit@@
dafürhalten
erreicht,
erstes
falsche
führer
geschieht
ständige
krisen
personal
sogenannten
suche
tionen,
veränderung
betreffen
kürze
wiederholen,
z,
2013
forum
hohes
kleiner
nahezu
bel@@
erwähnten
premierminister
verfahren.
zentralen
gegenseitige
vertretung
augenblick
ausgehend
beglückwünschen,
verfügt
vorzulegen.
überzeugt
em@@
kommissionsvorschlag
lautet
polizei@@
quellen
vertreten,
bildungs@@
einfache
erfahren,
fall@@
losen
minderheit
ost@@
reise@@
unternehmens@@
verlängerung
vorredner
w
7.
ausreichende
betrachten
kämpfen
lö@@
wirtschaft@@
90
vorgehensweise
beifall
d-@@
demokratischer
gesehen,
hätte.
planung
wohn@@
einnahmen
g-@@
gezwungen
lose
länder.
maßnahmen.
tatsächlichen
y,
äußerster
erstens:
getragen
hervor@@
garantiert
japan
mer@@
prüfen.
zentrum
abstimmen
arbeitsgruppe
größer
kontakt
reagieren
beschäftigt
jahren,
transatlantischen
verfahrens@@
-bericht
erfolgt
europas.
fahrzeuge
fairen
fordern.
pflichten
bereich.
energiequellen
gewisser
gl@@
prävention
verteidigungspolitik
weißbuch
übertragen
12@@
35
grundlagen
schrittweise
sitzungen
ß
berichterstattern
breiten
externen
dabei,
erforderliche
eu-ebene
fremdenverkehr
stellt,
tan@@
effizienter
höchst
stück
themen,
frage:
jüngste
region,
öffentlicher
ari@@
betont,
großteil
h-0@@
lau@@
luxemburg
opfern
rahmenprogramm
os
wirksamen
beginnen.
bieten.
drogen
gestalten.
höchst@@
meinen,
vorher
vormittag
ausgerichtet
eigentliche
forschung,
geh@@
hart
schulden
tiert
wenden
fallen.
iert
ländern.
mal,
straßen
wozu
4.
asyl@@
erzielten
genauer
streben
zählen
allem,
einzig
f,
fe@@
gewählten
identität
viel@@
bestände
handlungen
hu
leitung
pakistan
rassismus
ts.
vollem
zucker@@
äußern.
dokumenten
fern@@
gearbeitet
gefährliche
ist@@
offen@@
prozent
elle
hilfe,
missbrauch
é@@
beschäftigten
versuch,
zustande
bedenken,
elektronischen
gebrauch
gefährdet
hervor,
organisierte
geschieht,
inwieweit
rat.
ser@@
straßen@@
verfolgung
belgien
einig
herrscht
tod
visa@@
barkeit
behaupten,
bild@@
erinnere
garantie
hinzufügen,
niederlanden
rolle,
stimm@@
angebot
anreize
entscheiden.
erfolgreichen
historische
journalisten
resolution
scheint,
subsidiarität
zuge
führende
hol@@
lu@@
barer
erfreut
fang@@
kt
kulturen
ratspräsident
14@@
finanzmittel
15@@
gilt.
verschiedener
betriebs@@
darstellen,
eigenes
legislativen
ausführlich
gelten,
heute,
hier,
kompetenz
renten@@
terroristen
ausnahmen
beurteilung
eingegangen
gelingt,
mittlere
patent@@
präsidium
begründung
erinnern
konservativen
schwierig,
zugute
6.
chinesischen
ell@@
gehe
teilt
ausgeschlossen
bekämpfen.
ebenen
medien@@
modernen
zustimmen
erfolge
hand@@
integrierten
bieten,
enormen
folgendes
jugendlichen
kin@@
slowakei
staaten.
zusammensetzung
groß
schulen
sichern.
tin@@
angesprochen.
bereiche,
entspricht.
gelangen.
meinungen
chance,
dient
enger
erzielen,
gleichbehandlung
nötig
presse
rä@@
unmöglich
vision
zahl@@
tiven
fand
fernseh@@
kte
sen,
zielt
bedeuten,
enge
mengen
para@@
erwartet
gewesen.
heimatland
immerhin
krise,
produkt@@
spielen,
terror@@
vo@@
beträchtliche
ratifiziert
sk@@
zentral@@
ausübung
en-@@
haft
kuba
dass,
finanzen
keinesfalls
leistung
schnelle
stell@@
gratulieren,
versprechen
vorangegangenen
einsetzen
existenz
forsch@@
fähig
jener
ant@@
bedauere
richten,
sch,
sitz@@
aufgefordert
beigetragen
einverstanden,
kürzungen
stu@@
and@@
eingeleitet
stärken,
18@@
donnerstag
entwicklungszusammenarbeit
erfüllen,
erungs@@
gründung
pla@@
präsenz
schaft
smus,
titel
tät,
vorschlagen,
balkan
bildet
cs
eingehen
generation
hätte,
vorgesehen,
wechsel@@
gefährlichen
scheinen
schi@@
vertreten.
beschäftigung,
erlauben
produkt
präsidentin
standpunkte
beschränkt
betrieb
erfolgen.
gefordert.
ier@@
werk
lehr@@
scheitern
sei,
sozialdemokratischen
verb@@
derart
ell
mazedonien
wollten
entfernt
gesellschaftlichen
haushaltsjahr
ungsprozess
wettbewerbs
amerika
boden
dieselbe
einzelheiten
mittelmeer@@
rin@@
schriftlich
streit@@
verfügbaren
vizepräsident
amtierende
fähigkeiten
gemeinschaftliche
ursache
denen,
tive
wei@@
weiterzu@@
wenngleich
besch@@
erzeugnissen
kriegs@@
rech@@
wert@@
zusatz@@
bank@@
bemüht
sinnvoll,
verlangen
behörden,
bezeichnet
gratuliere
mittlerweile
müssten
natur@@
profitieren
rechtlich
redezeit
schwedische
system,
ter.
abgeordnete,
bank
ler
maß@@
müsste
partei@@
sicherzustellen.
ten:
zen
beitrittsverhandlungen
bra@@
interinstitutionellen
je@@
strategie,
verfolgen,
befürwortet
gerichtshofs
güter
liegenden
lokale
spanische
vorbereitet
zunehmende
%,
beinhaltet
chen,
dienen.
einwanderer
ern@@
israelischen
preisen
profi@@
rat@@
stattgefunden
finde,
personal@@
vorstellungen
abfälle
e:
fallen,
gebe
kategorie
lehnen
manchen
menschenhandel
umwelt,
ungssystem
vieles
amtierenden
arbeitsbedingungen
einiges
einsetzen.
experten
organisationen,
sagten,
tonnen
wachsenden
freuen
kt,
respektiert
straße
thema.
traditionellen
verlassen
ü@@
übertragung
beglückwünsche
binnenmarkts
christdemokraten
eurozone
fin@@
hohem
k.
netz@@
tiert,
unterschiedlich
zugänglich
20.
zurück.
anwesenheit
argument
dienststellen
tig,
vorsitzende
wille
eventuell
generationen
landwirten
nahe
stärkeren
tieren.
wofür
arzneimittel
ausgleich
bringt,
eingeräumt
unterstütz@@
werde.
ziele,
zugangs
fünfzehn
prüf@@
rolle.
zusammenarbeiten
abgeordneter
ebene.
gebäude
befassen,
befinden,
han@@
heutzutage
kraft@@
zeit.
24
führenden
geschehen.
haben?
intensiv
organisierten
transport
da,
diesbezüglichen
dänischen
entwurfs
enz@@
nennen,
papier
reagieren.
tiert.
vermieden
entschieden,
gan@@
ir@@
mensch
ssen.
usa,
zeitpunkt,
betrachten.
deten
leg@@
op@@
zukunfts@@
absicht,
flughäfen
langer
ratspräsidenten
zunehmenden
feststellen
hergestellt
nennen.
stattfinden.
beschwerden
kl@@
ssystem
verstärkten
national@@
offiziellen
ohnehin
private
worten,
anschließend
begrenzt
beibehalten
berichterstatter.
bestätigen,
fakten
gewiss
weg.
3,
grundfreiheiten
kommissar.
nachbarschaftspolitik
sto@@
vorbereitungen
andere,
informationen,
interne
jugend@@
regionalpolitik
schluß
."
kontakte
länder@@
parlamenten
runde
stärke
ums
17@@
gebeten,
gkeit
herzlichen
nein
äre
kredit@@
lt
material
met@@
rechtssicherheit
us
wissenschaft
andernfalls
antwort.
interessante
schengen-@@
um.
wirk@@
2012
außenminister
doppel@@
portugiesischen
währungs@@
ech@@
langsam
migration
tlichen
wichtigkeit
appelliere
befinden.
bemüht,
bleibt,
ex@@
export@@
fen.
niederländischen
ssen,
zusammenarbeit.
atom@@
dank.
kurs
min@@
minute
rückgang
za@@
ali@@
außengrenzen
bereichen,
sichere
teilnehmen
tourismus
transparent
verzögerungen
bekämpfen
bin.
dankbar
funktioniert
geschieht.
amerikanische
eingebracht
ethnischen
jahr,
legislativ@@
übernehmen,
kommissare
kontrolliert
kt.
sor@@
ökologische
arbeitet
bitten
bro@@
gend
organ@@
transeuropäischen
verfasser
verlangen,
aktiven
ausgewogene
behandeln.
bosnien
dies,
sitz
sommer
wunder@@
arabischen
demokratie.
erleben
gestaltet
konflikts
qualitäts@@
schicksal
treten.
verboten
ausland
außen
bereitet
dern
gender
gewinnen
produzenten
pu@@
übernahme
16@@
21
belgischen
dankbar,
dänemark
elles
jährlichen
süd@@
verweisen,
vollständigen
be
beziehen
dienen,
fleisch
interessiert
jeweils
kernenergie
kritisch
schla@@
überzeugen,
bedingungen,
entsprechen.
kra@@
sachen
statt,
tung
vorrangig
aufstockung
bewirtschaftung
regel@@
sei.
vorlegen.
300
beabsichtigt
darstellen
ebene,
ergeben
formuliert
gremien
hi@@
hinzu@@
kur@@
natürlich,
neun
sprach
verlieren.
widerstand
überprüft
erfreut,
fristen
getan.
gut.
hilf@@
lehren
mitwirkung
richten.
stimmt,
reise
schen@@
tliche
umstände
verantwortung,
vorgesehen.
10.
anhang
denk@@
hätten.
marokko
menschen.
schlußfolgerungen
gegenteil,
mittelmeerraum
regeln,
reich@@
ungarischen
volkswirtschaften
benötigt
tragödie
verfügen.
zählt
den?
inner@@
klarer
küsten@@
lebenden
mehrwert
bewußt
definiert
durchzuführen.
heit.
klares
konzentration
rechte,
sk
ton@@
9.
heit,
keit,
positives
schließt
vernünftigen
verstärken.
vorbehalte
betreffen.
bilden.
damit,
eigentlichen
fünf@@
gerechte
technologische
am@@
bedeuten
erhöhen
festgelegt,
feststellung
interessen@@
ju@@
kritischen
unterbrochen
verringern.
funktioniert.
genaue
ger.
wor@@
dan@@
derartigen
friedlichen
kapazität
kor@@
leichter
richten
schlechte
stellungnahmen
befürworten
c-@@
erwähnte
kinder,
spät
ungefähr
vorfeld
armee
beruf@@
betreffen,
des@@
ener@@
gen:
verletzt
weltweite
wiederherstellung
anhand
einfacher
gekommen.
innere
mangelnde
untersucht
verstärkung
19.
bet@@
buch@@
dringlichkeit
eingerichtet
erstellung
geschehen,
unver@@
albanien
flüchtlings@@
geschlechter
leistungs@@
ne.
personen@@
rate
sich.
verhältnisse
drin@@
frankreich,
handlungs@@
innen
probleme.
rahmenbedingungen
versuche
dort,
durchführen
erter
lässt.
o,
tieren,
ce
ernennung
euro.
geplanten
minister@@
randlage
selbst.
täglich
umzu@@
al,
art,
dafür.
einfachen
ergibt
hält.
noch,
russische
verkehrs
veröffentlicht
worauf
bedürfnissen
davor
dienstes
ehe
einander
gesellschaft,
schä@@
zurück
gegangen
information@@
par@@
ungsmaßnahmen
zeigen.
anwendungsbereich
erörtert
geehrter
größe
rasche
umfangreiche
vorzulegen,
weit@@
dynamik
entscheidungs@@
erinnert
inseln
euro,
landwirtschaftliche
schließen,
vermeidung
wirken
bedanken.
erzielt.
falschen
letztes
setzt.
steuerung
a-@@
absichten
beobachter
ca.
eres
friedliche
höher
lesen
rubrik
stunde
systemen
tief
türkische
“.
angebracht,
bur@@
eltern
gewährung
hätten,
kenntnisse
städte
todes@@
tur@@
ausgegeben
billi@@
debatte,
ehr@@
firmen
gemeinschaftsrecht
meer
p-@@
zulassung
entschließung,
hinweg
lösung,
sinn,
4,
auftreten
cor@@
dienst@@
finanzieller
geboten
rates.
vernünftig
ens.
geklärt
kluft
qualitativ
wenigsten
glück
glücklicherweise
informationsgesellschaft
kanada
problem@@
rü@@
sozialpartner
verkehr,
19
aufs
erhöhen,
fluggesellschaften
hören.
mehr.
mp@@
sicherheit.
starkes
territorialen
ausschüssen
beschäftigen
bewegen
hält,
innovationen
les@@
schau@@
schwierigkeiten,
werden:
währ@@
är@@
erleichtern.
gewässern
jahrzehnten
mer
ministerpräsident
punkt.
zweifel,
effektiver
fi
gründlich
nicht-@@
ou@@
tig.
umstrukturierung
zukommen
akp-@@
aufforderung
beteiligen.
finanziell
genetisch
har@@
hier@@
kosten,
ment
rats
sektor,
verteidigungs@@
45
besonderes
einschränkung
sicherheits-
womit
zerstörung
deutschland,
energie,
entschließungsanträge
italienische
konnten,
lokaler
verleihen.
wenigstens
wie@@
bilaterale
chi@@
gemein@@
programm@@
unfälle
verkauf
übergangs@@
75
cken
erweiterten
hoffnung,
million
sind?
sozusagen
suchen,
truppen
weiterentwicklung
werde,
äußern,
angriffe
effektivität
erarbeitet
höchsten
is@@
korrekt
kultur,
richtlinie.
smus.
zwangs@@
zwölf
23
bedeutet.
entsprechen
entwicklungspolitik
erinnerung
flu@@
zusammenzu@@
absolute
demzufolge
durchgeführten
einzuführen,
solide
tlich
vorgeschlagen.
angelegenheiten,
gemeinschaftsebene
multilateralen
vermeiden
ziels
amerikaner
bru@@
herz@@
man,
müßte
nuklear@@
südlichen
teilen.
welthandelsorganisation
effektiven
einkommens@@
ori@@
technischer
tu@@
wahren
wären.
zumal
besseres
fischereiabkommen
geleistet.
globaler
intervention
jene,
kurz@@
legislative
pol@@
sicheren
unternehmer
11@@
5,
a5-0@@
enthält,
erwähnt.
ieren.
pakets
quote
sol@@
vier@@
antworten,
eben@@
einzuführen.
fortgesetzt
gs@@
handel,
ken@@
last@@
sozialpolitik
vorstellen,
arbeitnehmer@@
ersetzt
fernsehen
fällen,
ler@@
per
schließung
simbabwe
unsicherheit
,@@
bares
gesundheit,
haften
präsident.
rechtsrahmen
willkommen
zei@@
.000
bedroht
befasst
geschaffen,
größerer
leiten
offiziell
palästinensische
transparenz,
verbindliche
zusammenarbeiten,
angesprochenen
bewusstsein
defizit
eröffnung
hilfs@@
tt
verdienen
wirksamer
demnach
gehören.
informieren,
konvents
litauen
ruf
stand,
zurück,
zusagen
ären
denjenigen
fonds,
gemeinschaft.
mün@@
projekts
spannungen
besser,
erteilt
kopf
lehne
mitte
tages
uns.
arbeitgeber
arbeitsweise
beruflichen
kommunistischen
sozialistischen
stoffen
ta
vertrauens@@
ausgewogenheit
auslegung
dargelegt
einziges
erstmals
haushalte
lebensmitteln
regimes
tschechische
tür
zusammen.
zutiefst
22
auswahl
bevölkerungs@@
einzusetzen.
fehlende
geistigen
hel@@
jahren.
landwirtschaft,
verluste
visum@@
vordergrund
aussprechen,
behinderungen
ehrgeizige
ermöglicht.
inneres
instrumenten
kohäsion
kürzung
sache,
sexuellen
tatsachen
vertritt
zukünftig
zurückge@@
aufrechterhaltung
ber
denselben
gewinne
ken,
vorgaben
zusammen,
ergänzung
eri@@
gleicher
jugend
mittel.
negativ
normalen
tig@@
umsetzen
wiederaufnahme
gebilligt
justiz@@
kritische
lateinamerika
men.
möchten.
umfasst
automatisch
barcelona
dritt@@
ehrgeizigen
erreich@@
jahrhunderts
suchen.
sämtlichen
unterdrückung
unzureichend
verbraucher,
versicherungs@@
verzögerung
veröffentlichung
wechsel
barroso,
beantwortet
danke,
dauerhafte
erfüllt.
friedens
last
richtung,
ungspolitik
verbrauch
weiter.
österreichischen
aufzunehmen,
boden@@
elt
entschädigung
hand,
instrument,
interinstitutionelle
saal
sse
voran@@
1994
abstimmung.
ac@@
ban@@
gewerkschaften
grenzwerte
immunität
knapp
kompromisse
moderne
phänomen
türkei,
vorn
öl
15.
annäherung
betrachten,
beträge
deutlicher
erklär@@
fla@@
gerichts@@
konnte,
landes,
mü@@
nahm
nen@@
te:
worum
begrenzung
derselben
dienstleistungsrichtlinie
effizienten
fahren
greifen
kompromiß
mussten
reaktionen
schlag
seitdem
ses
strafen
zone
enthält.
geehrten
kommissars
kommissionspräsident
konflikt@@
konflikten
logik
reduziert
se.
del@@
entzieht
ersuchen
fassen.
gestellten
norden
städten
subsidiaritätsprinzip
umgehend
verurteilung
wirtschaft.
zukunft.
af@@
anderen,
angeblich
china,
eg
gelangen,
gliche
olaf
summe
ung"
verfolgt.
aufnehmen
august
ehemalige
festzulegen.
gesunden
halb@@
konsultationen
minister,
mitbürger
pan@@
sch.
schengener
setz@@
sich@@
vorsitzender
zehn@@
abgeschafft
ausgangspunkt
binnen@@
defizite
derer
gesetzlichen
lösung.
multi@@
realistisch
schiffen
streng
unglück@@
weiß@@
wissenschaftler
östlichen
beihilfe
gut@@
hinweise
hör@@
moldau
schlimmer
und@@
versicher@@
öko@@
aussprachen
dinge,
einwände
energieversorgung
inneren
polnischen
schein@@
schätzungen
son@@
uno-@@
bestätigt,
lle
soldaten
stattfindet.
t"
akp-staaten
anschluss
antworten.
bahn@@
beteiligen
chte
chten
dahin
gewalt@@
grüne
haushaltsmittel
ide@@
ige
ing
tlicher
vorgesehene
ägypten
einfluß
el,
festzulegen,
marktwirtschaft
new
nützlich
passiert
schiff@@
stische
tung,
verantwortungs@@
verstöße
werk@@
win@@
beabsichtigt,
büro
tz
ungleichheiten
behandelt.
berlin
bietet,
dahingehend
folgen,
gerechtfertigt
gesetzt,
gesetzt.
herausge@@
lager
menschenrechte.
netzes
nähe
schlechten
seh@@
amtszeit
anschließen.
ansprechen.
dete
einsparungen
erwarte
gefähr@@
in,
pri@@
religiösen
ursprüngliche
wettbewerb@@
bekämpft
schwieriger
technik
unbe@@
vergleich@@
ausrichtung
demokratisierung
erlaubt
koordination
lebensqualität
naturkatastrophen
re,
sie@@
beziehen.
gesagt.
im@@
inanspruchnahme
indikatoren
merk@@
nennen
palästinenser
zielsetzung
än@@
ende,
faire
freunde
gehören,
gelassen
geringen
getroffenen
gvo
kriterium
kunden
kurzen
normalerweise
regierungen,
rest
trag@@
anzunehmen.
arbeiter
beantworten.
berufliche
gar@@
gleichheit
gründe,
hindernis
mitentscheidung
ssi@@
süden
verstehen.
brasilien
dagegen,
gehandelt
gern,
griff
jugendliche
kind
leid
spolitik
vereinbart
westen
antwort,
beweise
gestrigen
hu@@
ka
libanon
stoff@@
tau@@
textes
ton
verändert
wert.
?@@
annehmen,
ausgeführt
bedanken,
betreiber
bezeichnung
get@@
gewässer
human@@
jeglicher
leb@@
steh@@
tunesien
verpflichtung,
vorwand
wünschen.
ans
beziehe
freilassung
integrität
palästina
stan@@
ven@@
ansatz,
ausgehen,
ausschusses,
bevölkerung,
büros
entstanden
erweitert
gelegenheiten
hervorheben.
kurzfristig
liefer@@
nden
präzise
ps
rufe
sier@@
tre@@
wachsende
wachstums@@
ähnlichen
bal@@
bin@@
evaluierung
geber
gutem
kommissionspräsident,
tradition
uneingeschränkte
aussicht
ehre
geraten
herbst
krieges
ktion
ran@@
siert
säule
tests
vorher@@
beider
benachteiligten
diktatur
einmal,
ereignissen
ff@@
geleistete
herausforderungen,
schulden@@
sicherstellen
studenten
vorschriften,
wirft
zwangsläufig
dauerhaften
dien@@
doch,
enttäuscht
führte
führungs@@
geringer
glich
mark@@
optionen
tal@@
unregelmäßigkeiten
vermutlich
ähnlich
achten
benutzt
datum
entwickelt.
fahrer
gerechten
schlüssel
seinerzeit
tatsächliche
wein
wortlaut
zugelassen
überwindung
erfahren
fo@@
fällt.
geringe
ieren,
infrastrukturen
kohäsionsfonds
sogenannte
sozialisten
strengen
änderungs@@
bereich@@
dung,
forst@@
parallel
schwächen
stabilitätspakt
tschetschenien
zweck@@
augenmerk
bitte,
einfach,
forder@@
geeigneten
gefangenen
gefährlich
gezwungen,
konsolidierung
len@@
nahme
onen
pfeiler
roma-@@
selber
strengere
verhaltenskodex
1,@@
anscheinend
asien
begangen
bö@@
einschränkungen
hafen@@
lenken,
nimmt.
sei@@
teil,
tro@@
tun?
vergabe
verurteilen
arbeitnehmer,
flüchtlingen
geheim@@
gestalten
men,
stand.
tiv
verhinderung
verlieren
votum
wende
änderungsantrags
alkohol@@
konjunktur@@
kooperations@@
lautet:
nachhaltig
nimmt,
profitieren.
schließen.
schritt,
völkern
überleben
entscheidend,
gsten
montag
werte,
zurückzuführen
überlassen
aktionsprogramm
angemessener
d.h.
einigkeit
erfordern
fu@@
gründen,
juristischen
systematisch
verantwortung.
verringert
vorlegen,
äußern
/2001
angesprochen,
assoziierungsabkommen
bedroh@@
bewertet
eini@@
gesagt:
idee,
können?
moralische
rahmenrichtlinie
voraus@@
ßt
ad@@
alität
anschließen,
datenschutz@@
erreichten
erungen
genehmigt
libyen
see
suchen
12.
asyl
auflagen
f.
fol@@
hafte
halte.
konkreter
räumen
still@@
technologischen
zentren
angenommene
arbeitszeit
beruht
birma
froh
hiermit
innovative
jo@@
lernen,
musste
pakt
tionen.
tät
umzusetzen,
geachtet
getroffen,
güter@@
islamischen
mein@@
mithilfe
schnell@@
situation.
zo@@
1992
allgemein@@
est@@
igen
malta
nordirland
osteuropäischen
russland,
saddam
setzt,
spielraum
streit
stufe
tritt
weitem
zentraler
abstimmen.
beratung
fair
partnerschaften
register
unternommen,
vorgelegte
25.
abgegeben
bisweilen
diplomatischen
erlebt
fe
gab,
geschäftsordnung.
glück@@
kal@@
la
mit,
nachteil
schem
spor@@
termin
un
abgelehnt.
beitreten
bemühungen,
binnenmarkt@@
durchzuführen,
gewinnen.
infrastruktur@@
kommissionsmitglied
ostsee
schen,
schlimmsten
tempo
traditionen
tsch@@
26
ausgewogen
beibehaltung
bri@@
denjenigen,
do
klärung
trä@@
verbrauch@@
weisen.
bietet.
digen
fri@@
gewahrt
heran@@
luft
verwirklicht
zuständige
13.
drittens:
klar.
konzentriert
organ
russlands
sicht@@
sinn@@
südafrika
tigkeit
vereinbarten
voneinander
z.b.
älteren
17.
ablauf
allerdings,
ation
beseitigt
diesmal
druck@@
gelingen
gewalt,
haushalt@@
längst
nah@@
selten
ungsa@@
verteilt
eingebunden
garantieren,
geren
hoffnungen
informations-
informieren.
nachzu@@
reden.
stisch
unions@@
unterschiedlicher
vermittlung
anreiz
delegationen
frauen.
gegenseitig
integrierte
leben@@
menschheit
nichtregierungsorganisationen
not
ober@@
sätze
treten,
at
berichts,
demnächst
einzusetzen,
endgültig
entschlossen,
frieden@@
hingewiesen.
instrumente,
jemals
kredite
offizielle
rechnungs@@
allmählich
aufsicht
bekannt.
bekämpfen,
berücksichtigt,
einzubeziehen.
flexibel
geräte
gesetzes
gesetzgeber
hinweisen.
insel
kommunikations@@
legitimität
markt,
ss
vergessen.
verschmutzung
demokratie@@
erkenntnisse
erklären
forderung,
gesellschaftliche
initiative,
jugoslawien
kamen
sel@@
sen.
zwanzig
bundes@@
bürgerrechte
ft@@
gefasst
london
oberste
al.
appell
dau@@
diesbezügliche
einstimmigkeit
fan@@
glichen
gungen
kü@@
medizinische
positiver
ssen@@
stoff
täglichen
übereinkunft
gesichtspunkt
kette
konvergenz
kten
landwirtschafts@@
listen
mel@@
parlamentarier
schreck@@
strafe
uni@@
31.
ansätze
aufrechterhalten
bestrebungen
dollar
einsatz@@
finanzrahmen
gkeit,
körper@@
natürliche
schwe@@
staat,
verteidigen
0,@@
dor@@
eingreifen
erfolg.
gefragt,
haushaltsausschuss
kyoto
programm,
7,
alt@@
erneuerbarer
illegal
migranten
nachbar@@
of
tik@@
amsterdamer
blu@@
fisch
friedensprozess
für@@
gewählte
schweiz
so.
verhütung
worüber
6,
anerkennen,
budget
drittländer
eib
fassen,
findet.
reagiert
schienen@@
sensiblen
vorsichtig
wälder
zuwanderung
á@@
.-
armut,
einfuhren
festgelegt.
funktionsweise
gefährlicher
gefängnis
gekennzeichnet
händler
informellen
lichen,
qualifizierte
sicherstellung
tief@@
abgeordnete!
angelegenheit,
anstelle
beraten
ds
erfolgen,
gegenüber@@
heim@@
hinaus@@
investoren
irgendeiner
mensch@@
mikro@@
revolution
stischen
stren@@
00@@
alter@@
anlässlich
anschließen
beschäftigungspolitik
bewältigen
erscheinen
erwägungen
freiwillige
gesellschaft.
konstitutionelle
leid,
orientierung
patten
reagieren,
schätzen
sieg
stellungen
technisch
verteidigen.
149
bürgerliche
eu-bürger
frag@@
garantieren.
gas
gebieten,
gene
gste
interesse,
lehnt
meinungsäußerung
spielt.
arbeitsprogramm
bewegen,
co2-@@
is
minderheiten@@
stellenwert
verteidig@@
viertens
wertvolle
ältere
auseinander@@
biologischen
erbe
erhalt
erhält
feld
freiwilligen
griechische
haus@@
innovations@@
stör@@
texte
ungarische
verschlechterung
warten,
zweifelsohne
überwacht
ansehen
anzunehmen,
aufteilung
beitrittskandidaten
durchzusetzen.
ed@@
erenden
freitag
grundsatzes
gung,
interessant
kauf@@
ker
näher@@
schiffs@@
vorzunehmen.
beschränken.
bon@@
entwickelt,
et,
frieden,
gesetzgeb@@
gewähren.
nis
regeln.
sichern
unterbreitet
wahre
dra@@
gem
gestal@@
harte
haushaltskontrolle
kenntnis,
mitgliedsländer
osteuropa
sar@@
schweigen
"die
aussichten
auswärtigen
enz
gesunde
haushaltslinie
ms
prä@@
reduzieren.
richtig.
schlechter
schluss@@
sexuelle
spiegelt
stattfinden,
super@@
vorsieht,
völker@@
werfen
wort,
wären,
zweit@@
201@@
akt
autonomie
bedingung
behauptet,
beruf
gestalten,
kampfes
keit.
nationen,
schwerwiegende
transparenter
ung?
37
anmerken,
anmerkung
balkan@@
erhoben
erwartet,
geltungsbereich
herauszu@@
nahrungsmittel
rechtsvorschrift
reich
strom@@
tampere
territoriale
wenden.
alisier@@
berichterstatters,
bewegungen
bewer@@
getroffen.
laufen,
schwach@@
sein@@
400
dliche
effizient@@
ernsten
finnischen
gemeinden
geschaffen.
hinzuweisen,
irgendwelche
kategorien
reserve
schule
stabilisierung
syrien
tungs@@
wettbewerbsfähig
1993
aktionsplans
allgemeinem
ausüben
beendigung
brin@@
desto
einzelner
ermutigen,
gelangen
geld,
haftung
händen
intensive
registri@@
schnellstmöglich
uner@@
zusammenarbeiten.
beantwortung
e"
einleitung
fördert
gegner
gesamtheit
jahrestag
mehrwertsteuer@@
niederlande
nämlich,
privatsphäre
sie.
sozial
umweltpolitik
ander@@
ben,
bil@@
diskutiert.
erneuerung
geeignet
grundsätzliche
gruppen,
her,
industriepolitik
sehe,
tiver
trennung
ve@@
ör@@
aufmerksamkeit.
beamte
erkläre
externe
generalsekretär
hamas
isch@@
könne
multinationalen
ordnungsgemäße
richtet
schlagen.
schutz,
tere
trau@@
tungen
wür@@
erleichterung
eröffnet
irre@@
kommende
meinungs@@
ren@@
umstellung
ursprungs@@
wirtschaften
antwor@@
bekannten
con@@
eingangs
engen
fertig
festge@@
go
helsinki
mitgliedstaates
offensichtlich,
option
re.
scha@@
sichern,
tige,
tö@@
umwelt-
a4-0@@
and
angeht.
anlage
arbeitskräfte
ausgearbeitet
begrenzten
beschäftigen.
eingeschränkt
ft
geprägt
jährliche
legte
lücken
ment@@
niveaus
pre@@
testen
verbände
warten.
zahlen,
28
annehmen.
ausgaben@@
basiert
erfolgt.
erleben,
erstellt
fischbestände
fordert,
herkunft
königreichs
liberalisier@@
obergrenze
sis
tag,
tung.
verankert
xi@@
ze@@
angebracht
darlehen
dokument@@
fleisch@@
gebeten
kraftstoff@@
küste
lässt,
maastricht
rom
schaft,
to
tten
unterdrück@@
überzeu@@
30@@
bezogene
gebiet,
höchster
messen
nutzer
raum,
richter
straßenverkehr
tigen,
vorsieht.
weisen,
wwu
behandeln,
durchgesetzt
einwohner
erhebung
hunderte
investiert
mona@@
ner,
oni@@
punkt:
schrecklichen
the
themas
änderungsvorschläge
anischen
ausländische
dienstleistungen,
einmischung
ew@@
gend.
gewaltige
organisiert
verstärken
vierte
wenden,
wiederholen.
ze
zwecken
9,
auffassungen
bezahlt
fälle,
lautet,
mittwoch
telefon@@
text,
versorgungs@@
weise.
brauch@@
cht@@
detail
hinaus,
portugiesische
soziales
straftaten
transpor@@
verlagerung
wachstums
ßt,
überprüfen
einfuhr
eingebrachten
eingereicht,
einverstanden.
grundsatz@@
kleineren
legt.
mexiko
schlimm@@
schwerer
teren
umweltschutz@@
verordnung,
vollendung
14.
ce@@
chen.
elektronische
energisch
erwarten.
gestrichen
ihrerseits
klein-
slowenien
spanien,
veränderten
wettbewerbspolitik
zunehmen.
zusammenhalts
16.
abzielen,
angeboten
bekräftigt
benötigen,
co2-emissionen
dringende
eingliederung
ernähr@@
illegaler
missionen
oli@@
unternehmer@@
wachstum,
wald@@
wert,
überwachungs@@
aufwand
bedaure
enden,
ep@@
fußball@@
liber@@
mitzu@@
mögen
nahmen
niedrigen
presse@@
räume
teils
ungsprozesses
us@@
vorliegt,
werden;
üblichen
ani@@
auseinandersetzung
ausgestattet
beschränken,
christen
eingehend
finanzier@@
por@@
produkte,
substanzen
vertiefung
wirkungs@@
überprüfen,
beendet
beschränkung
eig@@
erleichtert
grundlegend
handelspolitik
haushaltsausschusses
industri@@
konkurrenz
lösungs@@
richt@@
schwerpunkte
staatlicher
unternehmens
ßt.
.00
ansprechen,
beschlüssen
ergeben.
gefühl,
genfer
isch,
lag
mini@@
tsa@@
wesentliches
wohlergehen
übermittlung
alters@@
anlaß
ausgeübt
bilden,
debatte.
freier
gedanke
lebensbedingungen
mt
protektionismus
rechenschaft
renten
spitze
sst@@
strukturellen
2007-2013
beschäftig@@
export
fen,
internationales
karte
kommerziellen
nachdenken,
netzen
rechtsetzung
spätestens
tel@@
verheugen
/2000
bewegen.
eigentum
erinnert,
erzeu@@
gerichte
gesichert
hat:
komplizierten
legt,
medizinischen
perspektiven
realen
türen
verwenden,
überwach@@
alde-fraktion.
beendet.
brok
ergänzt
fischereisektor
gehalt
gel
gelingen,
geplant
institutionen.
kongo
krise.
lenken.
modelle
nde
rand@@
rufen
rufen,
s:
stellen:
verbesserte
überprüfen.
“,
30.
angegangen
ausführliche
beweisen,
beziehen,
bisschen
dungen
ef@@
eins
entstehen,
gr@@
indirekt
liberale
maßstab
rechtsprechung
religion
tabak
toleranz
transparente
tru@@
unfall
würdigen
überein@@
8,
abstimmen,
aufsichts@@
außer@@
beglückwünschen
begrenzte
betonen
bezogenen
diskutiert,
einwanderungspolitik
erlassen
gro@@
lands
nötig,
potenziellen
region.
schaff@@
schuld@@
sicherer
verbessert.
verlieren,
verweise
vorliegen.
überlegen,
armuts@@
aufstellung
beseitigen.
governance
kti@@
ma
monopol@@
reale
schmerz@@
schü@@
stadium
vorgehen.
wander@@
weiterbildung
zügig
aufgehoben
beträchtlichen
bla@@
bse
denn,
eingesetzt,
ergeben,
gäbe
hilfreich
lichkeit,
sten.
strikt
tigt
ßen
änder@@
anzeichen
bestraft
biologische
frühjahr
gesetzgebungs@@
nötigen
plötzlich
rednern
verfassungsvertrag
verleihen,
vermittlungsverfahren
wählen
zivilen
auseinander
befugnis
chinas
erzielt,
fil@@
handelsabkommen
haushaltsverfahren
hände
inakzeptabel.
junger
klarstellen,
kompliziert
leiden.
vertrag,
vielfach
zugestimmt
dig
feste
fü@@
industriellen
maßnahme,
meinungsfreiheit
nationales
steigen
vereinbar
vierten
wiederhole
zen@@
örtlichen
angepasst
bananen@@
beach@@
einschlägigen
funktioniert,
hat?
jahr.
keit@@
losigkeit
niederländische
osze
richtlinienvorschlag
strom
test@@
umsetzen.
verantwortlich.
verbindlichen
will@@
überrascht
eingestellt
erleichtern
früh
gendes
hilfe.
star@@
sten@@
stra@@
täts@@
unmittelbaren
vertreterin
verursachten
vorschlägt,
ales
fraktions@@
glückwunsch
investieren.
kontrollieren
ks
leistet
mil@@
nütz@@
rahmen,
sterben
ungen:
verfolgt,
äußer@@
150
akzeptanz
allgemeiner
arme
benötigen.
bestimmungen,
dossier
einbindung
eln,
finanz-
gesetzliche
komplexen
lagen
linken
merkmale
migrations@@
solidarität,
spricht,
thematik
verabschiedeten
zwingen,
18.
anische
arbeitsplatz@@
artikels
aspekte,
fahrzeugen
fest.
finanzmärkte
funktionierenden
fähigkeit,
gering
investitionsbank
irland,
mes@@
mitgliedsländern
nichts,
qualifizierter
rücken
schauen
sse,
tausend
tende
tragischen
unmittelbare
verhandelt
zusage
aufnahme@@
bewohner
dementsprechend
demokrati@@
erlauben,
erteilen.
freiheiten,
gemeinschaftsrechts
israels
kauf
l,
lli@@
lücke
organismen
ratspräsident.
rede@@
schnellen
union@@
verbunden.
vorschlag.
ähn@@
überschwemmungen
48
aspekt,
ausführ@@
beizutragen.
denken.
ersatz@@
erweiterungs@@
erzielte
fel@@
gere
halt@@
konstruktiv
schutzmaßnahmen
sse@@
verdient.
verein@@
wirkt
überwinden.
ablehnen.
befürchtungen
belastungen
besitzt
cht,
din@@
drittens,
erfordernisse
geführten
gestatten,
heimat@@
immer,
rechtlicher
sozial-
transit@@
verzeichnen
vorbild
zieh@@
allen,
aufgebaut
aufklärung
bestimm@@
definitiv
einfuhr@@
freund
gratulieren
gründliche
hauptziel
minder@@
rindfleisch
sitzen
sozialfonds
treib@@
tätigen
verkehr.
versteht
welch
1990
abschnitt
eindeutigen
fortsetzen
fähigen
genug,
gest@@
haus,
i,
laufen.
lä@@
mitarbeitern
vertrete
verwenden
wu@@
wunsch,
zahlung
zölle
-programm
25@@
analysen
are
be.
begleit@@
behinderten
blick@@
bse-@@
erde
europa-@@
föder@@
greifen.
griechenland,
gütern
kämpfen.
stattfindet,
tierte
tierten
unlängst
verfügt,
verstoß
vornehmen
wahlkreis
weltbank
auswirken.
betroffen.
bürgern,
derjenigen,
eln.
ersetzen.
et.
flo@@
gegebenheiten
mehrwertsteuer
plans
religionsfreiheit
schie@@
teilen,
tendenz
24.
besagt,
bess@@
empfehle
entscheidungen,
ete
geldern
generaldirektion
handelsbeziehungen
kriminellen
mitgefühl
tät.
zeu@@
zieht
abfällen
auswirken
beförderung
falsch,
geschenkt
geänderten
kritisiert
kämpfen,
lernen.
lität
sche,
sicherheitsrat
signale
stä@@
tiv@@
ausschuss@@
bewerten
che@@
digitalen
einwander@@
entstehen.
erkennt
gebiete,
geblieben
herausforderung,
terrorismus,
verbindlich
verwaltungen
zuallererst
anpassungen
ausländischen
be,
brief
gegenüber.
geschäfte
geäußerten
hinzu
infolgedessen
inhalte
integration@@
polen,
prei@@
präsidentschaft,
qualifikationen
rent@@
respektieren
strategie@@
tibet
verhandlungen,
warn@@
wirtschaftlichen,
abzulehnen.
angelegenheit.
auswirkung
banken@@
begreifen,
beunruhigt
co2
garantieren
gesetzten
nacht
spe@@
stoffe,
streichung
ungsprogramm
unterstreicht
vorbereit@@
änderungsantrag,
überwinden
anstehenden
bestätigen
bewußt,
el.
engere
ersuchen,
folgenabschätzung
gehende
integriert
niedri@@
rechnungshofs
schwer,
umfassender
versuch@@
vieh@@
vizepräsidentin
wirklich,
achten.
algerien
dig@@
dlichen
erklärte
gefallen
gesundheitsversorgung
gkeit.
impulse
informationsaustausch
italien,
lage.
lissabon-@@
morgigen
nächstes
offenkundig
präsidenten,
rechnen
sub@@
tag@@
vertrau@@
worin
zerstört
ad
beitrittsländer
eigener
eintreten
erlebt,
ernährung
folter
investieren,
israelische
nation
pflanzen
projekt@@
schottland
standpunkt,
strategischer
wirtschaftspolitischen
zeitraums
zeugen
erende
fass@@
freihandelsabkommen
ieren
klu@@
montenegro
nachteile
raten
ressourcen,
wien
zahlreicher
angehörigen
automobilindustrie
bedanke
beitritts
beschlusses
betra@@
durchsetzen
erwiesen
etikettierung
grenzen,
gruppe,
haben:
ierung
mes
möge
prozesse
präzi@@
ra
rauch@@
bedürf@@
beschließen,
bezahlen
denden
entgegen
ethischen
facto
fällt,
getrennt
global
jährigen
konzerne
läuft.
m-@@
mittelmeer
nützliche
stabile
teilnehmer
wir@@
wirken.
29
ausdruck,
behandelt,
ber,
betreiben
che,
dr@@
eli@@
gend,
gens
gewaltigen
größeres
haft@@
investieren
nung
plenarsaal
politikbereiche
schaften
sektor@@
ungssysteme
verhandlung
verstärken,
beobachtungsstelle
beschlossenen
bewe@@
donnerstag,
erung,
fürchte,
gewidmet
greif@@
inhaltlich
koordiniert
lesen,
n:
ppe-de-fraktion
stadt@@
ste,
terroristischen
urteile
zugeben,
aufgegriffen
autos
besonderheiten
frontex
gehör
geschäf@@
gesetzen
interessanten
kranken@@
nördlichen
positiv,
regierung@@
territorium
ve
verabschieden,
wen@@
'.
anbieter
anstrengungen,
anzuwenden.
beginnt
bezogen
erfol@@
geografischen
gestattet
grau@@
herkunfts@@
hervorheben
häufiger
nachhal@@
nato-@@
nei@@
ph@@
rechtsvorschriften,
spiele
ssektor
sudan
universitäten
verbraucherpolitik
22.
amts@@
aufgestellt
behalten
bevölkerungsgruppen
dublin
effekt
einsetzung
erer
finanzieren.
freund@@
galileo
gast@@
gespielt
ging,
hü@@
iert,
insel@@
kofinanzierung
lager@@
luftverkehr
milliarde
mäßig
projekte,
ration@@
redebeitrag
reformen,
schritten
schulz
statuts
uns@@
vertraut
werbe@@
äu@@
österreichische
anschau@@
berichterstattung
details
eingebracht,
flotte
genau,
irr@@
kürz@@
lern@@
leute,
linien
lissabonner
mutter@@
obliegt
privatisierung
re
senken.
spitzen@@
untersuchungs@@
verlangt,
vorliegen,
0,
alisierung
arbeitslosen
arzneimitteln
behinderte
beträgt
christ@@
diversifizierung
enttäuschung
erdöl@@
fundament
haf@@
impor@@
le.
reichtum
santer
verringern
vorrangige
abgeordneten!
dies@@
entscheidungsfindung
flü@@
gener@@
größtenteils
holz@@
institution@@
irgendeine
ktionen
ministern
mädchen
nachdenken
parteien,
sri
stamm@@
tischer
wollte,
-abkommen
/200@@
aren
ausnahmeregelung
berg@@
beruht.
errungenschaften
ersuche
finanzminister
fischler
freiheit.
gegebenen
gremium
hundert
leich@@
nach,
nor@@
ppe-de-fraktion.
regier@@
reine
setzung
tiefe
täten
vereinbarkeit
verurteilen.
verwiesen
akzeptabel
alkohol
ausreichenden
beschäftigen,
besitzstand
computer@@
direkt@@
echo
geleitet
ihnen.
informieren
konsum
maßnahmen@@
müsse
religiöse
schaf@@
sst,
stabilität,
standen
sämtlicher
verringern,
anbau
berichterstatterin.
bewältigen.
demokratien
entschließungs@@
fortschritten
ges,
gleichberechtigung
initiativ@@
initiativbericht
leiden,
mitteln,
optimi@@
tut,
willens
ür@@
2,@@
ausbildungs@@
ausschuss,
bedeuten.
berichte,
europäern
fer
fran@@
funktion@@
gewinn
iert.
ignoriert
jahre,
mitgliedstaats
mühe
späteren
tin
tte
vermarktung
verts/ale-fraktion.
wand@@
abzielt,
angekündigt
bereiten
erre@@
gab.
jetzige
mehrmals
nachhaltiges
riesige
schlag@@
sinnvolle
sprachen@@
system@@
viertel
vorherigen
zukunft,
ökonomischen
anwesenden
aussehen
baltischen
dringlich@@
durchführ@@
einheit@@
einzugehen.
ernsthaften
ethnische
investition
keit
kommissar@@
kompromiß@@
kosten.
kun@@
mitunter
regionen.
relevanten
sage,
schattenberichterstattern
streitigkeiten
untersuchen,
verschiebung
vertrauens
wal@@
würdig
zug
analy@@
deutlichen
ec@@
ener
erziehung
fehler,
gefährden.
geltende
halte,
klauseln
mandats
mess@@
pressefreiheit
schöpf@@
sein?
selben
unterbreiten.
11.00
administrativen
anti-@@
anwenden
begriffe
besitz@@
bir@@
dazu.
eingegangenen
ele@@
entspricht,
erweiter@@
fein@@
fragen:
friedensprozeß
geleistet,
geltend
gründen.
heraus
hilfe@@
hoheitsgebiet
ischem
kopenhagener
lieb@@
mache
namentlich
respektieren.
schafft,
sieren.
vielerlei
afrikanische
betreffende
detaillierte
dritter
erholung
existiert
fle@@
hochschul@@
ierten
kodex
kohäsions@@
konsequenz
liche,
mangel@@
müßten
regulierungs@@
schwächsten
stehe
verhandl@@
verteidigen,
wirkungen
zuweilen
aussetzung
außenpolitischen
bedauere,
benachteili@@
buch
fordert.
gewonnen
gewährleistet.
humanitärer
hän@@
konzepte
luftverkehrs@@
mißbrauch
ordnung,
plenarsitzung
prozess,
sind:
tten,
unerlässlich,
verändert.
volumen
wachstumspakt
142
32
55
anhebung
erklären.
erweiterung,
fehlenden
geholfen
heimat
hin.
inflation
kompromiss,
konferenzen
kämpf@@
lebt
nummer
p,
schreiben.
veranstal@@
wel@@
beachtet
ca
ckt
derartiger
einseitige
flächen
hab@@
kohle
legalen
lieferungen
mäch@@
schiff
tierung
beizu@@
erfordert.
geschlechter@@
griechenlands
großartige
gung.
kandidatenländer
lichem
olympischen
rechts,
reiche
schreiben,
stischer
trägt.
zusammenzuarbeiten.
2015
bürokratischen
einheitliches
expor@@
fremdenfeindlichkeit
funktionen
föderation
gegenteil.
ges@@
gesam@@
gter
kenne
nahrungsmitteln
rindfleisch@@
sicherheitsstandards
teilgenommen
umfassendes
verwenden.
widmen.
wissens
zielvorgaben
zonen
zufriedenheit
überdies
198@@
befreiung
begünsti@@
einhalt
einseitig
folge@@
genugtuung
geplante
haushaltsbehörde
laeken
nachhaltiger
umfangreichen
verkehrspolitik
verurteilt.
werfen,
23.
arbeitslosigkeit,
audiovisuellen
aufbauen
ausnahme@@
betrieb@@
chinesische
durchschnitt
fühlen
gekürzt
haushaltsausschuß
isch
ke
koloni@@
modalitäten
objektiv
on,
praktizi@@
rahmenprogramms
schw@@
stabilen
statt@@
studi@@
stätigkeit
unrecht
vorgestellt
völkerrecht
wissen.
zunehmen,
197@@
akteuren
beeinträchtigt
besteh@@
betreuung
bürgerbeauftragte
dar
defini@@
ei
getreten
irakischen
koordinierte
meinungsverschiedenheiten
mobilisierung
partnerschaf@@
regelmäßigen
schengen
tsp@@
ungss@@
vermu@@
veränderte
überblick
beobachten
berichten,
den:
erfordernissen
europarat
gewähren,
hongkong
individuellen
jähr@@
kampagnen
lobby@@
mpf@@
stärkt
tausenden
ver
verwand@@
zahlen.
arbeitsplätze,
aufeinander
bedarf.
begonnen,
besetzung
betrachtet,
breiter
datenschutz
demokratisches
einführen
einhalten
gasp
gebieten.
geo@@
gewinnen,
hy@@
kindes
kom@@
kriminelle
medikamente
pse-fraktion
pse-fraktion.
umsetz@@
ungsprozeß
verfügbar
verloren.
vermögen
verschärfung
vorliegt.
vorsicht
wettbewerbsfähi@@
ß,
ausdehnung
eigenschaft
erkannt
ernst@@
eu-haushalt
fei@@
fung
ie@@
iranischen
klagen
management@@
mitentscheidungsverfahren
rednerin
schließlich,
sofortige
themen@@
zwischenzeit
­
abfall
ablehnen,
abstimm@@
aufgaben,
bedauern,
bel
einsatzes
em,
florenz
hilft
kandidaten@@
kennen.
löhne
menschenleben
posten
raum.
rich@@
schwachen
standard
statu@@
strategie.
unge@@
vereini@@
verwal@@
vorrangigen
wollte.
zweierlei
aufenthalts@@
beispiel,
beispiel@@
bruch
dern,
drängen,
eingesetzt.
einvernehmen
ereignis
erweisen
erörtern.
ev@@
instabilität
nicht?
rechtsakte
sache.
spann@@
tete,
unterstrichen
vorkehrungen
weltmarkt
wählern
angleichung
ansatzes
arbeitet,
bauen
demselben
elf
gebraucht
gedenkt
heit@@
irgendwann
istischen
lock@@
mag,
mord
parlament@@
res@@
schwerwiegenden
teil.
terrorismusbekämpfung
tter@@
umwelt.
unmöglich,
unterlagen
verfügung.
vorliegen
werke
überwachen.
befürworter
bie@@
eingeführt,
enorm
faktisch
festlegen
genau@@
gerü@@
haiti
halben
interventionen
lettland
llen
milch
prinzipiell
tten.
vorsitzes
wochenende
/2002
95
anerkannt,
anzupassen.
aussprache,
erfolg,
erheb@@
erteilung
eurostat
fahrzeug@@
flüge
fortsetzen.
gespräch
hen
kollege,
korrekte
legale
läuft,
mei@@
ministerpräsidenten
misch@@
produktivität
regierung.
sieren
untereinander
weis@@
alleine
dient.
erklärung,
fortzusetzen.
gesellschafts@@
gleich,
gott
greift
inakzeptabel,
interpre@@
markt.
mehrjährigen
naher
programme,
solana
soll@@
symbol
traditionelle
unten
verabschiedet.
vereinfach@@
verpflichtungen,
wagen
/eg
aufzubauen.
begründet
beiträgt,
beiträgt.
daten,
drängen
ell,
erinner@@
erwähn@@
europaweit
ften
jahrelang
konzepts
moratorium
orten
sam@@
stes
stie@@
stiftung
termin@@
verabschieden
verbreitet
voraus,
wohl,
aufbau@@
aufgabe.
augen@@
ausfuhr@@
automobil@@
autorität
bemerken,
best@@
birgt
engagiert
erhält.
freude,
gesundheitsschutz
lauf@@
neuesten
o.
oper@@
schädlichen
solidaritätsfonds
soviel
zeichnet
ziel.
aufru@@
außenbeziehungen
belgische
bestätigt.
bewaffneten
di
dient,
festlegen,
finanzieren
herangehensweise
hinweg@@
irak@@
los@@
müll@@
nachzudenken,
regelung,
schön@@
tlich@@
unnötige
verbots
verwirrung
zuversichtlich,
ablehn@@
ansehen,
befindet.
beinahe
beu@@
bezieht,
daß,
durchzu@@
fläche
frühere
fähr@@
gerech@@
geäußert.
herr@@
insbesondere,
kriterien,
mau@@
nichtsdestotrotz
rahmenbeschluss
reserven
sichtbar
strafgerichtshof
unterbricht
vari@@
vertretenen
wertvollen
willen,
wirken,
änderungen,
überein.
übermittelt
,5
ambitionen
aufgenommen,
bedrohungen
bewiesen
dramatischen
ehre,
empfin@@
gesundheitlichen
gesundheitswesen
internet@@
ischen,
katastrophen@@
ktive
linke
me,
rede,
ströme
vorbeugung
ó@@
aufrichtig
behindert
bekräftigen,
fanden
geber@@
geeinigt
genauen
gesehen.
glicher
hau@@
hr@@
lissabon,
neue,
obligatorischen
rau@@
schwung
slo@@
sä@@
textil@@
treibhausgasemissionen
verständlich
wahlperiode
überwachen
ar
atmosphäre
beunruhi@@
derjenigen
entsorgung
fassen
grenzen.
hunger
innen@@
instruments
kombination
mischen
richtungen
schätze
spüren
ters
voranzubringen.
ausnahmeregelungen
chemikalien
energieträger
euroraum
existenz@@
geäußert,
juristische
klaren,
kommen@@
mann,
multilaterale
neben@@
nigeria
polnische
schlicht
sieht,
unterbrechung
vernachlässi@@
verschwinden
verwendeten
wachsen
abstimmung:
ben.
bewerten.
echter
genug.
geraten.
gesenkt
glückwünsche
interoperabilität
leuten
mehrzahl
nissen
qualität,
rauchen
repräsen@@
teuer
ungsin@@
verbraucherschutz@@
verweis
weltwirtschaft
zieht.
überwunden
abgelehnt,
aktuell
andere.
ansprechen
bemühen.
berechtigt
erweise
exporte
gemeinschaft@@
geradezu
glaub@@
hinreichend
konsul@@
liefern
registrierung
rit@@
sche@@
stri@@
verhandeln
verpflich@@
verwaltung@@
zulassen.
26.
auch.
betreiben.
beurteilt
hinaus.
komplizierte
ktes
mitgliedstaat,
müh@@
produktion@@
ratsvorsitz@@
schwei@@
tarif@@
telekommunikations@@
the@@
ven
verabschiedet,
verfassung,
28.
abstimmungs@@
angabe
berechtigten
deutliches
einziger
finanzdienstleistungen
gehör@@
gent@@
hussein
initiativen,
ken.
kommissionspräsidenten
lang@@
lob
mitglieder,
prozent@@
rezession
rischen
schafft.
schuldig
staaten@@
stellung,
tab@@
taiwan
te?
teilung
unterscheidung
verstanden,
wahrnehmung
wissenschaftlicher
zwingend
ausgesprochen.
befindet,
belange
dende
dungs@@
entsprechender
erin
erzeugt
gesetzlich
glich@@
hervorgehoben,
klären,
pass@@
passi@@
prodi,
realistische
sports
stimmabgabe
tor
untersuchen
verantwortlichkeiten
verantwortungsvolle
verlangen.
zivile
zuständigkeitsbereich
29.
65
beides
bereichs
bt
entschließungsantrags
festgehalten
freiwillig
grundprinzipien
gänzlich
klären.
luftfahrt@@
massiven
referenden
schlagen,
seeverkehr
treff@@
umgehen
unionsbürger
unterscheiden
anderswo
ann@@
bestätigung
bevölkerung.
boo@@
brand@@
eingegangen.
erfüllt,
fehler@@
flugzeuge
gebiets
gravierende
haltung,
haushaltsordnung
kleinere
komm@@
nuklearen
online-@@
pen@@
potential
ruhe
steigenden
stelle,
tenden
weiter,
34
aufschwung
auss@@
befürworten.
biotechnologie
das.
dauerhaft
eingereicht.
einrichtungen,
erläutern,
gebunden
krebs
motor
o-@@
schauen,
version
wähl@@
zweites
übereinstimm@@
2-@@
abkommen.
aktiv@@
behinder@@
bewiesen,
block@@
braucht.
entsprechen,
est
fertig@@
gesellschaf@@
gestellte
heißen
kontinents
kontinuität
machte
motor@@
nukleare
partner@@
rop@@
schwerpunkt@@
stei@@
streitkräfte
stütz@@
tagungen
verstehe,
vorgehen,
wiederauf@@
zunehmen
beschrieben
betrugs@@
breit@@
brü@@
budget@@
decken.
entsteht
front
gelesen
gemachten
glich.
göteborg
impuls
inakzeptabel
konzep@@
leist@@
län@@
mme
münzen
normale
obligatorische
portugal,
schönen
strei@@
ungsprogramme
verabschieden.
verantwortlich@@
verkauft
verla@@
volles
600
anträgen
ausbildung,
ausgelöst
beantwortet.
besitz
bezeichnen
big
chemischen
entgegen.
gaza
gewinn@@
glaubwürdig
kohlenstoff@@
legitimen
oh@@
regi@@
rohstoff@@
schätzen,
strukturelle
ständi@@
substanz
unfällen
untergraben
vertraue
wiederaufbau@@
zählen.
36
as@@
auseinandersetzungen
befasst.
besitzen
betrachte
bewirken
bürokratische
ch,
europäischem
fair@@
fraktionen,
fähige
führungsrolle
intelligente
iwf
kam,
kritik@@
passagiere
rumäniens
sensible
sozialmodell
spezi@@
türkei.
ul@@
vel@@
verantwortlichkeit
verschmutz@@
wirtschaftliches
wissens@@
wollten.
zyperns
übertrag@@
bedeutender
bedingungen.
beschleunigung
beteiligen,
breit
christlichen
dreh@@
durchführungs@@
einführen,
einheitlich
elektro@@
erfahren.
flexibler
gen!
gestalt
grundlegendes
hai@@
kontrolle.
raschen
referenz@@
sitzung:
sst.
tel
verletz@@
vonseiten
wählen,
wü@@
zivilbevölkerung
ökonomische
1991
aktiver
aktivi@@
arbeitet.
betrugsbekämpfung
bord
dialog,
erinnern.
estland
hl@@
industrien
konsumenten
kul@@
materialien
operation
pak@@
resul@@
schwelle
schöne
sozialdemokratische
stisch@@
ungleichheit
vorne
wirksames
zunichte
ändert
31
angehen
ausgenommen
austausch@@
beschäftigt,
dul@@
erarbeiten.
erreichte
fünften
generelle
kurzer
mitglieds@@
prüfungen
regelmäßige
schluss,
verbraucher.
vereinfacht
verweist
visa
zü@@
üblich
33
bedarf,
beenden.
begleitet
besserer
beteiligt.
betrach@@
bewerber@@
differenzen
doha
du
e?
einzurichten,
entschließungsentwurf
ergebnis,
ermittlungen
ernstes
kennt
liefert
nu@@
prinzips
sorge,
unterschieden
verschärft
vorausgesetzt,
widerspricht
wünschenswert
zeugt
29@@
42
aktionspläne
botschaften
dargestellt
dürf@@
erd@@
erkennen.
erteilen,
festzu@@
gelegt.
gue/ngl-fraktion.
kel@@
lagerung
maßgeblich
milosevic
mmen
nachrichten
unabhängiger
verbrech@@
wiederbelebung
york
beeindruck@@
bekann@@
berechnung
bereitgestellten
bereitzustellen.
beschleunigen.
betrügereien
darstellung
droht
essen
frattini
gehenden
harten
monats
niedrige
präzedenzfall
sc@@
sitzungs@@
vereinbar@@
vorgebracht
vorsitz@@
arzneimittel@@
ausbruch
beilegung
bisherige
braucht,
da.
dur@@
eich@@
erdbeben
ere,
erfolg@@
fremden@@
gefunden.
genf
gezahlt
gleiches
ker@@
konzentri@@
kräfte,
kultureller
königreich,
nichts.
on.
passiert,
raum@@
schwarzen
verarbeitung
verpflichten,
verteidigt
abgeschlossen.
beitrittsländern
benachteiligt
beschränken
char@@
einfluss@@
elle,
enttäusch@@
erfolgt,
erwä@@
erwähnen.
fehlt,
genießen
geschrieben
import@@
jeder,
l.
n!
produziert
profitieren,
rechte.
schlussfolgerung
sowjetunion
steigende
umfassen
verschaffen.
verwiesen,
wahlen,
wettbewerb,
zusätzlicher
23@@
angewiesen
außerdem,
bananen
befürworten,
bevorstehende
darfur
doppelte
empfehlen,
erleichtern,
erweiterung.
gelegentlich
gemessen
gesundheits-
individuelle
klonen
kontinent@@
nachricht
organisation,
schwäch@@
steigt
städtischen
umweltschutzes
verhaltens@@
wettbewerbsfähigkeit,
zusammenbruch
ßen,
é
übermitteln.
ausgeweitet
beinhalten
berich@@
berliner
brenn@@
debat@@
dreißig
durchgeführt.
eu-politik
geboten,
gefällt
geschäft
getrennte
gän@@
hn@@
mitberatenden
nicht!
partei,
peking
rechtsetz@@
sah
sein:
sektor.
sozialistische
tex@@
voraus
weiten
wollten,
ßen.
bedingten
beigetragen,
berg
cancún
deck@@
egf
eren?
erfassung
erläutern.
eu-institutionen
folge,
ganzem
genannt,
herrscht,
jederzeit
lation
mauer
menschenrechtslage
rande
te-@@
verwen@@
vorange@@
voranzutreiben.
übersetzung
abgeben.
abstand
beige@@
billigen
co
decken
diskriminierungen
dringlichkeits@@
dürften
einzuhalten.
gangen.
genannt.
heits@@
herstell@@
industrielle
kontinuierlich
kontrollieren.
liegende
los.
massive
projekt,
qualifizierten
schritt.
ser
spielt,
steigen.
ständiger
stützen
tens
tierschutz
verliehen
verteil@@
wan@@
zuteil
üb@@
anzugehen.
aussprechen
beziehungen,
einwanderungs@@
empfehl@@
festhalten,
finanzieren,
gegenüber,
gerichtete
ic@@
kommission@@
kostet
krie@@
letztere
ordnung.
plänen
politikern
potenzielle
reduzieren
sal@@
statistischen
subvention@@
transparent@@
verfügt.
verkehrssektor
vol@@
vorgänge
wach@@
zugestimmt.
zuwider@@
85
aus?
beschlussfassung
blair
durchgeführt,
eis@@
entstehung
erweiterte
fehlt.
gerufen
haftbefehl
kennen,
kooperationsabkommen
kreis
laufende
leichte
lü@@
madrid
nis,
nordkorea
problematisch
punkte.
qui@@
schließ@@
schweden,
schädlich
schütz@@
sorgt
stecken
terroristische
vermittlungs@@
verzerr@@
washington
werfen.
wesens
wort@@
zivilisten
abgeben
aufruf
beiträgen
bloße
ernährungssicherheit
fonds.
ft,
ga
geforderten
genügt
gerichteten
gewissermaßen
heiklen
kinnock
klimawandel,
kommissarin.
kompetenz@@
landes.
makroökonomischen
massiv
mehrerer
operationen
religions@@
spi@@
spitz@@
teile,
transparenten
unnötig
verleihen
wahrnehmen
abgebaut
akzeptiert,
alternativ@@
ausüben,
beantworten
beschäftigung.
brechen
bürgerlichen
durchführen,
durchführen.
eigentums@@
flotten
funktionieren.
gemeinschaftshaushalt
ging.
hemm@@
herrscht.
individu@@
investitionen,
kann@@
klasse
komplexe
objektive
rückverfolgbarkeit
sau@@
senken
sion
summen
teilt.
ty
verbesserten
verkün@@
vermittelt
zuweisung
überzeugen
anzuwenden,
ausgewogenes
ausstattung
baroness
beschäftigt.
bezahl@@
bre@@
bühne
chten,
diplomatische
englischen
erlaubt,
ersatz
geiste
gesp@@
gewünscht
häufi@@
j
kali@@
klären
kontrolle,
lichsten
martin
roten
sicht,
solidari@@
spolitik,
sätzen
tagesordnungspunkt
toren
tätigkeits@@
verlassen.
vorstellen
wachsam
wett@@
absoluten
anschläge
ansprüche
arbeitsmarkt@@
beitrags
demonstrationen
dro@@
eldr-fraktion
erfahr@@
erfreulicherweise
erhält,
es:
eu-staaten
fahrplan
fluggäste
gesundheit.
k-@@
kaufen
ke@@
kollegin,
krebs@@
net.
sse.
stre@@
ungen@@
vereinbarung,
versicherung
veränder@@
werden@@
wortmeldung
zeitungen
zweimal
ärzte
/2@@
43
abweich@@
beeinflussen
begünstigten
bit@@
cke
erspar@@
festlegen.
gewähren
geändert.
heu@@
klin@@
langzeit@@
nahrungs@@
neuen,
piraterie
positiv.
rücksicht
verabschiedete
vermittl@@
voranzu@@
zeitlich
betone
bewusst.
chen@@
ehrgeizi@@
erhöht.
erörtern,
eventuelle
ft.
getötet
gfp
handel.
herstellern
här@@
innovation,
innovativen
kunst@@
moralischen
nen?
pflanzen@@
pflich@@
planeten
riesigen
sichtweise
sy@@
teilzunehmen.
tzen
unterbreiten,
untersuchen.
verantwortlich,
verfügbarkeit
verlängert
ziffern
zulässig
ausgewogen@@
bezieh@@
botschaf@@
c,
del
drastisch
eigentums
energiesicherheit
erach@@
ergriffenen
fre@@
gefährden
gen;
gol@@
gungs@@
haushaltslinien
imstande
kurzfristige
lös@@
normal@@
oder,
rie@@
spolitik.
sprogramme
starker
stockholm
strecke
theit
traum
trenn@@
zen,
24@@
27.
38
aktivität
anre@@
ausfuhren
behinderung
betonung
dokuments
einhalten.
einreise
ermutigt
erwerbs@@
existieren
fahren,
freuen,
gebrauch@@
haushalt,
ich@@
jacques
kommissionsmitglieder
ministerin
niedriger
radikalen
sch-@@
schar@@
schei@@
schwin@@
stellung@@
unternehmen@@
vorzunehmen,
würdige
y-@@
zentrales
zivilisation
zweifel@@
/9@@
akteur
aufzufordern,
ausschusses.
befugnissen
beinhaltet,
beschließen
beträchtlich
bindung
binnenmarkt,
bus@@
bush
dorthin
einheiten
eit@@
eur@@
europäer,
frage@@
gezielte
gh@@
herzustellen.
importe
intensiven
verantwortliche
verbrechen,
verhängt
vernunft
vorfälle
zucker
zukunft@@
angefangen
anhän@@
ausgebaut
beobach@@
deu@@
druck,
drän@@
erzeugern
früchte
gedacht
gegenseitigkeit
gerer
hochwertige
irgendwo
morgen,
plattform
schlüsselrolle
spricht.
verfasser.
vorgegangen
vorgetragen
vorhandene
vorzuschlagen,
wiederholen
wol@@
zufrieden@@
250
44
anerkannt.
anwenden.
betreiben,
beweisen
erfüll@@
erneu@@
erschütter@@
fahrt
faktoren,
freunden
gewich@@
hervorgeht,
holen.
hö@@
indonesien
konsultiert
lärm@@
läßt.
medizin@@
name
regelungs@@
schenken.
sech@@
solidaritäts@@
systematische
tat@@
terror
unerlässlich
visumpflicht
wen
wieso
wovon
zugeständnisse
administrative
ashton
beantragt
digt
direkter
eg@@
ehren@@
erwiesen.
fairer
for
gefährdung
general
gewöhnlich
glie@@
hierher
klarstellung
militärischer
netzwerk
p.
rechtfertigung
reform,
rumänischen
rückführung
schaft.
schrei@@
schrit@@
stoßen
transaktionen
verglichen
waren@@
1989
aufhören,
aufnehmen.
ausgesprochen,
befaßt
belie@@
dige
flexible
gebaut
gefragt
gefunden,
geschlossenen
gipfel@@
historischer
irgendwie
mai@@
nationali@@
rede.
san
satelliten@@
stellen@@
unglück
ungsprozes@@
verbundene
verpa@@
veterinär@@
vorbehaltlos
vorzugehen.
völlige
zerstör@@
-richtlinie
/2003
afrikas
alle.
angekündigt,
aufenthalt
ausgedehnt
begrüßt,
beobachtung
beraten,
bor@@
deutlich@@
egal
einreichung
erarbeiten,
flucht
formulierungen
führung,
gebäuden
grundzüge
kleines
kollegium
komplexität
könn@@
legislaturperiode
medi@@
möglicher
nationalstaaten
passieren
protest
sh@@
spektrum
sprin@@
ssysteme
tagesordnung.
tes,
teu@@
tliches
umzusetzen
verlassen,
voraus.
werden!
wächst
ähnliches
5-@@
abschluss@@
ashton,
bahn
beigetreten
beschwerde
besuch@@
dene
eigenmittel
erheben
erneute
far@@
fortschritte,
gelangt
gerichten
gerät
kampf@@
kohärente
koordinierungs@@
kte,
landes@@
mäßigen
ose
sl
steuerliche
strukturpolitik
transparenz.
verbleibenden
verfol@@
verursachen
verzeichnen.
vorschläge.
wahr,
wohin
/98
anhörungen
anliegen,
bestimmen,
botschaft,
digen,
durchbruch
dänische
echtes
erwärmung
erzeuger@@
fähi@@
genen
geschäftsordnung,
geöffnet
gingen
hinder@@
jüngster
komplex
kraft,
lande
monti
nachkommen
periode
sexueller
standards,
stellten
tages@@
ums,
unionsbürgerschaft
unterstreichen.
vorschrift
wasser,
wettbewerbsbedingungen
zins@@
abgedeckt
absatz@@
abzustimmen.
agrarsektor
bedauerlich
behaupten
beigetragen.
beitrittswilligen
beschaffung
betrachtet.
blockiert
brachte
einzugehen,
energie.
ethische
freihandelszone
gangen,
jährige
konvergenz@@
les
maul-
problemen,
prozentsatz
sehr.
sozialpartnern
stahl@@
stattfindenden
umgehen.
umweltverschmutzung
unterbreitet,
unterliegen
unterstreichen
vereinbart,
versuche,
zugestimmt,
zukommt.
angel@@
asiatischen
aufzubauen,
bewegt
deregulierung
digitale
einigen.
erlassen,
fl@@
genuss
gesetzgeber@@
grenzkontrollen
kernkraftwerke
kommunikation@@
leu@@
lisier@@
märkte,
pack@@
papier@@
sagten
sammel@@
schiene
steuern,
unmissverständlich
unzureichende
welle
zeitung
zusammenzuarbeiten,
öffnen.
abgaben
afghanischen
anerkennen
arbeitszeit@@
ausbild@@
baus
berichts.
beseitigen
bestehender
demografischen
einladung
element@@
ent
entsendung
entwicklungsfonds
errichtet
fahrzeu@@
gefaßt
gelegt,
globalisierten
größtmögliche
haushaltsdisziplin
heiten
hängen
intensiver
isoli@@
kara@@
klär@@
korea
modells
reali@@
rückzug
strecken
strenger
störungen
stück@@
sü@@
tern,
tigkeit,
transporte
täter
umsetzen,
verurteilen,
weit,
wesentlich,
x-@@
ziele.
aktions@@
auftreten.
barrieren
benötigt.
beschlossen.
bü@@
dramatische
flughafen
gs,
hoffnungs@@
israelis
karten
kommentare
kommerzielle
lichte
ll
null@@
realisierung
seite,
sorge.
sses
strikte
teilt,
verfüg@@
vertrag@@
vertrauen,
verändern.
wachstumsp@@
',
0.
afrika,
anwenden,
ass@@
asylpolitik
aussprache.
begrüßt.
besitzen,
einzuleiten.
erfolgte
erheblicher
eurojust
forscher
gehabt
gereich@@
gewor@@
ma,
menschenhandels
rechtmäßig
rüst@@
tzi@@
unterscheiden.
verfügung,
verschwendung
voraussichtlich
überlassen.
41
aids
angehen,
angemessen,
aufgerufen,
behauptet
beseitigen,
dent@@
diplomatie
dire@@
drück@@
empör@@
ep
er-@@
ermöglich@@
etappe
finanzhilfe
findet,
frucht@@
gebrachten
gehalten,
geschickt
interessant,
ka,
kraft.
kurzfristigen
landwirte,
niemanden
nisch
personenverkehr
rechtsa@@
ruft
s"
sam
schwach
sprech@@
sprobleme
steuerlichen
urlaub
verstoßen
vietnam
vorschlagen
wichtiger,
zollunion
zurückzuführen,
í@@
übertragen.
abschließen
angehörige
ansatz.
asi@@
aufgeworfen
begriffs
begrüße,
darstellt
deutlich.
diskussion,
festhalten
gebührt
geteilt
gezeigt.
grundsätzlichen
herrschaft
kolle@@
korrigiert
l-@@
motivi@@
oll@@
passiert.
prakti@@
scheint.
sicherheitsmaßnahmen
stands
steuerpolitik
systeme,
usa.
zurückhaltung
zuzustimmen.
aufgaben@@
auszuüben.
bekräftigt,
beobachten,
bewahrung
blo@@
dadurch,
eg-@@
eigent@@
elementen
form,
gestattet,
gewisses
hinweisen
konsequente
korrektur
lebensstandard
legal
letz@@
längere
mangelt
mäßige
niedrig
rechenschaftspflicht
reformiert
schreckliche
schwarz@@
sprogramm
stif@@
tragweite
transatlantische
verteilt.
vorgebrachten
wild@@
worte,
wunsch@@
zustimm@@
zähl@@
49
asylbewerber
auszuüben,
bedenkt,
behörden.
beizutragen,
bitten.
defizi@@
effizientere
einig.
entlast@@
erdgas@@
erörtern
europawahlen
exekutiv@@
gebrochen
gewünschten
heben
hebt
innova@@
ins@@
interessiert,
jahrhunder@@
kriti@@
kün@@
leiten,
mitgeteilt,
position,
rassi@@
rechtfer@@
rechts.
reisen,
sa
sprozess
standpunkts
trend
unterrichtung
var@@
vermitteln,
vorhaben,
wertes
zeigte
anhaltende
anschlag
appellieren,
ationen
begriff@@
bereitschaft,
ch.
che.
doppelt
eintreten,
erwartet.
evp-fraktion
fern
freu@@
gefährdet.
gewährleistet,
gn@@
kinder.
kmu,
komme,
kosovo-@@
mehrheitlich
menschenrech@@
methode,
missachtung
petitionen
regelungen,
sonstige
teilnehmen.
tives
ungleich@@
versöhnung
verweisen.
vornherein
wissenschaftlich
woher
zuschüsse
übernommen.
46
abzugeben.
aktion@@
aufkommen
aufnehmen,
behalten.
berechtigte
blockade
bünd@@
cha@@
chemische
dargelegt,
darstell@@
eck@@
eindringlich
erteilen
ertes
finanzierten
füßen
gedenken
gefü@@
gentechnisch
gesetzgebung,
gültigkeit
herbei@@
kolumbien
ktor@@
mehrheits@@
möglichkeiten.
publi@@
rechtfertigen.
schön
sozioökonomischen
spekula@@
sperr@@
sste
start
tut.
ungsphase
volk,
wünschenswert,
zahlungsermächtigungen
zugangs@@
züge
15.00
besitzt,
bevor@@
cher@@
digen.
dlich
eindämmung
einsch@@
fen@@
gang@@
gd
gebiet.
geltung
gewiß
günsti@@
güterverkehr
heraus,
hor@@
häuser
hört
ierte
institution,
intensivierung
ist;
kontrollieren,
palacio
paris
patente
petitionsausschuss
präsidentschaftswahlen
stabilisierungs-
team
abi@@
alt
ausreichend.
bauen,
beruht,
berührt
bilder
dik@@
einstimmi@@
ersetzen
feuer@@
kel
komponente
lagern
mente
minimum
moskau
national
natura
niemandem
ratspräsident!
solidarität.
spaltung
sprecher
stärk@@
swoboda
tode
verdienen.
verknüpft
vertra@@
vorhergehenden
vorsorge
aktu@@
bef@@
beharr@@
belast@@
betriebe,
bewahren
bewahren.
billigung
blickwinkel
dienste,
dokument,
entwickel@@
erläutert
glo@@
glücklich
handelns
ii@@
illeg@@
integration,
interesse.
kts
lösungen,
medizin
monopol
nö@@
philosophie
politischen,
praktik@@
putin
quoten@@
radikale
redner@@
roh@@
schlacht@@
stilllegung
such@@
ungssystems
widmen
wiederaufgenommen.
währungspolitik
zuwander@@
auferlegt
aufträge
beruhen.
beschäftigungsstrategie
besitzt.
datenbank
extreme
gehei@@
geleisteten
gerich@@
gkeits@@
haushaltsplan@@
herangehen
konkretes
leidet
ligen
menschenwürde
minderheiten,
osen
primär@@
rentner
schattenberichterstatter
scho@@
solidarisch
soliden
sprache,
system.
transparenz@@
verbrennung
vereinfachen
verfass@@
vergangene
vertragsverletzungsverfahren
vielfalt,
wehr@@
öffnen
überlegung
überschritten
-fraktion
50@@
antrags
artenvielfalt
aten
ausdruck.
balance
balkans
beitrag,
benutz@@
bestimmen
bestmögliche
betonen.
bewertungen
bewertungs@@
bulgariens
bürokrati@@
chten.
definieren,
engagements
entschuldigen
falsch.
fischern
folgen@@
gerichtsverfahren
gesorgt
ich.
kenntnis.
kriege
menschlichkeit
ministerium
moder@@
nachteilig
parlamentswahlen
ron@@
stat@@
systems,
tierschutz@@
täusch@@
verbo@@
versagen
versetzen,
vorstell@@
zeigt.
zulassen
120
adresse
autonomiebehörde
bedeu@@
bekannte
besorgt,
bezieht.
br@@
einbringen
ergriffen,
fürchte
general@@
gin@@
interessengruppen
ismus
liefern.
mitteilungen
nich@@
nis@@
rechtfertigen
reduzi@@
sauber@@
sonstigen
steckt
ursprung
verfasserin
verschoben
versprochen
zö@@
­@@
öff@@
š@@
195@@
abschließend,
abzuschließen.
akte
anmerk@@
ati@@
b-@@
barón
bedarfs
beteili@@
derer,
drängt
erfordern.
felder
früh@@
guantánamo
hafen
hochrangigen
jenen,
johannesburg
mali@@
niedrigeren
politiken,
politischem
seeverkehrs
serbischen
test
umweltfragen
ur,
veranstaltungen
verdäch@@
verwertung
wachstum@@
zurückkehren
zurückkommen.
zusammenfassend
ängste
äußerung
/97
700
abschreck@@
arbeitnehmerinnen
begeisterung
beurteilen
beweist
dem@@
dere
dringenden
einigen,
erzieh@@
forderte
gert,
hauses,
hunderttausende
kambodscha
male
prostitution
satz@@
schluß@@
unterliegen.
verbunden,
verhandlungen.
verschieden@@
vorschlagen.
wir.
60@@
amerikan@@
anregungen
anstreben.
auftreten,
ausweg
beantworten,
bekämpf@@
beruhen
bewerten,
den;
drucks
einfach@@
eisenbahn
elemente,
erung.
existierenden
fische
forma@@
gab@@
gemeint
geringere
gt:
halbjahr
handels-
heb@@
implementierung
integrations@@
interventions@@
istische
kohlen@@
mittelfristig
neuer@@
onen.
politiker,
resultat
rou@@
stands@@
ten;
trägt,
unnö@@
unterstütze.
urheber@@
urteilen
vereinigung
verhältnismäßigkeit
verschlei@@
zustimmung.
überwinden,
abhilfe
ah@@
akt@@
akzeptiert.
alltag
angestrebt
anstreben,
bedacht
befürchten,
begrenz@@
ber.
eten
eu-strategie
freundlichen
genehmigungen
gewissem
gutachten
handelte
historisch
lass@@
schlüssi@@
skanda@@
strukturi@@
tei@@
unterstützungs@@
verbessert,
versorgungssicherheit
versteck@@
verständ@@
verändern
vorfall
werter
wider.
wirtschaftliche,
zogen
übermäßige
abgehalten
anderen.
angeführt
anpass@@
benötigt,
beweis@@
bran@@
budgets
diesel@@
einnehmen
erbringung
erkenn@@
erörterung
europäisch@@
fortführung
fortschritt,
gehen?
geräten
gungen,
herbeizuführen.
jahresende
jedermann
mier@@
mitgliedstaa@@
richtlinien@@
spiel.
ssystems
tigen.
tschernobyl
wettbewerbsfähigen
zufrieden.
zyklus
zählt,
39
40@@
ankündigung
behandlungs@@
behaup@@
bek@@
der.
detaillierten
droh@@
eintreten.
eltern@@
erfasst
erfolgs@@
erhol@@
finnische
geben?
gelernt
gern.
halbe
inspektionen
jugoslawischen
konkurrenz@@
laden
liefern,
markts
möglich@@
nachbarländern
ou
pilot@@
republik,
schade,
touri@@
umge@@
universität
unlauteren
vermitteln
weichen
wettbewerbsverzerrungen
wichti@@
abgeordneten@@
abänderungen
andau@@
arm
demonstration
einzuleiten,
etabli@@
gearbeitet,
gmo
herrschen
hne
irlands
islam
jahre.
kommunistische
ktoren
körper
landwirtschaft.
lanka
lob@@
messen.
phi@@
pluralismus
rand
schatten@@
sekretariat
senken,
standes
tur
umgebung
unfall@@
vernünf@@
verwirr@@
vorsorgeprinzip
zogen.
800
angebote
ausfuhr
bedeuten@@
beeinflu@@
berufen
beruhi@@
besonderem
bestreben
bewußtsein
durchzusetzen,
ente
erfordernis
erläuter@@
europa-mittelmeer-@@
gehöre
gerichtet,
glich,
irak,
kongress
konsolidi@@
kostengünsti@@
massenvernichtungswaffen
nehmen@@
quecksilber
ratspräsidentin,
rückstand
sion@@
ung;
ungleichgewichte
unternommenen
veranla@@
verpflichtet.
wirtschaftspolitische
zeitalter
.30
abgabe
befürwortet.
beherrsch@@
beschleunigt
bewusst@@
bildung.
blut@@
dauer@@
dienstleistungen.
erbes
erwähnen
gesicht
gewin@@
gewünscht,
guinea
heiten,
instrument@@
interpretation
kindern,
lehre
leicht,
ling
mithin
nachbarschaft
offener
raumes
shi@@
tari@@
tionsp@@
ungssystem@@
wem
wählen.
zurückgezogen
anhänger
bestrafung
bevorzu@@
botschafter
branchen
cu@@
dankbar.
daraufhin
demokratisch@@
des,
doppelten
eingeführt.
ellen,
gal@@
gangen
geschwindigkeit
gkeit@@
hafter
hinnehmbar,
indi@@
integri@@
kana@@
krieg,
leiter
mahn@@
nachweis
produkts
rufen.
seg@@
stätten
trans@@
tter
vizepräsidenten
vorbehalten
vorbeu@@
vornehmen.
vorschla@@
währungen
überschwemm@@
übrig
27@@
anbieten
ar,
bezugs@@
billig@@
bloß
blut
damaligen
diskriminierung,
diskussions@@
einspar@@
einzubeziehen,
ergänzen
funktionierende
fördert.
führend
gebühr@@
identifizi@@
internet-@@
irakische
island
kredi@@
kri@@
meinung.
norm
ns
organisa@@
pflanz@@
pflege
politi@@
resolutionen
rohstoffe
räum@@
scheinbar
schenken
schutz.
seien.
seite.
techn@@
vorbe@@
vorläufigen
weitreichende
zogen,
è@@
überprüf@@
1-@@
abgeordneter,
angebo@@
anwend@@
app@@
arbeitslosen@@
aus-
außergewöhnlichen
barnier
betroffen,
definitionen
dortigen
dramatisch
erwar@@
erwähnte,
fühl@@
geraten,
herum@@
höherer
klar:
kompromisses
kosovo,
meere
miert
offen,
orientier@@
risiko,
schwäche
sinn.
ski
tendenzen
tigt.
umfassenderen
unterrichtet
verdacht
volksrepublik
wettbewerbsfähiger
währung,
wär@@
zurückzuführen.
"nein"
11.30
aktualisierung
akzeptabel,
au
aufgeführt
ausführlichen
außerordentliche
dringliche
dy@@
effe@@
einzurichten.
entfernt.
erhielt
eröffnen.
eu-ländern
fünfte
geld.
geringsten
gewachsen
jagd
kollektiven
lle@@
me.
mitten
mugabe
mä@@
nigeri@@
reaktoren
reduzieren,
richtlinien,
umgesetzt.
unterscheidet
verbrauchers
verknüpf@@
werb@@
zy@@
übel
abgestimmt.
dent
dung.
einnehmen.
elektrizitäts@@
empfän@@
energiesektor
geflügel@@
gre@@
handelspartner
industrie.
kehr@@
lissabon.
meer@@
menschenrecht@@
menschlicher
michel
moment@@
mutter
objektiven
ohn@@
plant
ra,
respektieren,
sektoren,
sprogramm@@
tele@@
toten
va
val@@
veranlassen,
verbesser@@
verschuldung
vertreter,
vertritt,
verwirklichen.
ys
zel@@
agi@@
ate
ausgaben,
beeinflussen.
befindlichen
bestandteile
bestimmen.
bilateraler
biokraftstoffe
brüsseler
deckt
deckung
demonstranten
dikta@@
drittländern,
ehe@@
empfänger
forschungs-
freiheits@@
fremd@@
friedensprozesses
ge:
geldwäsche
haup@@
heil@@
illu@@
keiten.
km
lesen.
net,
norwegen
ort,
platz@@
professor
protokoll.
rechnungshofes
terrorismus@@
verlaufe
vertrags,
verwaltet
vorigen
wertpapier@@
widerspiegeln.
z-@@
zeiten,
ökologisch
arbeits-
auswirkungen,
bedenk@@
begegnen.
bildet.
entscheidung.
erfreu@@
erneuten
fal@@
flugzeug
fortschrit@@
futter@@
futtermittel@@
gefährdeten
geographischen
gewerkschaf@@
gleichgewichts
haushaltsp@@
kommunismus
kopf@@
krankheiten,
lk@@
mancher
meter
orientierte
pha@@
referendums
reguli@@
richtet,
russland.
schwan@@
sele@@
sicherstellen.
spielregeln
ste.
tag.
teilnehmen,
terrorismus.
ungarn,
verbänden
verdient,
vers@@
vertre@@
vertreter@@
voraussetz@@
vorschlägen,
überdenken.
agieren
befriedigung
beförderungs@@
beihilfen,
besitzen.
cht.
dazu@@
eindeutig,
erklärte,
festgelegte
festsetzung
finanzmitteln
gescheh@@
hochwertigen
jahres,
kompli@@
ler,
lär@@
mitarbeit
obersten
patienten@@
plenar@@
ppe
priori@@
sagte:
schni@@
son,
steigen,
streichen.
tat,
tier
tigt,
trü@@
tägliche
österreich,
ausmachen.
außerordentlichen
behauptungen
charakters
durchschnittlich
einzige,
erkrankungen
fischfang
harmonisiert
hinein@@
holen
institut
islami@@
isten
kalten
kandidat
kandidatenländern
kann?
kohärenten
konfli@@
kräf@@
priva@@
schlimmste
skandal
spür@@
ssektors
th
unden.
ungspolitik,
verbieten.
vergleichbar
vernichtung
werten,
wohle
überarbeitet
1,5
abstimmungsstunde
abwesenheit
anbelangt.
aserbaidschan
ausgleichs@@
beratungs@@
dramati@@
eine,
ellem
entgegenzu@@
entschieden.
führten
geduld
gelöst.
greifen,
gt?
he
hemmnisse
interesses
keiten,
konkre@@
kreativität
managements
mechanismus,
meist
optimal
stel@@
verlangt.
verwirklichen
verwäss@@
voran.
vorherige
wirtschaftlichem
akzeptabel.
analysiert
angehören,
aufrufen,
bedaure,
bse-krise
dumping
einfach.
einwanderern
energie-
erhoff@@
fischen
fort.
indes
indien,
kirche
länge
mangelnden
missbrauch@@
mögen,
politikbereichen
preisstabilität
sagt:
sammlung
schwarze
slowakischen
stimuli@@
streichen
tene
tiere,
tigsten
tze
unterworfen
verknüpfung
verlu@@
vernünftig,
voran
vorzuschlagen.
waffe
wichtig@@
wider,
wirtschaftsraum
wissen@@
y.
zwar,
angriff@@
anhaltenden
anschließ@@
ap@@
ard
ausschuß,
ausschuß@@
auto
befasst,
bemerkt
ce-@@
eingang
einsicht
els
erheben.
erschein@@
gebil@@
gerufen.
geschafft
geschichte,
geschick@@
gewerkschafts@@
hat@@
interven@@
jahrzehnte
neufassung
orientierten
petitionsausschusses
rücküberweisung
sagte.
setzen?
ssituation
statistik
streu@@
strö@@
stün@@
tt,
umfasst.
verbündeten
vertragsparteien
verzichten
vorteilen
werken
wertschätzung
wil@@
wurzeln
zellen
zusammengearbeitet
ant
arbeitenden
bearbeitung
begonnen.
begriffen
berichten.
bezahlung
brauche
decken,
dienstleistung
ehrgeizig
erlassen.
fe,
feu@@
form@@
frem@@
fte
fülle
gezielt
hindern,
hypothe@@
institutioneller
kli@@
kollektive
komplizierter
leiten.
materi@@
meilenstein
mär@@
nachvollzieh@@
netto@@
regionalpolitik,
schil@@
schlech@@
stabi@@
stein
strafrechtlichen
strukturreformen
temp@@
vorzubereiten.
widersprüche
wissensbasierten
änderungsanträgen,
überhol@@
ausstellung
az@@
basiert.
budge@@
bür@@
dienstleist@@
domini@@
erlaubnis
erweisen.
flugzeu@@
flächen@@
fortschritts
gebietskörperschaften
gefängni@@
gehabt,
genießen.
gravierenden
hand.
hen,
hervor.
inspektoren
kroatiens
kümmern.
landwirtschaftlicher
os@@
palästinensern
poli@@
reisen.
revidi@@
rüstungs@@
schal@@
schwierig.
sierten
stag
telekommunikation
typ@@
unhalt@@
unterzeichnet,
verheerende
versetzt
verweigert
volksabstimmung
völkermord
wahren.
wirtschaf@@
zwingen
10,
abhängen,
abtreibung
anhör@@
arbeitsplätze.
aufrechtzuerhalten.
ausbreitung
ausgang
basi@@
bedeutend
bekenntnis
disziplin
einheitlicher
entschließungsanträge:
entsteht,
erlebt.
ermittlung
erstaunt
extremen
geringeren
großar@@
grundsatz,
herunter@@
herzegowina
häus@@
informiert,
jugend,
kir@@
ktion@@
osten,
schengen-raum
selbstverständ@@
siebten
sinitiative
skep@@
sou@@
stext
tragische
tran@@
umverteilung
van@@
verweisen
wahr
weltkrieg
österreich@@
arbeitsmarktes
bereit.
bereiten.
besetzten
dienst,
dienstag
einbeziehen
energiebereich
erwähnung
gezogen.
heikle
hervorgehoben.
integration.
ische,
konzept,
kro@@
kühl@@
lauf
leid@@
mb@@
modell,
monopole
motto
nai@@
ne,
nisse
nötige
partner,
schön,
souveränen
spielzeu@@
techni@@
teste
uen-fraktion.
ukraine,
unterzogen
verbrauchs@@
zusatzfrage
anläßlich
anrei@@
ausdrück@@
autori@@
beenden
beispiel.
berechtig@@
berichtes
bestes
bewähr@@
durchsetz@@
eingeleiteten
entwürfe
erzielung
eu-mitgliedschaft
feststellung,
flagge
geeigneter
geschichte.
isch.
jahrzehnt
kam.
kohle@@
konkreti@@
konventionen
lieferanten
luftraum
läu@@
mati@@
morde
nehmen?
nenne
ol
prinzip,
programm.
repres@@
seither
ss,
unterzeichnet.
vereinheitlichung
verhandeln,
wahrgenommen
wird:
wur@@
ß.
47
ag@@
arbeitslo@@
auftau@@
ausbeu@@
beachten
bereits,
bißchen
dri@@
dun@@
e!
gegründet
gehalten.
geres
gesetz,
hauptstadt
jahr@@
jemanden
keiten
kennzeich@@
kümmern
licher,
meister@@
mmer
mutig
prognosen
quasi
reach
realitäten
ren
rente
ressource
rettung
schlechtes
schlussabstimmung
schon,
sieren,
unsinni@@
unterbreiten
unterhalb
unverändert
versprech@@
verstößt
vornehmlich
zitiere
zwingt
auff@@
ausgabe
ausgehen
auslieferung
austauschs
bediensteten
began@@
belegt
deutsch@@
dische
diskutierten
ende.
enden.
erfordert,
erte,
eröffnet.
eta@@
fache
fortsetzen,
gewinnung
hilft,
hof
iii
irgend
jarzembowski
klauenseuche
konstru@@
ktiven
lukaschenko
person,
posselt
produktion,
schaften,
sichtige
spezifischer
sprachen,
strafrechtliche
ständen
teilte
ther@@
tü@@
ung!
unweigerlich
verzö@@
vorschlägt.
vorzüge
welthandel
zieht,
%-@@
abzielen.
al-@@
amtes
angewen@@
ay@@
bedroht.
beobachten.
bericht@@
beziehungen.
einbeziehen.
einzelstaatliche
elend
energiein@@
enttäuscht,
erinnen
erleichterungen
eu-beitritt
evp
ganz.
gebrachte
gegenwart
gerecht.
klargestellt
koalition
korrup@@
kritisieren,
mazedon@@
mercosur
millenniums-entwicklungsziele
nationen.
osteuropas
polizeilichen
reagiert.
repräsent@@
ressourcen@@
richtet.
rö@@
schlepp@@
schlichtweg
schätzen.
strahl@@
vertret@@
virus
weite
weltgesundheitsorganisation
wies
zuverlässige
zwingen.
übermäßig
übermäßigen
/0@@
ablehnen
alters
angesprochene
ausgehandelt
bauen.
belei@@
benötigten
chaos
dimension,
erschreck@@
erzeugnisse,
esen
fehlern
ferner,
folgt,
force
funktionieren,
gaben
hervorragend
höre
ih@@
jeglichen
lea@@
liga
los,
medien,
nern
notwendigerweise
pfund
phasen
post
q@@
relevan@@
rentensysteme
schwache
stet
stützen.
tal
treiben
ty@@
verfechter
verheerenden
voraussetzung,
waffen,
wahlkrei@@
wahrschein@@
werte@@
zeitlichen
aber@@
angemessen@@
antibiotika
aufgezeigt
aufsichtsbehörden
ausgeprä@@
ausmaßes
bekannt@@
beschreib@@
daneben
dossiers
durchgeführte
effektivere
eingeleitet.
einseitigen
eiten
entscheid@@
festgeschrieben
fluss
fortgeführt
gelingt
gerichtet.
gesellschaften,
grundsätze,
hektar
interessen,
kennzeichn@@
krei@@
lohn
marktzugang
maximal
mische
nes
oben,
oecd
operationellen
realisier@@
rein@@
schichten
sieb@@
stran@@
textil-
troika
umfass@@
umfassendere
unterbreiteten
v,
verhältnissen
verstärkt.
verstößen
veröffentlichten
zumeist
zählen,
überwachen,
abschließende
befürchte,
behandel@@
behauptung
bewirken.
binnenmarkt.
cam@@
durchzuführen
eingegangen,
einla@@
einschränk@@
enthaltene
erbracht
erfreulich,
ermordung
eu-länder
fangen
fällen.
gefa@@
gefängnissen
geogra@@
gestützt
gewal@@
gor@@
grenzwert
hä@@
höchstens
ideologie
konsequent@@
koopera@@
liikanen
mann@@
messen,
mitentscheidungs@@
mitgliedsstaaten
mäßi@@
nachge@@
neo@@
net
perfe@@
privater
realistischen
sachverständigen
selbstbestimmung
säu@@
te"
tten@@
umstrukturierungen
unzulänglichkeiten
verursachen.
vielfäl@@
wesen,
widerspiegelt.
währungsfonds
überlassen,
—
-gipfel
anbie@@
anerkannten
angemessenes
angestellten
annehm@@
arbeitgeber@@
armut.
belastet
bemerk@@
beraten.
besetzt
bestimmtes
betroffene
blicken
brechen.
drängen.
entlassungen
entstehenden
entwickelte
ergänzen.
erleb@@
freiwilliger
geblieben.
generalversammlung
geschehnisse
indischen
inhal@@
küsten
lig
linie,
marktorganisation
nationalismus
optimale
rak@@
speicherung
sprä@@
ssystem@@
stammen
tar@@
unterbrochen.
veranstaltung
vietna@@
vorangetrieben
wachsen.
wies@@
zugehörigkeit
zwischenstaatlichen
ärmeren
übertragen,
a5-00@@
ad-hoc-@@
aufforder@@
ausgesetzt.
aussch@@
ck,
corbett
dauern
einsetzt,
einsetzt.
einzelstaatlicher
entscheidungsträger
enz,
erstaun@@
forderungen,
führern
gescheitert
gesetzgebungsverfahren
groß,
informationssystem
jung@@
kund@@
landschaft
leistet.
lichkeit.
loser
missbraucht
nachdenken.
netzwerke
organisieren
pessimi@@
ratstagung
reagiert,
reihenfolge
satzes
saubere
schädliche
stimmte
tiefen
unglaub@@
verantwortungsvollen
vermittler
versi@@
verwaltung,
vorsorge@@
watson
zir@@
21.00
arktis
basieren
begegnen
begrün@@
behörde,
berufe
besorgnisse
beweg@@
bezahlen.
burg
bürgers
deckt,
dern.
detail@@
deutet
eingenommen
einräumen,
erschöpf@@
ersetzen,
eskalation
finanzhilfen
fried@@
funktions@@
fünfzig
gefolgt
geprüft.
gerin@@
gerä@@
geschah
grundlage,
haushalten
hielt
implemen@@
infrastruktur,
john
koordinieren
korrekturen
kümmern,
liby@@
lobbyisten
luftfahrtunternehmen
mitteilen
nordischen
personenbezogener
positiv@@
präsident@@
sackgasse
toleran@@
treffens
umweltfreundliche
unternimmt
untrag@@
versprechen,
verwendet,
veröffentlicht.
wahrscheinlichkeit
woll@@
überrascht,
anbau@@
angekündigten
arbeitskräften
befürchte
begin@@
behindern.
beinhaltet.
beläuft
bereitgestellt.
bes@@
besuchen
beweist,
bg
dün@@
eg-vertrag
einführen.
empfohlen
ernen@@
erwarteten
explo@@
früher@@
fälschung
geeignet,
geistige
gemischten
griffen
großbritannien,
großzügig
gruppierungen
hass
hoheits@@
instanz
kriminalität,
lisiert
luftverschmutzung
mindeststandards
mut,
nachzudenken.
negativ@@
orte
potenziell
pres@@
prioritäten,
rechnungen
sani@@
sofort@@
stet.
steuern.
stro@@
strukturfonds,
sucht
teile.
tungen,
ungewöhn@@
unzulän@@
unzulässi@@
verschwen@@
vertrag.
vorgang
vorschriften.
walten
warnung
zahlt
ärz@@
abschließenden
angepa@@
aufgetreten
ausreichen,
außergewöhnliche
ba
beeinträchtigen
entlassen
entschuldigung
erscheinen.
erweitern
erweitern.
erwerb
finanzierung,
finger
flexiblen
frequenz@@
futtermittel
gebildet
gebührend
geführte
gegangen.
gegenden
gerechtfertigt,
gesetze,
horizontale
höh@@
katalog
klage
klaus@@
ko-@@
kyoto-protokoll
lige
massaker
maßgeb@@
meinerseits
nahmen,
nichtständigen
obst
plan,
plus
reagi@@
rechtsstaat
ruhe@@
schnei@@
schreibt
schätz@@
sechsten
spekulationen
standort
stellung.
volk@@
weich@@
zug@@
+
2000,
anschuldigungen
ausführlicher
berufung
bestmöglichen
bildungs-
col@@
dustrie
ego@@
eklatan@@
engeren
ergebenden
erika
gedul@@
gerechtfertigt.
gesundheitliche
gewand@@
größerem
heißen.
humanressourcen
ignorieren
investi@@
kapitals
kte.
lassen@@
ließe
luftfahrt
lärm
marktordnung
postdienste
ppen
preises
produk@@
radio@@
rechtsausschuss
refor@@
regulierungsbehörden
robert
schulung
selbstverständlich,
systems.
verträ@@
verurteilt,
wieder,
woche,
ws
änderungsvorschlag
agrarpolitik,
begrüß@@
besonders,
bezeichnungen
business
eingestuft
erstellen.
europäisch
existiert.
ez
französi@@
geografische
großartigen
heißen,
hervorzuheben,
hoch.
ing@@
krimin@@
luftraums
mittelausstattung
ner.
pack
proze@@
rad
religiöser
richtlinienentwurf
sag@@
sex@@
sichtigen
spa@@
standpunktes
statistische
stimmung
tigten
ungsplan
verfa@@
verhalten.
vermi@@
versorgung,
w,
wahrhaft
ware
zen.
zufrieden,
zwan@@
ägyp@@
übermitteln,
übernommen,
abhängi@@
ana
angriffen
anzugehen,
anzuwenden
argument,
ausreich@@
beschließen.
besser.
beteiligt,
beurteilen.
bezeichnet.
dert
ecofin-rat
einleit@@
enten
erhöhte
erwartung
erörtert.
georgi@@
geschafft,
getreide@@
gründlichen
handels,
ideale
jenseits
kaufen,
kenn@@
knüpf@@
komplizier@@
konzipi@@
koordinierten
kämpfe
machen:
marin@@
menschenrechtssituation
minimi@@
mitgeteilt
nachzukommen.
namentliche
nisse.
opfer,
präsent
römischen
schutzniveau
span@@
stisches
umweltbereich
verbesserungs@@
verbote
verfü@@
versprochen,
verspä@@
vollbeschäftigung
vorhandensein
welthandel@@
wichtigkeit,
wirksamere
zinsen
zivilisa@@
zugriff
/ewg
196@@
angehört
ation,
ausgedrückt
ausgegangen
auskunft
beihilfe@@
beschwer@@
bewährte
côte
derung
diskriminier@@
diskriminierungs@@
dringender
eindeutig.
eingehender
eingeleitet,
euroraums
gebilligt.
gedanken@@
gesucht
gesundheitsfürsorge
grenzüberschreitender
hingenommen
hochrangige
häl@@
höre,
krieg@@
len,
loy@@
luftverkehrs
läßt,
machen?
manda@@
or
rad@@
russen
räu@@
rücktritt
s?
schläge
schwieri@@
stützt
thema@@
traurige
tritt.
tät@@
unterzeichneten
verk@@
verlaufen
verletzt.
vernünftiger
versor@@
verwendet.
vielschich@@
völkerrechts
westliche
wortmeldungen
überzeugen.
akp-länder
anders@@
anzuerkennen,
argument@@
ausgelegt
befriedi@@
belgien,
ben?
beschluss@@
bewirkt
bli@@
chs
dis@@
einzustellen.
ergebni@@
erhöhten
fahrgäste
fischerei,
fragt
fro@@
gefühl@@
griff@@
halb
holen,
inflations@@
kollegen.
krank@@
kreise
lebenslanges
legen@@
ließ
mainstreaming
makroökonomische
niedrigere
papiere
produzieren
rio
schieben.
schlä@@
schwerwie@@
senden
seuche
simp@@
solle
sprozesses
sprü@@
strategien,
stur@@
technologien,
todesfälle
tschad
unabhängi@@
vergleichbare
verhandlung@@
verkehrssicherheit
widri@@
wiedervereinigung
zusammenfassung
90@@
alen,
angehören.
arbeitnehmer.
beigemessen
bekla@@
betrü@@
cou@@
dlichkeit
dy
eindeutiger
erstellen,
erweist
erwiesen,
f-@@
formel
frankreichs
frühen
fundament@@
fundamentalismus
fän@@
gedächtnis
geldpolitik
gentur
gesichtspunkten
gewi@@
gif@@
gischen
haft.
hinzufügen
ia
iran,
kilometer
kraftwerke
leeren
lohnt
mand@@
menschenrechtskonvention
muttersprache
nennt
ord@@
ordnungs@@
paritätischen
privatisier@@
profite
qualifizi@@
realität.
reser@@
ruh@@
serben
spenden
sst
ständiges
tage@@
taler
umfangreich@@
unvermeid@@
vermitteln.
viertel@@
vollen@@
vorankommen
zweifel.
ökonomi@@
abstimmung,
angegeben
angestrebten
ara@@
aufbauen.
ausreicht,
binnengrenzen
darf@@
dr.
durchschnittliche
eckpfeiler
eef
einverständnis
eite
ell.
etliche
farb@@
fe.
formationen
fortschritt.
fortschrittsbericht
fraktion.
grünen/freie
halt
harmonisier@@
herab@@
ien.
iren
justiziellen
kammer
kritisiert,
kyoto-@@
legiti@@
mir@@
nachbarstaaten
nischen
olo@@
ordnungsgemäßen
schiffe,
schottischen
schwierigkeit
sorgfalt
stau@@
stärkeres
tr@@
umgekehrt
verfolgten
vernachlässigt
verschlossenen
verständliche
veränderungen,
wiederholten
wiederzu@@
x,
ßte
absurd,
ahn@@
anführen,
ausgestaltung
ausüben.
bedenken.
bedingte
bereichen.
bestä@@
bezugnahme
bombardi@@
bücher
effektiv@@
ehrgeiziges
eigenschaften
eingebracht.
einmalige
elt.
englisch
entsteht.
erarbeiten
erheben,
erklärt.
erleben.
exekutive
gebühr
herausgestellt
iranische
jan@@
jemand,
josé
katastrophalen
komitologie
logi@@
luftqualität
nano@@
ordne@@
palette
rechtsakt
rechtsstaatlichkeit,
umweltfreund@@
ungleichgewicht
unterschriften
verts/ale-fraktion
wesent@@
zertifizi@@
äl@@
ökologischer
"ja"
3,@@
3-@@
absicherung
ale,
anstrengung
anteils
anwendungs@@
ausgeht,
beachtliche
befürwortet,
begann
bera@@
bereitzustellen,
berichtet
beschleunigen
bolkestein
bundesrepublik
chinesen
distanzi@@
entscheidend.
en“
erei@@
erle@@
eu-rechtsvorschriften
exakt
gefangene
generellen
genomm@@
glaubt
gliches
gravier@@
grundrechte,
größenordnung
gül@@
hinauszu@@
hochschulen
horizontalen
ien
initi@@
klein
kommen?
konta@@
lands,
methoden,
männer,
nichtdiskriminierung
organisationen.
partnerschaftsabkommen
proteste
präven@@
reis
roll@@
schadet
schancen
schriftlichen
schwarzmeer@@
smu@@
spro@@
stadt,
unbefriedi@@
unterbreitet.
verdeutlicht
verursacht.
viele,
vorbereitet,
vorreiterrolle
weitesten
zufriedenstellend
zweier
öffentlichkeit,
80@@
aids-@@
akp-ländern
anders.
anerkennen.
angeneh@@
ansatz@@
ansehen.
armutsbekämpfung
artikeln
auszusprechen.
außenhandel,
basiert,
beantwor@@
berechtigung
beschäftigungspolitischen
bezeichnen.
bulgarischen
dank@@
david
dimensionen
eingeführten
einwanderung,
einzigar@@
entschlossenheit,
epidemi@@
ereigni@@
erischen
erneuer@@
eur.
evalu@@
ewi@@
frü@@
fühle
gefangen
ges.
getreide
handl@@
kandida@@
kommissionsvorschlags
kooperation@@
lichkeiten
link@@
mund@@
offen.
ordn@@
physi@@
polizeiliche
rumänien,
sand@@
sanktion@@
sekunden
sieht.
sodann
stelle.
ten-@@
tritt,
unsererseits
verbringung
verfassung.
verhalten,
vertriebenen
verwaltungsaufwand
verwiesen.
wettbewerbsregeln
öffentliches
übel@@
überwiegend
alternativer
ama@@
anwendungen
ausgewogener
basieren.
bewirken,
brem@@
costa
deli@@
diskriminiert
eingeschränkter
einheimischen
entschließungsantrag,
erhöh@@
erscheinen,
europ@@
europarates
festigung
flei@@
fließen
fun@@
gebie@@
geschätzten
hung@@
juri@@
kein@@
know-how
konzentriert,
lebt.
minderung
mitteil@@
mächte
praktischer
repräsenta@@
risiken,
sensibilität
stellen?
stet,
ständigkeit
til@@
unabdingbar,
ungar@@
untergraben.
verband
verdienst
vereint
verschlechter@@
verschul@@
versichert,
verstoßen.
verständlich,
verträge,
vorteil@@
vorwurf
wus@@
wäl@@
zentralbanken
ße
ära
überflüssig
amerikanern
andre@@
ane
anschein
ausgangs@@
bedauert
beeinträchtigen.
beginn@@
bemerkung,
berau@@
bestimmt,
bewahren,
bewährter
brennstoffe
de-@@
erklärungen,
erteilt.
existiert,
flughafen@@
fracht@@
gebor@@
gefassten
gerechnet
getroffene
gewährt.
gtes
gültigen
günstigen
ing-@@
initiativrecht
interessieren,
juniliste
konfrontiert,
krisenmanagement
kubanischen
medikamenten
null
one
popu@@
priorität.
propaganda
rechnen,
restlichen
reu@@
schleu@@
schockier@@
schän@@
schüler
se-@@
senden,
siert.
sir
staat@@
steuersätze
steuerzahl@@
struktur,
säulen
titel@@
vorgän@@
vorkommen
vorwärts
wendet
wünscht
zwang
ähnlicher
aktualisier@@
anderenfalls
angelegte
banken,
beschäftigung@@
cardiff
einwände?
el-@@
empfiehlt
enheit
entschlossene
erforder@@
erstat@@
euratom-@@
familien,
feststellungen
geboten.
gemeinschaftspolitik
glaubt,
halten@@
herauszufinden,
herrschenden
information,
künftiger
lebenslangen
legung
meint,
on-@@
petition
plenartagung
prinzipien,
ry
schatten
schär@@
sein!
signal,
spürbar
sson
standard@@
steigt.
stoßen.
subsidiaritätsprinzips
taliban
tem@@
tschetschen@@
tuberkulose
verhält@@
verun@@
viertens:
vorgenommen,
vorsehen,
vorübergehend
weiterentwickelt
wiederhole,
wiederholung
zucht
zusatz
zusatzstoffe
äthiopien
übergreifenden
abänderung
alisiert
anpassungs@@
ausgeschöpft
bedeutsamen
begrenzen.
behalten,
bekun@@
berufen,
bestanden
biomasse
dynamischen
einzigartige
ellen@@
erdöl
erkannt,
ermutigen
ersucht,
fühlen.
geg@@
gewiss@@
gewünschte
größtmöglichen
hinnehmen,
hüterin
ind/dem-fraktion.
integrieren.
isch-@@
klug
koordinieren.
kä@@
mich@@
mili@@
nazi@@
ordentlich
otenzial
protesti@@
sender
smus@@
sprodu@@
stahl
standen,
steuer,
tenen
teter
theoretisch
undurch@@
unerträ@@
ungsprogrammen
unzufriedenheit
verarbeit@@
vereinfachen.
verfasst
verloren,
vert@@
weitreich@@
wissenschaftlern
zuviel
öffnen,
übergreifende
überrasch@@
č@@
2014
abrüstung
akten
aufbauen,
aufweist.
b,
befrei@@
beton@@
betrachtung
blei@@
bomben
einigermaßen
erfa@@
gehälter
gelangt,
gemeinschaftsin@@
gera@@
gerichts
globalisierung,
her.
ing,
isoliert
komplett
lands@@
lebt,
links
nungs@@
organisieren.
partnerschaft,
passagier@@
pestiziden
punkten,
rische
sicherheitsrates
steigern.
stein@@
strukturfonds@@
teri@@
unterliegt
unterstütze,
verkehrsträger
vorankommen.
voranzukommen.
vorhanden.
vorherseh@@
website
zugegebenermaßen
zweieinhalb
26@@
alle@@
analysieren
anfangen,
anschluß
befa@@
bevölkerungen
bitter@@
chile
definieren.
direktor
direktzahlungen
einreich@@
erbra@@
ethik
eventuellen
geburt
grundrechten
gue/ngl-fraktion
handlung
intelligent@@
kernwaffen
kore@@
leere
meeresumwelt
mitge@@
mitglied@@
modell@@
nichteinhaltung
ori
produzi@@
qualität.
rumän@@
samen
sonnen@@
stich@@
strafverfolgung
stür@@
suu
tagtäglich
teams
terer
thunfisch@@
tourismus@@
tär@@
universal@@
unruhen
unterstrichen,
verhaftet
versicherungen
westsahara
wirksam@@
wpa
zufällig
ün@@
0er
abgeschlossen,
alismus
alkoholi@@
and,
art.
ations@@
auslaufen
auswahl@@
banknoten
bedingt
beizubehalten.
bereitstellen
betreu@@
beurteilen,
breiteren
definieren
detailliert
deter
entschließung.
erforschung
eure
forschungen
frühwarn@@
handwerk@@
haushal@@
häftlinge
implizi@@
jeher
kombin@@
kreisen
ließen
luxemburgischen
moralisch
mußte
müsste.
nd
norm@@
normen,
osten.
profession@@
regulier@@
reichende
relevant
resultate
schafts@@
schl@@
schwieriges
sebene
sitze
sozialem
spekulation
strategisch
tote
träger
umsetzungs@@
ungsprogramm@@
verbieten,
verschlechtert
vitorino
vorteil,
willkommen.
woran
zögern
.,
abzuschaffen.
angestrebte
anstoß
arbeiter@@
asyl-
bekommt
beschreibung
bewilli@@
bt.
dagegen.
dargelegten
denkt
dänemark,
ehrliche
entfernt,
finnland,
forschung.
garantiert.
gewohn@@
gewöhn@@
globales
grünes
homo@@
ihr@@
imm@@
ko
konzentriert.
korrigieren.
lamy
logische
plädiere
qualifikation
regen@@
renationalisierung
ressourcen.
setzte
siedlungen
sion.
staatsführung
str@@
tür@@
vergeben
verhän@@
verzerrungen
vorab
vornehmen,
warte@@
werdenden
willi@@
wto-verhandlungen
zufall,
zusätz@@
zuwachs
abgeben,
aktionen,
angelegenheit@@
ausschlaggebend
ausschluss
beauftragten
bern
berühr@@
besucht
bow@@
buchstabe
debattieren
don@@
einmisch@@
energieverbrauch
err@@
ex-@@
franzosen
freihandels@@
friedlich
genutzt,
gratuli@@
halten?
herum
höheres
irgendeinem
kaufen.
natur.
nutzt
parteien@@
pr@@
preis,
protokolle
realität,
rentabilität
schwefel@@
sowje@@
sprachlichen
symbol@@
synergien
tation
technologie,
thessaloniki
tun@@
umgehen,
v-@@
verurteil@@
vollzogen
vorzugehen,
wallström
weitestgehend
wiederherzustellen.
zulassungs@@
übermitteln
alarmier@@
angehen.
ausgezeichnet
ausschöpf@@
befin@@
befrie@@
behandelten
beitrit@@
berech@@
billiger
dialo@@
drastische
durch,
eigen
einkommens
entziehen.
erklärten
explizit
finanzinstitutionen
ford
fraktion@@
frist@@
füll@@
gebeten.
geforderte
gemeinsa@@
gestell@@
großzügi@@
herz
hinnehmen
inhaltliche
ki
kinderarbeit
lehrer
meldungen
ologie
ologischen
os,
problemlos
programms,
prämi@@
psych@@
rechtfertigen,
rechtmäßigkeit
reit@@
russi@@
schlüsse
schn@@
serbiens
sichtig@@
stens
strumente
tigem
tigkeit.
verbinden.
vermehr@@
verwü@@
vin@@
vogel@@
wettbewerbsfähige
wirtschaftspartnerschaftsabkommen
zuständig@@
36@@
52
abwä@@
anschein,
armen@@
aufmerksamkeit,
aung
ausschreibungen
befürwor@@
bela@@
besatzung
bestrebt,
diversifizi@@
dringend,
egal,
eink@@
einwand@@
einzuräumen.
ender@@
enormer
entschließ@@
entwicklungsländer,
ernährungs@@
exzell@@
feder@@
form.
forstwirtschaft
freies
gefahr.
geno@@
gerecht,
h,
ideologischen
inhaltlichen
intern
jerusalem
jähriger
kanarischen
kno@@
kyoto-protokolls
landwir@@
legitime
leidenschaf@@
lieben
logisch,
minu@@
mischung
nachbarländer
nützt
oi@@
prote@@
rechtssystem
religionen
rinder@@
seltsa@@
sierte
spal@@
spä@@
stol@@
task
teur@@
traditionell
unternommen.
unvereinbar
versuchung
verzicht
vielfältigen
weitergehen.
zurückkommen,
übernimmt.
37@@
abhängt.
anna
appellieren
aufgegeben
auszuarbeiten,
begehen
begeister@@
biokraftstoffen
brücke
china.
dennoch,
deriva@@
dolmetsch@@
empfehlen
erfahrung,
ethnischer
festhalten.
folter@@
geschlossene
gesetzgebung.
gestiegen.
hoh@@
ignorieren.
informationen.
inhaftierung
journali@@
jugoslawische
klassi@@
kleinunternehmen
kommunizi@@
kontakten
laufzeit
ler.
ls
maschinen
moderni@@
motoren
nordkore@@
oben.
oomen-ruijten
optimismus
ot@@
parti@@
personals
plurali@@
realisiert
runden
schwachstellen
software
stillstand
textilindustrie
tren@@
umstand
unde
unschuldige
veränderter
zahlen@@
zeichnet.
übersetz@@
12,
2008,
38@@
anpassen
anwälte
argumenten
aufgestockt
aufgeworfenen
ausrüstung
aussöhnung
begründete
bewahr@@
böge
ci
deutlichkeit
diagnose
eingeschränkt.
einhalten,
entschiedene
erb@@
europaabgeordneten
firma
gerichtlichen
haag
haft,
hauptziele
herrsch@@
hinrichtungen
ii-@@
jenes
kraftstoffe
kre@@
kten,
leichten
militär
organisieren,
poettering
präsen@@
qualität@@
reihen
schranken
schritte,
schür@@
seinerseits
selb@@
setze
sind;
stockholmer
teilnehmer@@
tho@@
trilog
unerlässlich.
verbrechens
vereinbarte
verkehrs,
verständigung
vertreters
verursachte
verwendungs@@
verwer@@
vorrednern
wör@@
zunehmendem
zuteilung
überzeugungen
51
anzusprechen.
arafat
assistenten
ausgleichszahlungen
berichterstattern,
bestätigen.
breitband@@
bürgerinitiative
cat@@
dalai
das?
den!
drogenhandel
einen,
embry@@
entscheidungsprozess
entwicklung@@
entwurf,
ereigne@@
ereignet
forschungsrahmenprogramm
förderlich
gebot
geringem
gewalt.
gische
glaubwürdige
grundprinzip
gs.
harmonisierte
herangezogen
hinzu,
imp@@
informiert.
knappen
kolonial@@
konferenz,
konvergenzkriterien
kurzum,
lassen?
mehrheit,
menschenverstand
mittelbetriebe
mm
multinationale
mussten.
mutige
mutigen
neutralität
notfall@@
rechtsvorschriften.
schmi@@
slowenischen
spielzeug
stufen
ten!
touristen
uclaf
umweltschäden
und/oder
vet@@
vorgeschrieben
vorwürfe
völker,
wandels
werks
wiedereingliederung
übereinstimmen.
übergriffe
11,
7-@@
aku@@
akzeptable
aufgeführten
auswertung
außenpolitische
befreit
behindern
betont.
ebenfalls,
einst
england
erarbeitet,
erfahrungen,
ergebnisse,
ernann@@
eur,
expan@@
foren
fä@@
gedrängt
geeinigt,
gegrün@@
geißel
gemeinschaftlicher
geprüft,
geschen@@
hier.
initiative.
konfrontiert.
krediten
köln
mandelson
maßstäbe
mechanismen,
mehrjahres@@
menschenrechtskommission
migrationsströme
mütter
n;
nötig.
paket,
rechtsrahmens
reformierung
schwi@@
schwächung
stammt
stil
streich@@
tali@@
technologie@@
u-@@
unfähigkeit
ungspolitik.
unzureichenden
us-amerikanischen
verfassungsvertrags
verkauf@@
verpflichten
verändern,
wagen,
wettbewerb.
who
wirkt.
wirtschaftspolitiken
woh@@
worte.
zulässigen
übergangszeit
2050
absich@@
agrarausgaben
anbieten,
anderthalb
anführen.
anzubieten.
asymmet@@
beantra@@
bedeutungs@@
belgrad
bemerkenswerte
beschlossene
beschäftigungspoliti@@
betraf
beur@@
bewährten
cohn-bendit
dauert
diplo@@
eingereichte
emotion@@
erarbeiteten
erhielten
erlangen.
erscheint,
erschwert
erteile
eröffnen,
eu-recht
extra@@
film@@
finanziert.
formell
fossilen
fusion
fälsch@@
gert.
gestiegen
gewerbe
gvo-@@
han
hauptproblem
herausforderung.
hinausgehen.
hl
hn
in.
industrieländer
innovation@@
innovativer
kamer@@
katal@@
käme
lenken
mas
ministerpräsident,
natür@@
peter
pflege@@
prodi@@
präferenz@@
prü@@
reding
regelwerk
reichsten
reisenden
restri@@
retten
sanierung
sensibilisierung
sive
start@@
te!
tigere
tlich.
unverhältnismäßig
verdienen,
verkürz@@
verschaffen,
waffenstillstand
wirtschaftswachstums
zusammenarbeit@@
zustandekommen
zuverlässigkeit
übrige
–@@
anfän@@
antrag@@
auszuarbeiten.
beachten,
behör@@
bewältigen,
cks
dynamische
eingesch@@
einzubringen.
embryonen
erfin@@
erkenne
formulierten
freiheit@@
fungen
funktionier@@
gedanken,
gefreut,
gehandhabt
gemeldet
geregelt.
geschul@@
grundrecht
heute.
ideen,
inspi@@
institu@@
israel,
jeweilige
kaukasus
keines
konsu@@
kurden
lebenserwartung
lebensunterhalt
lebhafter
lichere
materiellen
medina
mittwoch,
operative
partner.
partnerschafts-
patent
rechtmäßigen
scheiter@@
schmuggel
seiten,
situationen,
spiegel@@
ster,
ur
uri@@
verfassungsentwurf
verwirklichen,
wachsen,
weitergehen
wiederhol@@
worten:
wun@@
zentrums
"allgemeine
100@@
35@@
49@@
atlantik
aussetz@@
auswirken,
auswirkungen.
beantragt,
behilflich
beileid
beinhalten.
berechnungen
besatz@@
bestand,
block
brüssel,
diagno@@
eindeu@@
eingeladen
eingesetzten
entscheiden@@
faktor,
flexibilität,
flugverkehr
freihandel
fung@@
gemeinschaftspolitiken
gewählt,
gruppen@@
gültig
günstige
holz
ia@@
interessiert.
ist!
kamen,
katastrophe,
kindes@@
kleinsten
koexistenz
kriegen
lizenzen
meinungsaustausch
nis.
notwendiger
orientiert
ratingagenturen
ratspräsidentschaft,
rechts-
sinnvoll.
ski,
slowakische
standen.
tagesordnung,
tourismu@@
tue
u,
unabdingbar
ungsindustrie
ung“
untersuch@@
verbrauchs
verhält
vertagung
ves
vorlegt,
vorrechte
wind@@
wird;
wohlhab@@
wohlstands
würdig.
zig
2010,
abhängen.
alisieren
angeregt
anwalt
architektur
aufgreifen
auslö@@
basierend
beförder@@
beitra@@
bemerkt,
bemüh@@
benz@@
besprochen
brech@@
crespo
dreimal
durchschnittlichen
dé@@
erfolgreicher
erläuterungen
errichten,
extremisten
fazilität
fließen.
forums
fragesteller
frau,
freigelassen
freundliche
gegebener
genommene
gestoppt
gewa@@
gleichberechtigten
globalisier@@
grundwerte
handhabung
haushaltsentwurf
hen@@
herzustellen,
hinfällig.
horizon@@
komment@@
kontakt@@
lieferung
mark
mehrsprachigkeit
menschliches
mitteln.
mittlerer
reduktion
refer@@
reinen
schrieben,
sorgfältige
spartei
spiel,
sprache.
später,
studien@@
systematischen
techniken
vage
verankerten
verbin@@
verbind@@
verbraucherschutzes
verhü@@
verzichten,
vi
vo
zigaretten
zugewiesen
"europa
28@@
ai@@
anbieten.
anfangs
angelegt
anwendbar
atomwaffen
auswirkt.
berichtigungen
christliche
davon@@
do,
ehrgeiz
engli@@
entlastungs@@
ergriffen.
erkennbar
erstellen
euro-zone
experten@@
frequenzen
gesundheitspolitik
gleich.
gten,
haltung.
haupta@@
hausaufgaben
haushaltspolitik
heiten.
herausstellen,
heuchelei
hilfreich,
kei@@
kernkraft@@
korruption,
kosovo.
kritik,
maximale
moment,
mulder
nordafrika
nungen
pfeilers
raums,
rechnen.
rehn
sammeln
schlu@@
sicht.
siebte
sion,
sozialen,
staatsbürgerschaft
strich
strukturen,
tes@@
tis
umfa@@
ump@@
umwandlung
ungsproble@@
unterbrochene
veranschau@@
verhaftung
verhinder@@
versorg@@
verwunder@@
verzichten.
vize@@
vorsehen.
vorteile,
änderungsanträge.
übereinkommen,
/1999
achtet
angeführten
arbeitsorganisation
aufsichtsbehörde
aufzunehmen
ausmaße
ausreichender
ausweit@@
auszubauen.
benutzen
bündnis
daseinsvorsorge
daten.
dezentralisierung
dungen,
eingetreten
einzelpersonen
ela@@
elektro-
embargo
endem
enor@@
entstandenen
erfindungen
ergebnisse.
erhöht,
ermordet
esten
european
extremismus
ezb-@@
fortzu@@
fortzusetzen,
gebührende
gekämpft
geschäftsverkehr
geschätzte
gkeiten
glaubens@@
gruppen.
hinzugefügt
impf@@
jenem
kanäle
konstan@@
korrigi@@
kuli@@
lar@@
lebens-
lor@@
lung
menschenrechtspolitik
mus@@
praktiziert
prüft
region@@
rän@@
sachverhalt
schäd@@
ses@@
speich@@
stabil
steine
stichhal@@
stir@@
syn@@
umhin,
ungspläne
unterstützte
verhandeln.
verkaufen
verlagert
versprechungen
verzweifel@@
vorgenommen.
völkergemeinschaft
wahlkampf
zell@@
äch@@
/99
abhängigen
aquakultur
ausgleich@@
begegnen,
begünstigt
bemüht.
benutzen,
beschnei@@
bürgerkrieg
d'@@
defizits
dinge.
dokumen@@
drohungen
ehrt
einstellen
engagieren
enter
entscheidendes
entwicklungsländern,
ergänzende
erscheint.
erstattung
fraktionsvorsitzenden
frei,
ganz,
geboren
gebotenen
gelegen
gerechter
geschaffenen
geändert,
harmonisierten
hört,
hürden
iger
intoleranz
katastrophale
kurden@@
minen
nen:
om@@
präventiv@@
quo@@
rechnungshof@@
rechtsordnung
rettungs@@
rückschritt
schikan@@
schlug
schrif@@
schrittweisen
sinnvollen
steigern
strafrecht
summ@@
territori@@
themen.
tzt
ungssystemen
universellen
unkte
untermini@@
verschlimm@@
vordrin@@
vorläufig
wald
weswegen
zielen,
zin@@
zugesagt,
zutreff@@
zuzulassen,
zypern,
übersehen
130
17.30
abhängig.
abänderungsantrag
achtet.
arbeitslose
arbeitsplätzen,
ats
basis@@
bedürfen
beitritt@@
bekämpfung,
beobachter@@
beziehungsweise
büro@@
differenzi@@
dlich@@
dog@@
effizientes
entschuldigen,
erachtet
ereignisse,
erlangen
ernannt
errichten.
europaweite
fälle.
führen?
gegeneinander
gemüse
genutzt.
gesonderte
gleichgültig
ig@@
irgendein
kolumbi@@
kriegsverbrechen
lege
leih@@
malmström
ministerkonferenz
müssten.
patri@@
persönlichkeiten
planen
provinz
reformprozess
schen.
ses,
sinken
sprach,
sprachliche
stabilisier@@
stammzellen
streb@@
te;
trat
trauri@@
treibhaus@@
tunnel
unterliegen,
verordnung.
verursacherprinzip
vorhanden,
w-@@
zugenommen
ñ@@
ökosysteme
1.@@
abkommens,
angemessen.
anspruchs@@
arbeitsgruppen
aufrecht
bali
belan@@
besonder@@
betreibern
beträchtlicher
bewunder@@
billigt
brutale
davon.
eingerichtet,
entfernung
ermäch@@
erweiterungen
funk@@
fähiger
gebaut,
gelassen.
haushaltsführung
interessierten
kontinuierliche
kritisieren
lern
liefert.
litauen,
lächer@@
mc@@
mögen.
nes@@
pen
person@@
präsidentschafts@@
restriktive
schock@@
seattle
sions@@
sozialdumping
stabilitäts@@
telekommunikation@@
tätig@@
umweltausschuß
umweltpolitischen
unnötigen
unterschätzt
unüber@@
veranlasst
verfahrens,
verlangsam@@
verständlichen
verweigerung
vielversprech@@
vorlegt.
womöglich
zöger@@
99
afghanistan,
agra@@
amnesty
angemerkt
ausgeglichen
ausgestat@@
bedanken
beschränk@@
beschämen@@
bestandsaufnahme
bestreben,
bewahrt
bezahlen,
billige
bringen?
bun@@
c5-0@@
dach
dauern,
debattiert
dereguli@@
eintritt
empörung
ersti@@
ert?
exper@@
fehlen.
garanti@@
gedanke,
geführ@@
gespielt.
grundlage.
hinzufügen.
i-@@
indirekten
inhalts
jüngst
kleinst@@
kohäsion@@
koordinator
kümm@@
let@@
menschenrechtsfragen
misstrauen
nachgewiesen
namens
plätze
produkten,
quo
recycling
ruhig
sagt.
sevilla
souveräni@@
ssitzung
staat.
staatlich@@
stattfand,
strä@@
städ@@
technologi@@
teure
unilater@@
verhängung
verschärfen.
vertritt.
vielleicht,
voranbringen
zehntausende
zentralbank,
zinssätze
zustrom
.'
abwicklung
auslands@@
ausstoß
beratenden
beschränkt.
beständen
binden
bosni@@
charakteri@@
denkbar
dür@@
ei,
einwohnern
ersucht
formuliert,
freun@@
g20
gefahren,
gehabt.
gelan@@
geliefert
gerechtigkeit,
gericht@@
gerichtliche
gert
governanc@@
gänge
hauptanliegen
heranführungs@@
hinsicht.
hinzuweisen.
kommunikationstechnologien
konventionellen
legitimi@@
lien
mari@@
mittag
mußten
nah
ostseeraum
pel@@
praxis,
präsidi@@
rangi@@
ratspräsidentin
resultierenden
roth-behrendt
schwellen@@
sensibi@@
soziali@@
spaniens
staates,
strengeren
ta,
tlich,
treu@@
ukrainischen
unannehmbar
unglaublich
universi@@
unklarheiten
unsicheren
vali@@
verheugen,
wahn@@
weitergabe
zeichen,
zon@@
zusammenfass@@
zuverlässigkeitserklärung
zügen
üben
überdenken
übernimmt
+@@
abzugeben,
air@@
angepaßt
angesiedelt
anmel@@
annähernd
ano@@
anstren@@
arbeitslosigkeit.
aufbauwerk
augenblick@@
bangemann
belaufen
beobachtet
bereitstellen,
bestand@@
betrieben,
bewerberländer
dahinter
demografische
derartiges
diskussion.
donau@@
einheits@@
einigung,
einsätze
empfehlungen,
endsten
ernden
exist@@
fehler.
fester
flug
flugsicherheit
folgenabschätzungen
frühzeitig
ganzer
gefühle
gegangen,
gegenleistung
gei@@
geschlech@@
gewinnt
greift,
greift.
grundvoraussetzung
haben!
haben;
herrschen.
hum@@
image
ine
informelle
kommissare,
koppel@@
künstler
leistet,
leug@@
mangels
nro,
persönlicher
probe
problems.
präsentiert
rahmen.
ratifizieren.
rechten,
rumänische
sachverständigen@@
schande,
sischen
somalia
spekte
stark@@
tzung
umsetzung.
unbedenk@@
ungerechtigkeit
verboten,
vergangenheit,
verhindert,
verschieben.
verz@@
vorabend
vorla@@
wandel@@
weisung
willkürlich
zwischenstaatliche
älterer
15,
70@@
abzubauen.
agenturen,
agrarpolitik.
anregung
ansprech@@
arbeitnehmern,
arbeitsplätzen.
argumentation
auftrag@@
belgi@@
bemerkung:
bereitstellen.
besitzstandes
besteuer@@
bestimmungs@@
denkt,
desin@@
dienlich
dimension.
draußen
drückt
durch.
eingehende
einig@@
einleitenden
einspruch
einzuschränken.
eit
entwicklungsländern.
erhiel@@
erschwer@@
erweisen,
eu/@@
folge.
fälschungen
gener
gerei@@
gesetze@@
gesicher@@
gespannt
haager
heranzu@@
hofft,
klassischen
kohärent@@
kostspieli@@
köni@@
la,
lagen,
lama
litau@@
löst
materielle
nennen:
präsidentschaft.
reibungslos
rote
schützt
sozioökonomische
spen@@
strebt
tox@@
untermau@@
unzureichend.
usbekistan
verbindungs@@
vergleichen
vergütung
verhandel@@
verhindert.
vermo@@
vertrieb@@
wachsamkeit
wachstumspakts
widmen,
zuständig.
ón
110
137
53
abzulehnen,
acquis
alismus,
an-@@
ankommt,
armenien
ath@@
aussage,
autonomen
b6-0@@
bank,
beglückwünsch@@
beispiel:
beitrags@@
beschä@@
bittet
bulgar@@
dargelegt.
dischen
effizienz,
einleiten
energieerzeugung
enes
eren:
erläutern
ernster
erweiterungsprozess
evans
fahrgast@@
feldern
finanzierung.
formal
führung.
gefangen@@
gemü@@
gesun@@
gigen
grausam@@
harbour
hoch,
inhaftiert
jean
konfrontation
kraftfahrzeug@@
lösungen.
machung
marok@@
nachgedacht
nachrichten@@
neoliberalen
opfer@@
pakist@@
perspektiv@@
profit
protokoll@@
radioaktiven
reaktions@@
rechtsin@@
schrieben.
sha@@
sla@@
sofortigen
sproble@@
staa@@
staatsanwaltschaft
straff@@
symboli@@
tan
toleri@@
ungenü@@
verpflichtungsermächtigungen
vonstatten
vorbereitet.
wendung
wes@@
zählt.
äm@@
/01:
39@@
4-@@
abgegeben.
abgestimmt,
abhängt,
alo@@
anderes.
anerkenn@@
angelegenheiten.
angeschlossen
anz
assoziations@@
ausländischer
ausmacht.
beachten.
beginnt,
beispielsweise,
belarussischen
benann@@
beschwerde@@
besorgt.
bienen@@
bleib@@
brechen,
doha-@@
drittländern.
effizienteren
einzuhalten,
erfordern,
erste,
eu-weit
europaweiten
europä@@
familie,
feld@@
finanzrahmens
flüchtlin@@
futtermitteln
gefüge
gelernt,
genommenen
geringste
gesto@@
gew@@
gleichgewich@@
großunternehmen
handlungsfähigkeit
heiße
herstellen
hormon@@
inhaftierten
internation@@
kluge
koordini@@
kost@@
kurdischen
lebende
maastrichter
mangelnder
milli@@
mindestnormen
mmer@@
nahost-@@
nördliche
parteien.
persönliches
position@@
programms.
schrift
sierra
sinitiativen
ski@@
stabilitätspakts
stoß@@
strument@@
umlauf
unangeneh@@
ungen?
unterbrech@@
verantwor@@
vere
vergeu@@
verhandlungsrunde
verkürzung
vernicht@@
verpackungs@@
verwei@@
vorbereitungs@@
wartet
wirtschaftlich@@
wohnungs@@
wortes
zeich@@
à
”
13,
abseh@@
abwanderung
abänderungsanträge
achtet,
auffordert,
aufgerufen
ausreichen.
australien
bedarf@@
beenden,
bekommt,
beobachtungs@@
bereiche.
brennstoff@@
deponien
einzelplan
empfohlen,
en".
entgegen,
entsand@@
entscheidet
erlass
ermessen
erwartete
fachleute
freiwilligen@@
gers
getätigt
gewahr@@
gleichberechtigt
grenzübergreifenden
iran@@
klimaänderung
kol@@
korruptions@@
legen?
licheren
maßnahmenpaket
medikament@@
militarisierung
näch@@
osterweiterung
pra@@
progressiven
ratifizieren
rechtsausschusses
reibungslose
reno@@
revi@@
rohstoffen
rücken.
scher@@
schwächen.
sendungen
sicherheitspolitik.
siert,
sinne,
sokrates
standpunkten
tigte
truppe
tums
unabdingbare
uneingeschränkten
ungerech@@
unterricht
unterscheiden,
unzählige
vater
vergehen
verlagerungen
vermei@@
verschaffen
veröffentlichen.
viel,
visum
vorschlags,
vorsitzenden,
wahl,
wirtschaftszwei@@
zivilgesellschaft,
zugehört
zurückkommen
zustellen,
überschuss
4,@@
angebracht.
anklage
annäher@@
archi@@
aust@@
bade@@
bedauer@@
beklagen
bekämpfung.
beschleunigen,
besitzstands
billigen.
burma
byrne
cr@@
dach@@
deckt.
dens
diplomati@@
diskutier@@
doha-runde
durchschnit@@
effekte
einzeln
ermittelt
eröffnen
feind
feuer
flugzeugen
formulieren,
fru@@
gasp@@
gefäll@@
gefördert.
gehörte
gend@@
geschlechts@@
geschwächt
gesprä@@
gründungs@@
hm@@
italiens
kanische
kapitalismus
knappheit
legitimation
lisieren.
mccar@@
menschenrechtsaktivisten
mindestmaß
mitgewirkt
mung
natürlicher
nützlichen
obama
oecd-@@
operativen
opfer.
organe,
pazifi@@
pe
planungs@@
sarkozy
schaden,
sekretari@@
spezial@@
stal@@
szenario
tatsäch@@
teilzunehmen,
ton,
umri@@
unentbehr@@
unzu@@
usd
verbieten
verboten.
verhandlungstisch
verschwin@@
versuchen.
vertrags.
verübt
vestitionen
vir@@
vorab@@
vorbehalt
wurden?
zentra@@
zusammenleben
zwi@@
05
2007,
abziel@@
akademi@@
aktivitäten,
algeri@@
anla@@
arbeitsp@@
arten,
aufgeben
aufhalten,
ausgeben
barbar@@
beabsichtigen,
bedeutsame
bedürfnis
beinhalten,
benachteiligung
berichtigungs@@
beschluss,
bezweifel@@
chter@@
davor,
ding
durchschnitts@@
einander.
einfü@@
einzuhalten
erasmus
erhebt
fahrt@@
fangmöglichkeiten
festzulegen
flotten@@
flüchtlinge,
fußball
geldes
gestärkt.
groß.
grundrechtecharta
gy@@
hervorgerufen
hut
kennen@@
kmu-@@
kommission:
konserva@@
kooper@@
korrigieren
kunst
mitteilung,
mißtrauensantrag
nachbarschaf@@
pestizide
pflicht@@
pharma@@
plu@@
portugals
pro-kopf-@@
propagi@@
prozess.
rahmenvereinbarung
riesen@@
schwerlich
slowakei,
sprung
staatlich
stetig
stex@@
terroristischer
tisch,
transfer
trifft,
us-dollar
vereinbarungen,
vergewal@@
verspätungen
vertraulichkeit
weihnachten
werkzeug
werte.
zeichnet,
zeitrahmen
zweck,
"wir
%@@
2006,
58
albanischen
angegriffen
aufschub
aufweisen.
ausgeglich@@
ausmachen,
begnü@@
daphne
dran@@
einigungs@@
einwoh@@
endet
engagieren.
entwicklungshilfe@@
ergebnis.
ernst.
eu-mittel
fortgesetzt.
fällige
gedenkt,
geheimen
gerufen,
graefe
grun@@
grund.
heimatland,
hitz@@
identi@@
iv
kohärent
kos
kung
langwieri@@
leitungen
liban@@
lich:
loses
manipuli@@
materie
mineral@@
musste,
nung,
obergrenzen
oze@@
parameter
plün@@
politische,
priorität,
produktionen
präferenzen
schadstoff@@
schifffahrts@@
schwierigsten
sparen
spreche,
sz@@
tags
teilhabe
trifft.
umstritten
umweltschutz,
ungleichgewich@@
venezuela
verleiht
vermittlungsausschuss
vorstellung,
warenverkehr
warnen,
wirtschaftswachstum,
zufü@@
zuzustimmen,
überschreiten
2000-@@
90er
abzuschließen,
abzustimmen,
anden,
angelan@@
angesetzt
annahme,
antrag.
arbeitslosenquote
au,
aufgreifen,
ausfallen
ausreichend,
aussa@@
außenpolitik,
begrenzt.
besorgnis.
betrüger@@
bour@@
dän@@
einher@@
element,
elite
englische
entsprochen
erfähr@@
ergänz@@
erscheinung
flori@@
gefallen.
gefährlich,
genießt
geor@@
gering@@
gewalttaten
gewer@@
gleichbedeutend
grünbuchs
haltungs@@
haushalt.
herzen.
imperialistischen
indirekte
irgendetwas
kranken
krea@@
kurz,
legislativvorschlag
leistungsfähigkeit
mas,
matisch
mauretanien
militärs
nachah@@
nenner
nisse,
ordentliche
ost-@@
potenti@@
prüfungs@@
py@@
rechtsgrundlagen
regional-
reichlich
reproduktiven
rothley
schuldigen
sied@@
somali@@
sozialversicher@@
ssten
stabilität.
steten
straftat
taus@@
termine
tisch.
tlichem
tspolitik
umfangs
umgestaltung
unden,
verfolgte
versorgung.
vorantreiben
vorräte
vorzulegen
wecken
weitgehende
wurde?
wä@@
zerstört.
zusicherung
affäre
allgemeinheit
ausgerichteten
ausschließliche
balkanstaaten
beantragen
berlusconi
bescheid
beschränkt,
bestrebt
briten
cotonou
darlegen,
digung
dlicher
droht,
einsetz@@
embargos
emissionshandel
eriode
erscheinungen
etikettier@@
europäerinnen
feier@@
feststell@@
finn@@
fischereiausschuss
fluss@@
fontaine
formellen
forschung@@
geben:
gedank@@
gegenzug
gelitten
gelungen.
genehmi@@
gewählt.
glichkeit
hilfsmaßnahmen
hoff@@
händlern
infizi@@
informationskampagnen
instanzen
interkulturellen
inwiefern
isla@@
jun@@
komponenten
konsums
kten.
marken@@
may@@
musste.
nisses
normal
oberfläch@@
oostlander
posi@@
premierminister,
produktionskosten
punkt@@
rechtfertigt
repräsentiert
rest@@
schicken
schutzbedürf@@
schwankungen
schäden,
sicheres
sinteressen
sklaverei
straßenverkehrssicherheit
subsidiaritätsprinzi@@
text@@
tony
u.a.
umfassen.
ums.
unangemessen
vehement
verbreiteten
verliert
vermögens@@
verwehr@@
vorbereiten
vorerst
vorwiegend
werften
wieviel
wind
wogau
zerstören
änderung,
überschüsse
ablen
akzeptiere
antrag,
anzuerkennen.
audiovisuelle
auftragsvergabe
ausgeschlossen.
baldige
befra@@
berühmten
beschleuni@@
chin@@
clu@@
diert
diskriminierung.
einbringen.
einräumen.
entsprechendes
ergänzen,
erische
erklärung.
erweitern,
fahren.
fau@@
festung
flüsse
fuß@@
fühlen,
gabe
genera@@
generalsekretärs
gentech@@
gesammelt
gipfel,
gischer
heiz@@
intensivieren.
jahrzehn@@
konvent@@
kritischer
lektion
ller
malaria
modernisier@@
mussten,
nachher
nehmer
netze,
niederlage
niederlanden,
niedrigsten
parlamente,
parlamentspräsi@@
pensions@@
ps,
ratsvorsitz,
reformen.
schnellere
schwierigkeiten.
seen
sel
senden.
sinnvoll@@
sinnvoller
stad@@
stützen,
tatsa@@
tenden@@
tschech@@
ultra@@
unterstützten
verschärfen
wachstum.
weni@@
wertvoll@@
würdigen,
zusammenhängenden
zusätzliches
zuverlässig
übung
2000.
350
administration
aids,
allein@@
anfälli@@
annulli@@
anzupassen,
arb@@
arbeitern
ash@@
audi@@
auseinandersetzen
aushandlung
ausnahmslos
ausweisung
batterien
bekräftigen
beleg
belieb@@
beruh@@
bigkeit
chirac
chter
die@@
dringendsten
ebensowenig
eil@@
ein-@@
einbringen,
eingriffe
eng@@
entbehr@@
erträge
existieren.
festgestellt.
finanzinstrumente
fischer,
gefragt.
gefälle
gemeinschaf@@
geprä@@
gerung,
gründet
herausforderungen.
hinnehmbar.
inspe@@
investition@@
isolation
kapitali@@
kernkraft
kirchen
klimaschutz
käl@@
land-
loh@@
mag.
margin@@
merkel
my@@
mächtigen
nachfolgenden
partnerschafts@@
polens
ppe-fraktion
retten.
revolution@@
räumen,
rückgängig
schande
schien
schienenverkehr
seeleute
sieben@@
sitzen,
sommer@@
sonntag
ssystemen
stich
sturm
tum
tum,
unterschrift
verursacher
verwaltungsausgaben
virtu@@
vorläufige
vorteilhaft
weihnachts@@
wiesen
ziel-1-@@
übertragungs@@
abzielt.
agrar-
anerkennt,
ang@@
anstreben
aufwand@@
ausgegangen,
ausreicht.
bes
bestimmt.
bewältigt
brasili@@
d'ivoire
demokratisier@@
digt,
egel@@
ehren
einfließen
engagement,
entlang
entzogen
erdgas
ergibt,
ermitteln,
ff
fläch@@
flüssi@@
fon@@
furcht
garant
gebäu@@
gef@@
gemeinschaftsorgane
gerettet
gewährten
gie@@
gla@@
gramm
haus.
herkunftsland
intensiviert
inverkehrbringen
kab@@
kasachstan
kodifizi@@
kommissionspräsident!
kontrollen,
ktionen,
kultur.
lebensmittel,
maßgeblichen
meistens
merkmal
mittelständischen
mou@@
nenn@@
nov@@
ohren
organisations@@
pausch@@
präsidiums
quästoren
radik@@
rechtssysteme
reformi@@
reproduktive
russland@@
schaden.
scht
sionen
soli@@
spät,
standort@@
stattgefunden.
stern
stoppen.
stor@@
strafgerichtshofs
städtische
teilnehmern
trinkwasser
ungerecht
ungspolitischen
unternehmern
uran
verdien@@
vereinigungen
verwechsel@@
vorweg@@
vorzü@@
wahlrecht
wahrlich
wahrscheinlich,
wasserstoff@@
welthandels
wieder.
zugesagt
überlegen
überzeugende
übliche
's
2,5
abgeordneter!
abzug
agen@@
allgemeines
arbeitszeiten
aufgeh@@
aufgreifen.
begründet.
begrüße.
belarus,
beschaffungs@@
besuchs
bewerber
bewäl@@
bt,
computer
dschi@@
dürfte.
effektives
einander,
entwicklungsziele
erober@@
erworben
erzeugen
etikett
ey@@
ferrero-waldner
festlegt,
festlegt.
finanzmärkten
gegenwär@@
gelenkt
geplant,
geschätzt
gesetzte
gesprächspartner
gig
günstig
herange@@
identifizierung
ierenden
ignorieren,
insgesamt.
islamische
japanischen
journalisten,
kehren
komplex@@
kopenha@@
kriterien.
ktiv@@
lichste
mittelmeerraums
märkte.
nachkommen.
nahrungsmittelhilfe
offensive
pflichte
phare-@@
psychischen
relevante
rückstände
sanktionen,
schicken,
sicherheitsrats
skepsis
sowjet@@
staatsbürger
streck@@
strikten
tigung,
totalitären
usw.,
verbreitete
verbrin@@
vergrößer@@
vorgegebenen
vorschrif@@
waldbrände
wiederhergestellt
zuwanderer
öffentlich-rechtlichen
überschreit@@
übri@@
46@@
59
6/@@
afrika@@
altersversorgung
analysieren,
anschauen,
antragsteller
auftrags@@
außergewöhnlich
beamten@@
benannt
bereicherung
beschäftigte
bomben@@
danach,
demen@@
dienstleistungssektor
diox@@
dynami@@
entlastungsverfahren
entschädigungen
erledigt
erzeugni@@
ets
fasch@@
fuß
fänge
fördert,
g20-@@
genann@@
gri@@
größ@@
hat;
kanischen
kapazi@@
kle@@
kontroversen
leitlinien,
ländischen
machbar
madeira
männer.
na
ologisch@@
persön@@
produzieren,
recht:
reibungs@@
restriktiven
schlußfolgerung
schrecken
schrieben
spani@@
station@@
stillegung
sturz
teurer
text.
tiefer
tigeren
umfasst,
umweltprobleme
unterdrückt
ur.
ver,
veranlasst,
verhaltens
verlängern.
verstanden.
vorausschau@@
wales
weist.
weiterführung
weltbevölkerung
wichtigkeit.
wirklicher
zeitliche
zulass@@
"das
57
63
abgelaufen
abschlüsse
akt,
anerkannte
aspe@@
asylan@@
athen
aufgestellten
aufzuheben.
ausgesetzt,
beantragen,
bekräftigen.
belangen
benötigte
beschluß@@
bosnien-herzegowina
brände
dient@@
drittstaatsangehörigen
drücken
ehemaliger
eingeschlagen
einschließt.
einsei@@
entsprech@@
entziehen
erstellt,
finanzierte
fonds@@
fortschritte.
geiseln
gemach@@
gerichtshofes
geschäftsordnungs@@
gewohnheiten
gungen.
handlungsbedarf
helf@@
hinnehmen.
hou@@
höhepunkt
ideologi@@
importen
interessen.
internets
kernkraftwerken
klingt
konstitutionellen
korrekten
kraftfahrzeugen
kritisieren.
kunden@@
landwirt
leh@@
lenk@@
lächerlich
ma.
manipulation
marktöffnung
migrationspolitik
mol@@
nahrung
niederlande,
nirgendwo
noch.
obje@@
obligatorisch
palästin@@
prämien
punk@@
quer@@
radikal
realistisch@@
rechtsgrundlage,
rett@@
richtig@@
ruf@@
sagen?
signifikan@@
sogar,
sprozes@@
staatsangehörigen
stun@@
substan@@
sur@@
taten.
terin
ti
tiefgreifende
tierversuche
treibende
umfrage
untätigkeit
velzen
verdanken
vergabe@@
versichere
versproch@@
verändert,
warnungen
weit.
wetter@@
wirtschaftstätigkeit
yn@@
zeuge
zugänglichkeit
zunehmen@@
zustellen.
zweckmäßig
ämter
és
überarbeiteten
überprüfungen
aktualisiert
an:
anteile
arbei@@
as,
aufrichtigen
bak@@
barroso@@
befürchten
bergbau@@
binnenmarktes,
cox
darzulegen.
dokumenten:
eg-vertrags
emission
erheblichem
erlitten
erwachsenen
feststellte,
formulieren.
freundlich
fär@@
gau@@
gleichberechtigte
golf@@
haushaltspläne
herausragende
hervorragendes
hierüber
hisbollah
hon@@
ie
infla@@
ini@@
innenminister
innenpolitik
innenpolitischen
jemandem
juncker
justizbehörden
kas
kofi
kommunal@@
kompensa@@
kriminalität.
können:
lebensmittelsicherheit,
linken/nordische
lkw
logisch
marktes,
meda-@@
müssen?
natur,
nielson
nord
ologische
pal@@
produkte.
projekten,
regierungskonferenz,
sicher.
sozialschutz
steck@@
stieg
stresstests
tensi@@
tibe@@
unmittelbarer
untersuchungsausschuß
untrennbar
verab@@
verdeutlichen,
verdoppel@@
verringert.
verschlechtert.
verteidi@@
verursacht,
vita@@
weine
widerspiegeln
widersprechen.
zuständigkeits@@
ändert.
öfter
überwachung,
103
20-@@
2005,
54
abgegeben,
abwarten,
allemal
andauernden
angeblichen
anpran@@
anten
argumen@@
arme@@
aufrich@@
ausdrückliche
automati@@
basel
behoben
beispielen
beistand
belegen,
benachteiligte
beobachtern
berat@@
berichtet,
beschlußfassung
betragen
bezeichnet,
brutalen
destabilisier@@
deutscher
dürfte,
eigenständige
enthiel@@
erli@@
fachen
freizeit@@
freundschaft
gelangt.
gelesen,
geschlechts
geschlossen,
geschäften
getragen.
greifende
ham
handelspolitischen
hard@@
informationskampagne
investment@@
irak.
jahres.
kari@@
kons@@
konservative
konzertier@@
koordina@@
kreuz@@
käu@@
lateinamerikanischen
legislativvorschläge
luxemburger
mccreevy
moderner
monaten,
nation,
netzwerk@@
nt
optimistisch
ost-
programmi@@
rob@@
räumen.
s;
sanktions@@
schnitten
schulen,
sehn@@
solana,
solche,
späten
standards.
tage,
tai@@
terweise
trink@@
umweltauswirkungen
unfähig
unser@@
unternimmt,
ursprungs
verhängnis@@
verlan@@
vermehrt
verschwunden
vertief@@
verwirklich@@
voran,
vorübergehenden
wahrzunehmen.
wege,
wenig,
würdi@@
zentralasien
ziger
öffentlich-@@
.“
abbau@@
afrika.
allesamt
alli@@
aly@@
anders,
angst,
annimmt.
assoziier@@
ausschlaggeb@@
bay@@
bedeutsam
beibehalten.
bereitet.
beschlüsse,
bewaffnete
bige
bulgarien,
demonstri@@
deutschland.
dimension@@
einschlagen
empfänger@@
en."
erwarte,
erwerb@@
euroskep@@
existieren,
ez@@
fang
fazi@@
fet@@
flaggen
früherer
gearbeitet.
gebaut.
gefährlich.
gegenseitiges
gerungen,
gewäss@@
grenzüberschreitend
h-@@
hinausgehen
immuni@@
innenpolitische
jedwede
ji@@
katastrophe.
kennt,
ket@@
kilo@@
kraftstoff
laufend
line@@
mani@@
maßgebliche
mitglieds
muster
nation@@
osttimor
personen.
prinzipi@@
pro-@@
profil
prozes@@
prozesses,
quecksilber@@
regierungsführung
s&d-fraktion.
schaden@@
schwedens
spannung
spezielles
spüren.
sterckx
streichen,
stürz@@
südens
tagen,
textilien
tibet@@
tschaf@@
ungenen
unklar
untersuchungsausschusses
unverzügliche
verbinden
vereinfachen,
verlierer
veröffentlicht,
vielfalt.
vor:
vorbei
wohlbefinden
zig@@
zukommt,
zypern@@
übersehen,
20,
56
abweichungen
aktivere
albaner
anc@@
angestellt
anwal@@
arbeitsmarkt,
aufrichtig,
auszudehnen.
beeinträchtigung
befugnisse,
begleitung
begründet,
berechtigt,
besatzungs@@
beschäftigungsp@@
bewirtschaf@@
binden,
boote
bou@@
cia
denken@@
durchsetzen.
ei.
einander@@
einblick
eintra@@
entscheidung@@
epidemie
erfolgreiches
ermitteln
ernsthaf@@
erstattet
erwirtschaf@@
erzeugnis
europe
falsches
feindlichen
finanzierungsinstrument
formulieren
fraglichen
frieden.
ganz@@
gebenen
gehol@@
gesu@@
gewissens@@
grenzregionen
grenzübergreifende
grundsätz@@
heiß@@
hinausgeht.
humani@@
indonesi@@
inhaber
interessan@@
intermoda@@
irak-@@
justizielle
ka.
kapitalistischen
kontamini@@
konten
lett@@
liefert,
lizenz@@
lobby
mais
mie
neun@@
pein@@
phase,
pipeline
primär
quer
redner.
regula@@
reib@@
rh@@
rücksichts@@
saatgut
schrift@@
schätzung
sichtbare
sper@@
sproje@@
stammen,
südkorea
terroranschläge
tia@@
tierischen
transports
umstand,
ungünsti@@
unnachgie@@
unverzichtbar
us-regierung
verhältnisses
vernich@@
versäumt,
vertieft
verwaltungs-
verzögert
veto
weitergeführt
wendepunkt
zuliefer@@
zweifelt
zügige
ó
öffentlichkeit.
amerikanischer
angehören
angehört,
bangladesch
barkeit,
barrot
bedeutsa@@
berichts@@
berichtsentwurf
bestimmung,
chemi@@
cho@@
demonstrieren,
dis
dolmetscher
effizienz@@
einsehen,
einstimmige
entfallen
enz.
erörtert,
feira
fiel
fischereiressourcen
folgendes:
frastruktur
futter
gang.
gelegen@@
geln
gemeinschaftsmethode
genießen,
geschlagen
globalisierungs@@
heftig
häusern
inneh@@
internet,
kairo
kommentar
kredit
laut@@
maße,
meerespolitik
militärisch
mit.
nahe@@
nissen,
noch@@
nützlich,
preise,
regelung.
regelungen.
reif
risk@@
räte
schwa@@
schwächeren
skeptisch
son
spezieller
sprogramms
sprozeß
stimmverhaltens
straß@@
stärkerem
südafri@@
texten
umgekehrt.
verbinden,
vereinfachte
verhaf@@
verlusten
versamm@@
verspätung
verwehrt
verzweiflung
verüb@@
vollständiger
voranschreit@@
voranzutreiben,
währung.
zigaretten@@
zusichern,
!"
/2006
abteilung
akti@@
aktionsprogramms
akzeptablen
alde-fraktion
angebots
attraktiver
ausgedrück@@
ausgehen.
ausgerechnet
beeinträchtigt.
berater
beschaff@@
beschäftigungsmöglichkeiten
bevölker@@
bilater@@
blau@@
blöcke
chancen,
diesjährigen
dokumente,
ead
en'
engagierte
gang,
gazastreifen
gefördert,
genauere
geste
gewinner
guthei@@
hie@@
integrieren
invasion
jemen
jener,
jetzt.
justiz,
kaffe@@
karas
katholi@@
komplexes
konzer@@
kr@@
lar
missstände
muster@@
mütter@@
populi@@
prinzi@@
profit@@
psychische
ratifizi@@
redebeiträge
ränken
räumt
schere
schifffahrt
schlo@@
sorgt,
statisti@@
stimme.
ständig,
synthe@@
team@@
teilten
tent@@
teres
tismus
transportiert
treiben.
trop@@
träum@@
tti
umweltin@@
unbestreitbar
v.
verfahrensweise
vergangenheit.
verkehrs.
verläss@@
verzöger@@
vorgenommenen
wiederholt.
zusamment@@
zustands
zustände
zwin@@
ände
östliche
übergeben
14,
absur@@
akzeptier@@
an?
anerkann@@
arbeitszeitrichtlinie
arten@@
auszuweiten.
automatischen
außergewöhn@@
beabsichtigtes
bedürfen.
beeinflusst
behandlung,
beruhen,
bildet,
bourlanges
demo@@
deswegen,
eien
empfehlung,
enswerte
entwicklungen,
erläuterung
esischen
eu-erweiterung
fließ@@
fort,
fs
fällig
führte.
gedacht,
gelo@@
gewährt,
glauben.
gle
großbritanniens
heimgesucht
häufigsten
impul@@
inspiri@@
interessant.
internationalem
japan@@
jon@@
jä@@
jüngeren
klarere
kommen:
krankheit,
liberalisierung,
litä@@
ly@@
mobil@@
mund
offensichtliche
oppositions@@
passieren,
path@@
pensionsfonds
problems,
programmen,
prävention,
respektierung
run@@
schweizer
sorten
sowieso
spart
spekt
sproblem
ssenen
stitu@@
stoppen,
stö@@
tivi@@
umwel@@
verschwinden.
verschärft.
vielfältige
vorbereiten,
vorzusehen,
wahren,
westeuropa
wirtschaftskrise,
zerstören.
zogenen
zwecks
ück@@
2010.
abgrenzung
angola
anlagen,
anwen@@
aufgezeigt,
auflösung
aufzustellen,
bah@@
benutzung
beträch@@
breitere
bruch@@
de:
desa@@
diktaturen
drastischen
einigungen
einnehmen,
einzutreten.
empfinde
erläutert,
erzw@@
europa-mittelmeer
faires
feststellen.
fleisch,
formalen
fortfahren.
freiem
fundierte
gegenüberstehen.
gemeinschaftsmittel
genannter
gerungen
gewes@@
gibt?
gil@@
glaubwürdig@@
habi@@
haushaltskontrollausschuss
herman
hygiene@@
ignoriert.
inflationsrate
intensität
jen@@
kanz@@
kehren.
kollegi@@
kontrollierten
koordinieren,
krankheits@@
ktivi@@
lernens
licherweise
lück@@
minderheitensprachen
ministerin,
nacht@@
nützliches
off@@
palästinens@@
potentiellen
reform.
rocard
rücknahme
schadens@@
sprachen.
stabilitätsp@@
stechnischen
stecken.
sterben.
theorie
tspoliti@@
turen
umfaßt
ungehindert
unmittel@@
untergräbt
unterzeichnen
verantwortungsvoll
verhältnismäßig
verkaufen.
verkaufs@@
verkehrsmittel
vermittel@@
vernünftiges
versagt
vierzig
vorausgesetzt
vorrangiges
wahrnehmen.
widerspru@@
widersprüch@@
wünscht.
zä@@
ökologisch@@
übereinstimmen,
übergangs
übersetzt
/98:
2009.
absehbarer
angelegten
arbeitgebern
arbeitnehmerrechte
asean-@@
assoziationsabkommen
ausdrücken,
ausfuhrerstattungen
ausführte,
ausschließlichen
auszuschließen.
ball
banden
bauern@@
bedeutendes
begründeten
begrüßenswert,
beklei@@
bekommt.
bekräf@@
benutzer
beschlo@@
besitzer
besuche
bräu@@
bundeskanzler
bürokratie,
chtern
demonstra@@
drit@@
ed
eindeutiges
eingeh@@
entfal@@
entscheidet,
erfolgten
erkenntnis
erlaube
evaluierungs@@
fahrzeuge,
finanzierungen
fr@@
freiwilli@@
gehindert
geisti@@
geknüpft
gelöst,
georgiens
geraumer
gerweise
gescha@@
getrieben
gf@@
glied
glückwünschen
go,
gonzález
grupp@@
haftungs@@
heißt:
hochwasser@@
hunger@@
häftlin@@
häu@@
höchstem
immense
inen
informationstechnologie
inselregionen
institute
izi@@
kategori@@
koali@@
kommun@@
kontraproduktiv
kritisier@@
marke
marokkanischen
media
meldung
methodik
minderheiten.
missbräuch@@
mitbestimmung
morali@@
mängel@@
nach.
nein.
nochmals,
nähr@@
offizi@@
oren
pakistanischen
paradox@@
protektioni@@
präsidentschaften
reaktion@@
reguliert
retten,
rie
rüstung
s!
sachlage
schleich@@
schro@@
sektors,
sensi@@
sichert
spraktiken
stoßen,
tionspolitik
tisches
treibhausgase
trin@@
umgegangen
umweltausschuss
unerläß@@
unterhalten
vergi@@
verordnungs@@
verta@@
verzeichnen,
veröffentlichte
vollstreckung
vorstellen.
völliger
wettbewerbsfähigsten
wolle
wurde:
zersplitterung
ziell
zoll
zugän@@
übergang@@
überschu@@
anfangen
angehoben
anschlägen
attraktiv
ausrüstungen
ausschü@@
been@@
beginnt.
bekräftigt.
bel,
beraubt
bereitet,
bestünde
but
definierten
eile
eingriff
engl@@
essen@@
feindliche
fischer@@
fischereisektors
fischler,
flank@@
flüch@@
gebiets@@
gefahren@@
gefährdet,
geholt
gemeinschaftsvorschriften
greifbare
großzügige
grundstein
gunsten
gültige
harmonisieren.
informi@@
intelligenten
irgend@@
japan,
kalender
konsens@@
konsultations@@
kunde
landminen
lannoye
lücken@@
makro@@
minderjährigen
nordir@@
nä@@
ostsee@@
perfekt
provozi@@
que
ret@@
rum@@
schuss
seitige
sichergestellt,
sicherheitskräfte
sil@@
sitzt
siven
soforthilfe
spende
ssystem,
stimmverhalten:
stolz,
strahlung
strukturfonds.
strumenten
sweise
tenor
thematischen
tigungen
transeuropäische
umweltfreundlicher
verbün@@
verdeutlich@@
verdeutlicht,
vereinbaren
verfahrens.
verordnungsvorschlag
verständlicher
verständnis,
verwaltungsrat
viel.
vorzunehmen
wichtigere
wirtschaftspolitik,
würdigen.
za
zunächst,
zusammengefasst
"der
12.@@
1999,
2000-2006
62
abschließen.
absprachen
abstra@@
ada@@
agentur,
angewiesen.
angol@@
ankurbelung
anwesend,
arzt
asylbewerbern
aufen
ausgedehn@@
beauftrag@@
beauftragte
bedauerlich.
beiseite
beteiligten,
billigen,
bürgermeister
bürokratisch
coelho
der-@@
dialog@@
dies.
diff@@
differenzierung
diktator
durchführbar
eingeräumt,
entstanden,
erachte
ergebnisses
erschi@@
eu-haushalts
euch
fehlender
fortschritts@@
frühjahrstagung
fußgän@@
führte,
garantiert,
geringfügige
gerückt
geschwindig@@
gleichen.
gleichfalls
grä@@
hinzuzufügen.
instrumentarium
irri@@
kenntnissen
klimas
klimaschutz@@
kodifizierung
konform
konser@@
konsulta@@
kostenlos
kraftfahrer
lebensmittelpreise
lings@@
map
mehrheit.
nationalität
nü@@
opti@@
preis.
raumfahrt@@
regierungen.
rinder
riskan@@
romano
schnellstens
seiten.
stru@@
substanzielle
tragödien
täre
umstrittenen
ungspflicht
unternehmen?
verkäufe
verlässliche
vernetzung
versteh@@
verständlich.
vorlie@@
vorzubereiten,
weisheit
wenig.
wirtschaftsbeziehungen
zitiere:
übergehen
übertrieben
13.@@
16,
2004,
absätze
adop@@
agenda,
ance
anfang.
angewiesen,
ausnahmsweise
aussage@@
beharrlichkeit
beitrag.
belegen
bewerberländern
bewirtschaft@@
bezo@@
bindungen
bonino
deutschlands
diversen
einfach:
einmal:
einreise@@
einwand
enswert
entschieden@@
erkann@@
eth@@
fahrzeug
familienzusammenführung
finanzi@@
flut
fortbildung
fünftens
gabe,
gebunden.
gefallen,
gemeinnütz@@
gemeinschaften,
generi@@
gewonnen.
gleichem
golf
gottes
griech@@
harm@@
hauptverantwortung
hege
herkömmlichen
interpretiert
itali@@
kaka@@
kernkraftwerk
klimapolitik
kommissaren
kontrollsystem
korrigieren,
lam@@
lauten
lebensweise
minimal@@
méndez
nahe,
new@@
ordentlichen
pauschal@@
plötz@@
radi@@
reglemen@@
rigor@@
roamin@@
schenken,
schmuggel@@
sozialleistungen
sphase
ssektor,
standorte
stößt
taten,
tend
treffend
umweltfreundlichen
ungspoliti@@
urlaub@@
veranschla@@
verhalten@@
verschlimmert
vorgehens
völligen
wachstums-
waffenstill@@
wahlen.
wird!
wissenschaft@@
wurzel
zeile
zukommen.
übersicht
2003,
4/@@
abscheu@@
alarm@@
amtssprachen
anderes,
anknüpf@@
arabische
ausgeräumt
ausgeüb@@
beabsichtigen
beauftragt
beeinflussen,
behauptung,
beloh@@
benennung
britischer
brüche
buchstaben
burundi
diktatur@@
disziplinar@@
drama
einbeziehen,
einheitswährung
einschränken
empfinden
engagi@@
entführung
erniedri@@
exportiert
fangen,
feststellt,
flügen
gabe@@
geordne@@
gesen@@
gesteckt
gesund
geänderte
grundrechte.
gui@@
hervorragender
ideologische
indessen
informationspolitik
iran.
kandidatur
katalysator
kau@@
ken:
kinderbetreuung
kollektiv@@
komitologie@@
konstitu@@
kontinuierlichen
letzten@@
liberal@@
matik
nachgewies@@
nutzern
offenes
paten@@
petitions@@
programme.
provoka@@
präsidentin.
präventions@@
rascher
reicher
richt.
rund@@
sprichwort
spürbare
staatsangehörigkeit
steigt,
stete
stin@@
strafrechtlich
struktur-
teilzeit@@
trit@@
tsam
unbestrit@@
unpartei@@
unterschiedlich.
verabschie@@
verfasserin.
vernichtet
versäumnisse
versäumt
verwickelt
ze,
zeigten
zucht@@
zuvor.
zwänge
ön@@
!@@
2009,
3/@@
34@@
6-@@
adoption
aggressi@@
anden.
arbeitsmärkte
atomenergie
attra@@
aufbaus
aufwendungen
außenpolitik.
bara@@
beschwör@@
beschäftigungs-
bestimmungen.
beunruhigende
com@@
debattieren,
diskussionen,
diskutierte
effizienz.
eindrin@@
elektronischer
energieversorgungssicherheit
enormes
erarbeitet.
erdbe@@
erkenntnissen
eta
etes
existi@@
finanzsektor
fischereifahrzeuge
galileo-@@
geographische
geprägten
gesamthaushaltsplans
gleichzeitiger
goo@@
grundrech@@
haushaltsverfahrens
herausbildung
hervorheben:
hervorra@@
hnen
hochgeschwindigkeits@@
integra@@
jahrhunderte
kenia
konkurrenten
konsist@@
konzipiert
krimina@@
lehn@@
letzteres
mdep
medizinischer
menschenrechtsrat
minderheitenrechte
minister.
ministeri@@
missi@@
misst
mittelfristigen
mitzuteilen,
munition
müssten,
nachweislich
nein@@
nepal
nichtregierungsorganisationen,
nichtverbreitung
osi@@
parlamentariern
polizisten
potenzi@@
qualifika@@
randzio-plath
reife
rhetorik
risikobewertung
roma,
rundfunk@@
schwersten
sein;
sho@@
sicherstellt,
sichtig
sparen,
spoliti@@
stellenden
stemp@@
sträger
stunden@@
tacis
ti,
timor@@
titley
tors
tär
täten.
ungeheuer
unterhalten,
verdanken,
verfahren@@
vergangen,
verschieben,
vertrauen.
vertrete,
verzich@@
verzichtet
voranzubringen,
vorgeschriebenen
wechselkurs@@
weil@@
weiterhin,
wohnungen
zitieren,
älter
abwes@@
alter,
arkti@@
ausgedrückt,
ausrüst@@
befürch@@
beizubehalten,
bekunden.
berichte:
bezeichnen,
bösch
chron@@
demü@@
diszipli@@
donau
einhergehen.
einnahme@@
eintritt.
eisenbahnunternehmen
endergebnis
ene,
erdenkliche
ermunter@@
ernst,
erreichbar
erreichen?
eu-vorschriften
eurorau@@
fachleuten
fair,
fairness
fischerei.
freundschaf@@
friedens,
frontex@@
fundi@@
fähig,
gaben.
gebraucht,
geein@@
gemeinsam@@
geopfert
geplant.
geschlossen@@
getränke
geöff@@
gäbe,
hil@@
hindernissen
indikator
inhalten
juli@@
klü@@
kommenen
konkur@@
künst@@
langwierigen
lateinamerika@@
life
lla
meilen@@
mängeln
nachbarn,
ons@@
opposition@@
peters@@
ppe,
produktivitäts@@
qualifikations@@
rahmenabkommen
reformieren,
registriert
sacharow-preis
schieben
sechste
sofor@@
sprich@@
stille@@
tabakanbau
technologischer
teten,
tetes
these
tot
transfer@@
typen
umgeb@@
umstrukturierungs@@
ungspolitische
ungsprojekte
ungssektor
unterschie@@
unterzeich@@
unterzeichnen.
unterzeichner
verkaufen,
vertiefen
verwalt@@
vierzehn
vorgänger
vorran@@
waffen.
wasserversorgung
weises
wertet
wohlstand,
zentr@@
zone,
zuzulassen.
zweideu@@
är
überdenken,
überprüfungs@@
überwältigende
-kommission
asean
aspekte.
aufrechterhalten.
auftre@@
ausgeht.
ausschuss.
beantragen.
beibehalten,
bemerkungen.
benachbarten
binnenmarktes.
bowis
ce,
chemikalien@@
day@@
deuten
eigenem
eingehenden
einstellungen
einzuräumen,
elt,
entstanden.
ep-@@
ermittl@@
errichten
erschweren.
erten,
es?
fac@@
festlegungen
finanztransaktionssteuer
flexib@@
formelle
four@@
funden
gan
gange
gebühren@@
gefälli@@
geleitet.
genda
generaldire@@
gerechtere
gestanden
geäußerte
glob@@
grundlegen@@
grundwasser@@
haltungen
hieß
hinweis,
höher@@
ien,
inde@@
investitionen.
italien@@
jan
kandidaten,
klamm@@
kleinstunternehmen
konsum@@
kontinent,
kreb@@
krisensituationen
ktor
könig
kündig@@
künfte
labour-@@
lan
lissabon-vertrag
lität,
lkw-@@
missbrauchs
paragra@@
parlamentes
phare
raketen
raums.
real
regieren
ruanda
ruhi@@
rückgrat
schlich@@
skal@@
spartner@@
spezifisch
stalten
steigerungen
strafsachen
süß@@
teilgenommen.
teilhaben
themati@@
trennen.
tti@@
tts
tz,
umgekehr@@
unan@@
unbestreit@@
unentgel@@
ungsprogramms
ungsprozesse
verehrter
verfassungen
vergangen
vergnügen,
verhaftungen
verloren@@
verständnis.
verzehr
vonnöten
väter
wa
werk,
wiederholt,
wirkungsvoll
wirtschaftslage
würde@@
zt
zuhören
zusammenge@@
übergehen.
überleg@@
-abkommens
abgeordneten.
able
anleger
anwendungsbereichs
anzunehmen
assozi@@
asylverfahren
atz
aufpassen,
aufrechtzuerhalten,
auftragswesen
aus:
außerordentlicher
befähi@@
begegnet
begriff,
beizutreten.
bemessungsgrundlage
bert
beschlagnah@@
bestmöglich
bürgerschaft
cro@@
dachte
dienstleister
diskriminierende
eigentumsrechte
einfrieren
einkommen@@
einräumen
empfangen
empfehlen.
entscheidungen.
erfreulich
ergreife
erkrank@@
erleichter@@
erschwin@@
eten.
ewu
exzellenten
festgestellten
finanziert,
fließen,
formuliert.
geeignetes
gesorgt,
gespräch@@
gewähr
gezogen,
gleichwer@@
grundpfeiler
gründe.
hintertür
hochwer@@
ichtlinie
indika@@
jahrhunderten
kapital,
konstruktiv@@
kräftige
kyi
lasse
leonardo
lomé@@
marken
menschen-
minderjährige
mitbürgern
mul@@
neh@@
niederschlag
nordsee
normal,
offensichtlichen
pilotprojekte
prag
präsentation
präzedenz@@
puncto
radioaktiver
realistisch.
regime,
reichen.
ros
schmä@@
schokolade
schuldig.
servi@@
sichert.
sien
sparmaßnahmen
spüren,
ssp@@
standardi@@
steuer-
stimme,
ten"
tens,
thailand
unruhe
unvorstell@@
verbraucherrechte
vergleichbaren
verletzt,
verschär@@
vertretungen
vervollständi@@
vorderster
vorsor@@
wahlkampf@@
wall@@
weiblichen
weigert
weltweit.
wettbewerbsfähigkeit.
wochen@@
zeichnen
zensur
zudem,
zugehöri@@
zuwenden.
/00:
/2004
22@@
abhalten,
abstimmungsergebnis
adres@@
alexander
alisten
amerika,
anerkennung.
anforderungen,
anzuwen@@
aps
assoziierungsabkommens
auftra@@
barem
basieren,
begründen.
beimessen.
berès
beschei@@
bezogen,
blocka@@
brüssel.
cashman
dacht.
dank!
delegi@@
delors
dump@@
ecr-fraktion.
eigentümer
einräumt.
einzubringen,
endgül@@
energiemarkt
entschädig@@
entwur@@
feiern
fene
fer,
festgesetzt
fortbestand
frustri@@
gangs
geheim
geist@@
gelten@@
geschicht@@
gewissen@@
gipfeltreffens
hause,
hef@@
heraus.
hren
imperi@@
integrationsprozess
juristisch
kennzeichen
kompen@@
kompromiss.
konfron@@
kopi@@
korrekt@@
kteure
kämpfer
langfristi@@
lans
luxemburgische
menten
migration,
multilateralismus
mö@@
möglichstes
niem@@
nro@@
opera@@
operationelle
pass
pragmatische
prot@@
protokoll,
präzisen
ratifiziert.
reach@@
rechtsnormen
relativen
republi@@
schulz,
schärfste
selbständigen
sicherheitspolitik,
spender
spieler
sterben,
steuergeldern
städte@@
stär@@
ta-@@
technokra@@
terrori@@
tigerweise
tigung
totali@@
trieb@@
unterzeichnen,
verantwortungsbewusstsein
verber@@
veren
versehen
verständlicherweise
vertraglichen
verurteile
vil@@
volkswirtschaft
vorantreiben.
vorbei.
wassers
wiederaufbaus
wünscht,
zertifizierung
zurückziehen
ßten
ändert,
öffentlichkeits@@
überschnei@@
"jugend
50.
absichtlich
adäqu@@
alisierten
angehör@@
angestellte
anspruchsvolle
anspruchsvollen
argumente,
ation@@
ato@@
aufwands
ausbreit@@
ausgaben.
ausmaß@@
ausstieg
begehen,
behindern,
beihilfen.
beleidigung
ber-@@
berühmte
beschließt,
beunruhigung
breites
bruttoinlandsprodukts
by
bürgern.
cken,
denkbar,
dergleichen
desselben
dieren
elli
energiespar@@
entwicklungsländer.
enzen
ergänzungen
erlangen,
fa
fahrern
filme
freigabe
gaza@@
gegenseitiger
genauestens
gescheiter@@
gesonderten
gewillt
gna@@
gne@@
gäbe.
halbi@@
haushaltspoliti@@
hegen
herzen,
hierarchie
hierauf
informa@@
ja-@@
kaukasu@@
komplementarität
korre@@
kreuz
kurs@@
life@@
lini@@
litauischen
luft-
mer,
minsk
mitgliedsland
morgige
musli@@
mutmaß@@
nahme.
ohr@@
osition
partnern,
peti@@
pfei@@
prioritäten.
prämie
rassismus,
rechtsunsicherheit
schwel@@
ses.
sicherheitsstrategie
sprechen?
stattgefunden,
stoppen
stätigkeiten
stützt.
tiven,
traf
tung@@
unmöglich.
unvermeidlich
verlor@@
verminder@@
vernommen,
vertreib@@
vorzug
wahlbeteiligung
weltmarkt@@
wirtschafts-,
wünschenswert.
zivilluftfahrt
zusammenkunft
zuständig,
ägyptischen
überzeugend
-und
..
2000@@
96
ablehnt,
ak
aktien@@
alleinige
angebotenen
angehöri@@
ankündig@@
asien,
aufwen@@
aufzuer@@
ausdrücklich,
bauer
befaßt.
behindert.
behörde.
bemer@@
benutzen.
benutzt,
berechen@@
beschriebenen
besie@@
bestehe
betroff@@
betrug,
castro
ch:
cher
cla@@
deckmantel
drittes
ebenen,
edi@@
einzuführen
ena
endere
erhäl@@
erlaub@@
erwerbstätigen
film
gekennzeichnet.
gemeinsamem
gemeinschaftshaushalts
gemeinschaftsinstitutionen
gesand@@
gesondert
gesundheitsbereich
gleichstellung@@
globalisierung.
hauses.
hersteller,
hinnehm@@
ille@@
inhaf@@
instituts
isolierung
jugendlichen,
klarstellen.
kombinierten
komitee
kommunisten
konfliktverhütung
konsument@@
koordinatoren
kostet.
krieg.
kritisiert.
künstliche
landwirtschaftspolitik
liste,
mafi@@
mannschaft
mazedonien,
ministers
moral
nahme@@
neuerungen
notwendig@@
opf@@
optimalen
passt
patten,
permanent
plätzen
pragmati@@
profitiert
qualitativen
rating-agenturen
rats,
regelt
saat@@
serbische
sicherzustellen
sig@@
spiegeln
steuerzahlern
straffreiheit
stützt,
subventionierung
synergie
theato
tinnen
treibhausgasen
tretenen
tungen.
unannehmbar.
ungedul@@
ungse@@
union?
univers@@
unterbinden.
unterhalten.
versetzt,
verursachen,
vorbild@@
vorgehensweisen
winter
zugenommen.
zurückkehren.
äußere
übersetzungs@@
abschließ@@
abzuwarten,
algerischen
angewandten
arch@@
arznei@@
ausgerichtete
begrenzen
bescheidenen
besei@@
bibliothe@@
broek
börsen@@
bürgerbeauftragten,
chte,
direktem
direktinvestitionen
dringlichkeitsdebatte
einfaches
eingerichtet.
einnimmt.
einzelfall
en-
ends
enthaltung
enthusiasmus
entschädigungs@@
erbringen
ergibt.
erteilt,
eu-mitgliedstaaten,
exportieren
fabriken
flan@@
formale
fruchtbaren
fördermittel
gebilligten
gehend
gelassen,
geopolitischen
gering.
gewonnen,
gigan@@
glücksspiel@@
gründet.
gü@@
halbzeit@@
haug
hauptsäch@@
hedge@@
hervorzuheben.
himmel
hul@@
ierende
inmitten
klassen@@
kohlendioxidemissionen
lediglich,
liberalismus
ländlicher
manch@@
migration@@
mitentscheidungsverfahrens
mitspracherecht
nahm,
oft,
ort.
pandemie
parlaments:
patienten,
paul
plädi@@
pläne,
prioritären
präzisiert
raba@@
raten,
rebellen
ree@@
reifen
reih@@
repräsentanten
resolu@@
risikos
seitigen
selbstredend
siegel@@
sitzen.
spart@@
spflicht
traurig,
ungen"
unternehmertum
veranlassen
verbindlich@@
verbreit@@
verfolg@@
verhaltensweisen
verkäu@@
vermisch@@
vertiefen.
verträge.
vorbereiten.
weigerung
weitreichenden
weniger,
willkürliche
wochen,
wünschte,
zerstreu@@
zusetzen.
äußert
"in
0,7
66
9.00
abschließen,
absoluter
allian@@
alp@@
anbietern
angeh@@
ankara
annimmt,
ansich@@
arbeitsmarkt.
artikel,
aufschluss@@
ausgewählt
ausschließ@@
baldmöglichst
baumwoll@@
befolgt
begrüßenswert.
besonderheit
besproch@@
betrei@@
brot
brücken
cken.
collins
contain@@
demago@@
discher
dutzende
ea@@
einschränken.
einwanderung.
eiweiß@@
erbe@@
ernsthafter
erziel@@
estland,
euren
fach
festzustellen
garantiefonds
gebiete.
gedenk@@
geholfen,
gekürz@@
gela@@
gerechtfer@@
gestorben
gewissenhaft
grenze,
haltenen
handelshemmnisse
harmonisierung,
harter
hauptgrund
inseln,
konfor@@
konsta@@
kraftfahrzeuge
krankenhaus
ky@@
käm@@
könne.
langfristiger
lebenslange
mckenna
minen@@
mobiltelefon@@
modulation
nachfolger
neutral
niveau.
ost
paktes
pk@@
ppe-fraktion.
pragmatisch
premier@@
prestige
privilegien
produktion.
rechtmäßige
reserv@@
schein
schlimm
schwächen,
schätzungsweise
sektors.
singapur
stammen.
stimmen@@
stimmt.
ta.
todesopfer
turkmenistan
töten
umstän@@
un-sicherheitsrat
unterschiede,
verbindlicher
verordnungen,
vertretene
verwaltungsverfahren
verwurzel@@
visa-@@
vollwer@@
vonnöten.
vor?
weitermachen
west
wäre@@
wünsche,
würdig@@
zunehmender
zün@@
ßer@@
ärger@@
æ@@
?"
abstimmungsliste
annehmbar
bedingung,
befreien.
behandlungen
beheben.
beleuch@@
beruhende
bloßen
brie@@
bruttosozial@@
cc@@
damalige
dienste.
doping
droht.
eg/@@
ehrgeiziger
einschnei@@
einstellen.
ende@@
entdeckt
entschlossenen
erschüttert
erzeugen.
eröffnet,
erörter@@
es!
esische
eten,
etten
extremer
flugzeug@@
forc@@
formen,
freisetzung
furchtbaren
fusions@@
führender
gegensei@@
green
grenzen@@
grenzüberschreit@@
haar@@
hiel@@
hinarbeiten,
human
iri@@
ja.
kaliningrad
keits@@
ken?
klei@@
kosovo@@
können;
lang.
leicht@@
leistungen,
lisierung
ministerien
mitgesetzgeber
mitteleuropa
mörder
müsse.
park@@
parlamentarischer
pc@@
polizei,
preissen@@
produzieren.
realismus
redebeiträgen
richter@@
roy@@
schauen.
schirmherrschaft
schlußfol@@
schreiten
schreyer
sozialmodells
ssicherheit
steuergelder
strukturfond@@
tausender
tet:
tierter
todesstrafe,
trock@@
unerläßlich,
unsicherheiten
unterstützen?
unverständlich,
verdienst@@
vermittlungsverfahrens
vertrieb
verweigern.
vision,
vorder@@
wahll@@
wunden
wünsch@@
zeitgründen
zent@@
zog
zusammenhalt,
zustimmt,
"ich
17,
abgeordne@@
and.
andes
andeu@@
anliegen.
anpassen.
antrags@@
antre@@
atem@@
ation.
aufgeteilt
ausreichen
ausschreib@@
bearbeitet
beihilf@@
beitrittsprozess
berufen.
bewegt.
bezog
bisher.
bl@@
blokland
dienstag,
e;
einheimische
einzugreifen.
eira
eis
engagieren,
entschär@@
ereig@@
erlangt
erlauben.
erleiden
ermuti@@
ermäßi@@
erschließung
erstaunlich,
ersten,
exzellente
fischereiausschusses
friedensabkommen
fünftel
galt
gedenkt.
gefälsch@@
gegentei@@
gegnern
günstiger
haushaltskontrollausschusses
herrschte
hilfreich.
hochwertiger
import
inakzeptable
indonesischen
inform@@
inhalts@@
insolv@@
interne@@
klausel,
kohäsionspolitik,
kompliziert,
kompromissen
kompromisspaket
kontrollsysteme
konzernen
korridor@@
kriegs
kritiker
kultur-
künften
lampedusa
legten
lenkungs@@
lettland,
lind@@
lines
länen
motivation
müßte.
nar@@
orientierungen
phänomen,
ppen,
prekären
referend@@
respektiert.
rollen
schadstoffe
scheine
scheu@@
schädi@@
sensibel
signa@@
sozialpolitischen
spon@@
spr@@
sprinzip
staates.
stres@@
stän@@
stützung
sympto@@
südlich
tationen
typisch
ukraine.
ungene
unregelmäßi@@
untätig
vereinfachten
verfahr@@
vergeb@@
vermute,
versichert
verstoßen,
vität
wallis
wesen.
whi@@
zusammentre@@
zustimmung,
überalterung
23.@@
5/@@
80er
abermals
abgel@@
abgestimmte
anbetrifft,
angeklagt
antrags,
anwäl@@
arbeitslos
ausschreibung
aussieht,
barcelona-prozess
behebung
behinderter
bereitung
beunruhigt,
cent
da-@@
eignung
einschätzungen
emotionen
energi@@
erprob@@
erstmalig
exzes@@
fachwissen
finanzkrise,
finanzpolitik
frie@@
fundierten
geregelt,
geschweige
gesproch@@
gesundheitssysteme
gewalttätigen
gibraltar
glas
grausame
grenze.
grundwasser
hinausgehen,
homosexuelle
hotel@@
ihn,
interreg
jackson
javier
kamen.
kolli@@
kommunen
komplexer
konsequenten
koordinier@@
krisenzeiten
labour
lagen.
lo
logischerweise
luftverkehrsabkommen
lulling
marktes.
maximi@@
meint
melde@@
metho@@
missachtet
missverständnisse
mitgliedern,
mitter@@
mobi@@
modellen
mosle@@
nebenbei
niveau,
organi@@
original@@
ost-timor
pakts
partik@@
partnerländern
perio@@
phili@@
post-@@
potenzial,
ppt
qualitäten
ratifizierungsprozess
reformp@@
reformvertrag
rei
richtungs@@
same
satellitennavigation@@
schlecht,
slowenische
spiritu@@
ss-@@
standpunkt.
starkem
stimmerklärungen
straftäter
studenten,
sudan@@
syri@@
sánche@@
sätz@@
taliban@@
teufelskreis
toleriert
torische
totalitarismus
täten,
umweltverschmutz@@
unabdingbar.
unfairen
ungspro@@
va,
verankerung
verarbeitenden
verbleiben
vergemeinschaftung
verhelfen.
vermisse
verpackungen
verrück@@
volksabstimmungen
vorhabens
weibliche
werten.
wiederher@@
zollen.
zurückliegenden
zuverlässi@@
äußerte
übermittelt.
2006.
450
abgewickelt
abläufe
absprache
acht@@
alistische
amsterdam,
arg@@
argentinien
aufgaben.
auftretenden
ausgeh@@
ausgesproch@@
balkan,
befragung
begrenzen,
bekleid@@
bemerkung.
berücksichtig@@
besin@@
beträgt.
bezeichn@@
biologischer
chance.
chtung
daseins@@
definiert,
derartig
diger
drittland
ehrlichen
einhalb
eintritt,
eisenbahnen
elementar@@
energieeffizienz@@
energiene@@
entwickelnden
era@@
erfolgreich.
ergänzenden
erwartungs@@
eu-mitteln
europarats
festigen.
fluggästen
forschungsergebnisse
führerschein@@
gap-@@
garantie,
garantien,
gebär@@
gemel@@
gerin
gh
gleichsam
handlungsspielraum
harr@@
heben.
hinnehmbar
hochachtung
huss@@
ideal
illusionen
importiert
irreführende
kanada,
kinderpornographie
kongreß
konstruktiver
kontrollmechanismen
kts.
legitim
mana@@
maximalen
merken
migranten,
misserfolg
müll
müssen:
niedergang
nordameri@@
od
pa-@@
pau@@
pfle@@
proportion@@
qualitative
quartett
red@@
roma@@
schieds@@
serbien,
spaket
stellend
stellvertretende
strafverfahren
teressen
traurigen
umweltz@@
unlau@@
unlautere
veranlaßt
versäum@@
vigo
vorurteile
völli@@
wasser.
weitergegeben
weißbuchs
wiedereinführung
wto,
wunderbare
zie@@
zu:
zugeständ@@
zusammenhang,
zusehen,
änderungen.
überlegungen,
überschneidungen
überzeugt.
00
87
abschaffen
alltäglichen
anen
aner
angesehen.
ansprüchen
anzei@@
aufbringen
aufen,
auffordern
aufhalten.
aufzugeben.
ausgezeichneter
belebung
berufsleben
berührt.
beschuldig@@
bestands@@
betrags
bewegung,
bezweifle
binden.
bren@@
buitenweg
dafür@@
designierten
ding@@
diskrepanz
durchführungsbestimmungen
durchzusetzen
einige,
ela
elementaren
elli@@
enthielt
entnehmen
erlan@@
erleichtert.
ermittel@@
errungenschaft
erweck@@
erwerbstätigkeit
feierlichen
fiel@@
fortfahren,
französischer
förderungs@@
gefälschten
geist,
genauigkeit
gesammelten
gesellschaften.
gestehen,
gte,
ha
haiti@@
haushaltsmitteln
hielten
hinsicht,
hinzu.
hit@@
hiv-@@
homosexu@@
identifiziert
illusion
in-@@
innerstaatlichen
intensivere
izquierdo
juni@@
katastrophen,
klare,
klimawandel.
künstlich
lange,
lebender
loben,
masse
mengen@@
ments
moldawien
mr@@
nebeneinander
ney@@
nimm@@
nische
norwe@@
offenbar@@
otenzi@@
ow@@
pflanzenschutz@@
phie
präventiven
ratifizieren,
rechtsakten
rechtsgrundlage.
schuldig,
setzten
skizzi@@
skrupell@@
small
ssa@@
staatspräsi@@
stellungs@@
stimmten
stoffen,
stärkt.
taiwan@@
technologieinstitu@@
thematische
tibetischen
toll@@
umstrukturier@@
umweltverträ@@
unabhängiges
unterbreit@@
untersucht,
verbrauchsteuern
vergessen@@
vermein@@
verschiedensten
verstärkt,
verzerrung
von@@
vorangebracht
wechseln
weck@@
weges
weißrussland
wunder
ysteme
zentral
zentrali@@
zes
zuhör@@
zähle
ère
überein
"ein
"eine
-verordnung
/99:
19.@@
abhängig,
ach
anony@@
anreizen
anschließenden
arz@@
att@@
aufmerksam,
aufzubauen
ausstat@@
belästi@@
bene
benen@@
berichterstatter@@
bescheiden@@
besorgniserregend.
bestraf@@
bezweck@@
bleiben@@
brief@@
brustkrebs
c6-0@@
christo@@
coun@@
cra@@
datenbanken
donnerstag@@
ecu.
einfacher,
einzustellen,
eisernen
ek
energiemar@@
entgegenzuwirken.
er!
ergreif@@
erhalten@@
erhoben.
erisch
ermu@@
erweiterungsprozeß
erwägungsgrund
eu-weite
euro-währungsgebiet
fangen.
festi@@
festzuhalten,
festzustellen.
fragte
frühjahrsgipfel
fundamentale
führerschein
gangene
gangenen
gebau@@
gegenseitigem
geheimnis
gelang
generaldirektionen
geschäftspraktiken
hass@@
haushaltsvorentwurf
heiligen
hoffn@@
ihm,
immensen
inkrafttretens
interims@@
interparlamentarischen
ität
janu@@
kenntnis@@
klarzustellen,
kommission!
ktiver
lebensfähigkeit
legitimiert
legte,
leinen
mehl
meinungs-
meist@@
mittelmeers
modifizi@@
nachgekommen
nationaler,
nik
nomini@@
oga@@
pestizi@@
philippinen
problematisch.
präventive
rechnungsprü@@
rechtzeitige
ry@@
räten
saison@@
sand
scher,
seele
seltene
siedl@@
sonderbericht
spolitische
sprojekte
stock@@
strukturierten
stände
subsidiarität.
süd-@@
tet?
tin,
tradition@@
tunesischen
umfel@@
unabhängigkeit,
unannehmbar,
undzwanzig
ungsprobleme
unschuldigen
unsichere
verbesserungen,
verbraucherinnen
verkörper@@
vetorecht
vorzusehen.
wage
wettbewerbsverzerrung
würdiger
zauber@@
zivilisierten
zuhause
ão
überholt
übertragenen
/97:
25,
abl@@
acta
akp-eu
alpen@@
anforderung
angeli@@
ankla@@
ansässigen
anzusprechen,
atomkraft@@
aufzustellen.
ausgezahlt
ausgezeichnetes
ausgrenzung,
bahnen
beitreten,
besorgniserregend
beweisen.
bewertung,
biokraft@@
bonn
buch,
darlegen
debattieren.
diskrimini@@
diskussion@@
drohen
dunkl@@
einfa@@
eisenbahnverkehr
en.-
entfern@@
entsetz@@
enttäuscht.
entwicklungs-
ernde
ert@@
etwaige
festgenommen
fischfang@@
flugverkehrs@@
fortschreit@@
foto@@
fruchtbare
gefährden,
gemeinschaftsmitteln
gewichtung
gisch@@
h.,
haftigkeit
handels.
haushaltspolitischen
heima@@
herren.
hinausge@@
idee.
ig
individuell
industrie-
kabeljau
kadmi@@
kontroverse
konzeption
ktivitäten
köpfe
linge
llt
mal.
manches
nachvollziehen,
oni,
origin@@
persönlichkeit
phanta@@
philoso@@
privatsektor
prostitu@@
protektionistische
prozessen
prozesses.
quantifizi@@
quar@@
ration
reisende
religiö@@
repression
rezep@@
richtlini@@
rußland,
rußlands
scheck
schluß,
schnell,
schon@@
schri@@
sendet
sicherheitslage
sprach.
sprogrammen
spät.
ssektoren
stabiles
tagungs@@
territoriums
thea@@
transa@@
transfers
transparentes
trilo@@
türkei@@
uen-fraktion
umgesetzt,
unterstreich@@
unterstreicht,
unterzeichnete
unverhältnis@@
verdamm@@
verringer@@
vertrieben
verwertungs@@
vision@@
vorbereitenden
vorwand,
wachsender
was,
widersprü@@
wissenschaf@@
ya
zar@@
zurückgegangen
zutage
übersetzungen
ş@@
..@@
abgeordnetenstatut
abkommens.
abzuschaffen,
agrarerzeugnisse
alles.
alterung
anfrage,
ansetzen,
artige
assoziierungs@@
aufklär@@
aufweist,
baut
bedeutendsten
befaßt,
behaf@@
belder
bereiten,
berger
berichterstatterinnen
beschuldi@@
bezahlte
bezir@@
brasilien,
brennstoffen
bs
co-@@
cy@@
deckten
diktatoren
dreht
drängt.
dumping@@
economic
eineinhalb
einschüchterung
einstimmigen
entlich
entwicklungsp@@
erei
erschwert.
erschwinglichen
eu-bürgern
europa"
experi@@
fai@@
forderungen.
formel@@
fortgeschrit@@
führer@@
gangs@@
gegenteil:
geistiges
geschwindigkeiten
geschützten
gesteck@@
gesteckten
getreten.
gewährleist@@
graben
halbzeitbewertung
hamm@@
herauf@@
hochwasser
hofft
infrage
insgesamt,
irgendjemand
jo
klassen
konsenses
kontra@@
krankungen
ktions@@
käfi@@
letzt
line
linien,
luxemburg,
meda
menschenver@@
messung
mitbürgerinnen
mitleidenschaft
mobilität,
moni@@
nachhinein
nachweis@@
obdach@@
opposition,
orientieren
ozon@@
party
pirker
privati@@
produktsicherheit
projekte.
rage
reflexi@@
ruhezeiten
rückläufi@@
satzung
scharf
schnitt@@
schweigeminute
schwein@@
selbständig
selbständige
seltenen
sicherheitsa@@
sonderbeauftragten
sparen.
stahlindustrie
steuersysteme
stimmerklärung
strafgesetz@@
strategisches
strukturmaßnahmen
tender
theore@@
tigkeiten
tigkeits@@
toleranz,
torischen
trends
träglich
umweltstandards
unternehmerische
verhehl@@
verkaufs
verstor@@
versöhn@@
verzeichnis
vesti@@
vorbeugende
vorredner@@
vorübergehende
wachen
weiterzuentwickeln.
weiß.
wider
widerspiegelt,
wirkliches
wissenschaften
wynn
zag@@
ziehung
zugehört.
zurückgewiesen
zurückhalten@@
zurückzuziehen.
zwischenbericht
á
ärer
öffnet
überfischung
überschü@@
ć
900
abwarten
alem
anleihen
annan
anzugehen
anzustreben.
aquakultur@@
atlantischen
augenblick,
ausgeben,
ausreichendem
austausch,
auszuschließen,
autobahnen
balanc@@
basier@@
bedürftigen
begangenen
bekanntermaßen
beliebigen
berichte.
besagt
beschlussfass@@
blieb
chi
ck.
ct
daran.
darleh@@
denkweise
ders
det?
diskriminierenden
drittstaaten,
dutzend
eindrucks@@
energien,
engem
entschiedenheit
erbringen,
erhöhungen
ermutigend,
erwachsene
erwähne
europol-@@
fasst
fis@@
flexiblere
flor@@
forderten
fraglos
funktionierendes
gedeckt
gefasst.
gehofft,
geli@@
geredet
geru@@
gesellschaftlicher
gesund@@
grenzüber@@
großbritanni@@
grundzügen
guta@@
hauptaufgabe
herrschen,
hervorzuheben
hindernisse,
hüb@@
ikt
integrierter
interim@@
jordanien
kasse
klimawandel@@
klon@@
kommissionsvorschläge
kompliziertes
konfliktparteien
kontroll-
ktion,
ladi@@
landwirtschaft@@
leone
lern,
mandat,
menschenwürdige
mitarbei@@
mittelfristige
mobilisiert
monate,
monet@@
morgen.
multilateraler
musi@@
myth@@
märz,
müsste,
nabucco-@@
nutzungs@@
packen.
patentierbarkeit
personellen
polen.
programmplanung
rapi@@
rechtzei@@
regulieren
sachkun@@
scheck@@
schlacht
schlagzeilen
september,
sicherheiten
spätere
ssitu@@
sson,
staats
stabiler
standar@@
strategi@@
stü@@
subven@@
teilnehmenden
texti@@
tierenden
to,
tori@@
tsin@@
unausweich@@
uneinigkeit
unkt
unterschei@@
urheberrecht
verfrüh@@
vergif@@
vergü@@
verstär@@
versucht.
vertri@@
verunr@@
verursach@@
verwerf@@
verzeichnet
volksvertreter
vorankommen,
vorgetragenen
wachsen@@
wettbewerbsverzerr@@
wettlauf
wissenschafts@@
zeitgemäß@@
zollbehörden
zurückzukehren.
zuverlässigen
ölpreise
überarbeitete
/02:
18,
abchasien
abgeändert
abhalten
anteilnahme
api@@
arktischen
aufgedeckt
aufgezeigt.
ausgehandelten
ausschüsse,
auszahlung
barcelona-@@
basis,
bat
beamter
beantragt.
bedin@@
befugt
begrüßenswert
begünstigen.
bemerkungen,
bestanden,
betrugs
bevorzugt
bewegt,
bewus@@
blan@@
blicken.
bürokratie@@
dachte,
debatten,
destabilisierung
digt.
durchweg
eingehalten.
einricht@@
einstufung
einzusetzen
elektronik@@
empfunden
entran@@
entschuldigen.
entwicklungsausschuss
erstaunen
esi@@
extremi@@
feierliche
flächendeck@@
folgemaßnahmen
fron@@
g8-@@
gebhardt
gebo@@
gehöri@@
gekämpf@@
geschlossenheit
geschätzt.
geteilt.
gewissheit
gruppe.
güterverkehrs
hed@@
hervorheb@@
hiv/aids
höchstmaß
ima@@
instrumente.
interimsabkommen
klassifizierung
kommissionspräsident@@
kommunalwahlen
kommuni@@
konkurrieren
konsens,
kontraproduktiv@@
kontrollierte
konzessionen
korrektur@@
kurz-
laden.
legislativer
ley,
lischen
ludford
luxembur@@
längeren
manuel
mehrjährige
mich.
multifunktion@@
muslimischen
nordi@@
offenheit,
operation@@
pharmazeutischen
physische
pol
potenzials
prin@@
problematisch,
produkt,
präsidenten.
real@@
realistisch,
rechtsstaatlichen
redefreiheit
regierungschefs,
reichen,
relevanz
rundfun@@
rup@@
rüstungsindustrie
santer,
schaut
schicken.
schlags
sensibilisier@@
service
sinni@@
sorganisation,
spezifisch@@
spolitiken
staatsangehörige
strit@@
studien,
subje@@
tney
tragenden
trou@@
umsetzung,
umzugehen.
urteils
vene@@
verbindliches
verbreiten.
vereinbaren,
vermie@@
vertriebs@@
volkes,
voranschreiten
vorschlags.
weites
widersprechen
wille,
willkür@@
wäldern
zeitpunkt.
zer
ziel-@@
zunimmt.
zunutze
zwangsarbeit
zögern,
züchter
übergangszeitraum
überlegt
-system
.-@@
108
1985
1986
3,5
8-@@
abgeschlossenen
abschni@@
alar@@
ambi@@
anfällig
angestreb@@
angewandte
ano
anordnung
arbeiter,
art@@
aufbringen,
ausgewiesen
auswirk@@
beachtlichen
bedauerns@@
bedauert,
beispiele,
bereitgestellt,
bergregionen
beruflicher
beurteil@@
brutal
bürgerbeauftrag@@
demokratiedefizit
dumm@@
durchsetzen,
dürre
einleiten,
energiebinnen@@
energieverbrauchs
erdo@@
erfolgreich,
ermor@@
ermutigung
ermäßigten
esf
eu-organe
ferne
finanzkontrolle
flieh@@
fortwährend
fraktionen.
föderalen
gase
gendsten
genturen
genuß
george
gerichtsbarkeit
gesichtspunkte
gestrige
gestärkt,
gesün@@
gewerkschaften,
gold@@
halter
handelssystem
helsin@@
hilfsmittel
hindert
histor@@
homophobie
hygiene
identifizieren
innovation.
interessanter
justiz-
kernstück
klargestellt,
klassifizi@@
kungen
körperliche
ld@@
lebensmittel-
legalisierung
linderung
lisieren,
londoner
lv
mindestanforderungen
mutterschaftsurlaub
müßten.
neuartige
nitrat@@
nutzfahrzeuge
olivenöl
ortega
parlamentari@@
passieren.
plan.
pou@@
praktiken,
quellen.
rassistische
redner,
reibungslosen
reichenden
ringen
rundfunk
schir@@
selbstregulierung
semin@@
shar@@
sicherheitsniveau
sorgfältigen
soziale,
ssicherheit.
ssitzungen
ssung
steuereinnahmen
strömen
stöße
sympathie
systemati@@
sätze,
technisches
telan@@
tragende
tribüne
umgewandelt
umsonst
verantwortungsbewusst
verbracht
verbrecher
verhandlungsmandat
versammlung,
verschwei@@
versteht,
vielmehr,
vollziehen
wahlfreiheit
wahrnehmen,
weiterentwickeln
weitergehende
wiener
wto.
wörtlich
zivi@@
zurückgegangen.
zykli@@
änder
ärm@@
äußeren
ł@@
‚@@
…
82
a4-00@@
absolutes
absurd
abzubauen,
allseits
antibio@@
arbeitende
arbeitsplan
aserbaidsch@@
asiens
aufzuzeigen,
ausgearbeitet,
aussprech@@
befürwortung
begehen.
bemerkens@@
berücksichti@@
bestandser@@
bestellt
beunruhigend
bewilligt
bibliotheken
blatt
blüh@@
boot
bündel@@
ces@@
comm@@
deh@@
demographischen
deten,
dialog.
dublin-@@
dynamisch@@
dynamischsten
ecu,
einzudämmen.
endeffekt
erdenklichen
erforderlichenfalls
ergreifung
erhobenen
erlaubt.
erstreck@@
eu-kommission
evp-@@
fahrer,
folgerich@@
fürsorge
gefasst,
gelder,
geldwä@@
geregel@@
gesamteuropäischen
gestatten.
gesunder
gleichgültigkeit
griechen@@
halber
heili@@
herausforder@@
ingeni@@
integrieren,
jugendarbeitslosigkeit
justi@@
kart@@
konkretere
koreanischen
landsleute
lastet
lat@@
lindustrie,
lle,
meda@@
medien.
mexi@@
mitgearbeitet
mix
morillon
mächten
männer@@
nachmit@@
nassauer
neuem
organ,
orientieren.
pilotprojekt
pipe@@
premierministers
prop@@
realistischer
rechtsinstrument
reichweite
richtiger
riesi@@
rr@@
rückübernahmeabkommen
sachver@@
sahen
samml@@
schwellenwert
seuchen
sinnlos
skandal,
sowjetischen
spezialisier@@
sproblemen
stattfand.
steckt.
stereo@@
strafverfolgungsbehörden
südsudan
therapeu@@
tragödi@@
treiben,
ts-@@
ukrain@@
verfahrensweisen
verfehl@@
vergleichen,
verli@@
verteidiger
veröffentlichen,
vonnöten,
vorbei@@
vorbeitritts@@
vorschub
vri@@
wahl.
wegfall
wertvoll
weu
wichtigstes
wirtschaftsreformen
worfen,
wünschens@@
zan@@
zeitplans
zeiträume
zogene
zurückhaltend
zyani@@
ökonomischer
„die
2010@@
78
:@@
air
anzusehen,
arroganz
aufen.
aufer@@
aufgebracht
aufklärungs@@
ausarbeiten
ausdrücken.
ausgerichtet,
ausrottung
barri@@
baskenland
befürchtung
beimisst.
bekunden,
beruhenden
bewirkt,
blieb@@
blockieren.
bringung
bruchs
definiert.
dekla@@
demogra@@
dezi@@
dingen,
durcheinander
einberufung
einzugreifen,
entscheidungsverfahren
entwurf@@
erstatten.
etc.
eu-vertrag
europäer.
fika@@
flag@@
fortgang
füllen
g:
g?
gebene
gebern
gekauft
gelegenen
gelin@@
gemeinschaftsinitiative
gespielt,
gestoßen
gesundheitswesens
getrei@@
gremiums
gru@@
grönland
halt,
harmonisieren,
haushalts,
heikles
herein@@
iw@@
justiti@@
kaufkraft
kennzeichnung,
kohär@@
komplement@@
konflikte,
konjunkturprogramm
kreu@@
krisenbewältigung
kroatien,
künstlichen
labor@@
leiden@@
lobens@@
mangelhafte
mißachtung
muslime
mögliches
nachzukommen,
nahost@@
niederlass@@
nobel@@
nordafri@@
nordische
nährwert@@
ordnen
ot
panik
physischen
produktive
produktiven
prozeß,
ps.
quantitative
quoten,
rationalisierung
rechtslage
rechtsschutz
rechtswidri@@
regulierung,
sachlich
sah,
salafranca
savary
schicksal@@
schiffbau@@
schlecht@@
schweine@@
sechs@@
seit@@
staatliches
staf@@
stattf@@
steigern,
steilnehmer
stellende
strument
supranationalen
südkaukasus
technologie.
terrorist@@
tete.
tigen?
tindustrie
ting
tragödie,
treu
tte,
uch@@
uhr,
umfassen,
umweltzeichen
unab@@
unfalls
ungsproje@@
unsicherheit,
untergang
untergeordnet
verarbeitungs@@
verbrauchern,
verfälsch@@
verletzen.
verpflichtungen.
verwaltung.
verzeich@@
vielfach@@
wegs
weltweites
weniger.
wiederverwendung
wunden.
wörter
ziehen?
zugehört,
zugestanden
zweckmäßi@@
örtliche
überschrift
ül@@
-programms
/2005
11.@@
abstimmungsstunde.
analysieren.
ansteck@@
anstiegs
antidiskriminierungs@@
anweisungen
asbest
aufgeli@@
aufweisen,
auseinandersetzen.
aussehen,
autoritären
azoren
baringdorf
basierenden
beamten,
benö@@
bescheiden
bestech@@
bestenfalls
bestrafen,
betre@@
bindend
bis@@
blind
böden
bürgernähe
definier@@
dialoge
dichte
differenzierte
dini
dorf
druck.
durf@@
eines,
elektrizität
entech@@
entscheidet.
erhebliches
erstellten
erwerbstä@@
erörterten
eugh
fakulta@@
familienleben
fluggesellschaft
fokus
fühlt
gelaufen
gemeinde
gemäßi@@
genei@@
georgien,
geschaffene
gesich@@
gesunken
großen,
haftbefehls
herbeizuführen,
heuchel@@
händ@@
impfung
ings
israel@@
jü@@
kartoffel@@
klimaänderungen
kmu.
komple@@
kompliment
kontinenten
kreativ@@
krebserre@@
kriteri@@
kulturelles
kulturen,
kürzen
leidet.
liberalisierungs@@
lis
liter
mai,
mar
marktteilnehmer
millennium-@@
mitglieder.
mitte@@
mod@@
mono@@
mutterschafts@@
n-@@
na,
nachdrück@@
nachtrags@@
nahrungskette
notwendi@@
ologischer
papi@@
partizipa@@
pragmatischen
privileg
pv@@
pä@@
radioaktive
rat:
raub@@
reaktor@@
reeder
regiert
richard
richte
rind@@
rückhalt
sad@@
satz,
scheinen.
schlüsselelement
schriebenen
sensibler
spartner
stabil@@
stagnation
stoffe.
subsidiarität,
südost@@
teheran
ungerechtfertigte
unterschiede.
untersucht.
unumgän@@
verbraucherschutz.
vereinbarung.
vernünftig.
verschwendet
verstan@@
verteilen
vollmachten
vollständiges
voraussetzungen,
vorbil@@
weltweiter
zielsetzungen,
zurückgreifen
zusagen,
zutaten
-regime
abzeich@@
almunia
andererseits.
anfang,
anfragen,
angerichtet
ankün@@
anlass,
anstehende
ar.
aspekt.
atyp@@
aufgewendet
aufgezwungen
ausführen
auslösen
ausnahmen,
ausstehenden
automatische
beam@@
begreifen
besorgniserregende
bezahlten
bigen
c.
chemischer
chtet
dahin@@
dauerhafter
dete,
dossi@@
durchführungsmaßnahmen
dänemar@@
dörfer
ecofin-@@
eifer
eigentü@@
eigenverantwortung
eingeschlossen
einrichten,
einzutreten,
ele
emp@@
energiestrategie
ermutigt,
ese@@
eurobonds
europäi@@
exeku@@
exemp@@
facher
fakt
falsch@@
folgende:
gas,
geburten@@
gefängnis@@
gehandelt.
gere@@
gereicht
geschrieben,
gesucht,
getragen,
gewonnenen
gewährte
gewürdigt
go.
gos
grundlagen@@
haber
halbzeitüberprüfung
höchstwahrscheinlich
impfstoffe
inakzeptablen
information.
ini
jugoslawi@@
klarmachen,
kommerzialisierung
kontrollmaßnahmen
kraftstoffen
ktiv
kurse
köpfen
lang,
lei
leitlinie
lesung.
lisa@@
lockerung
maßnahme.
mißtrauens@@
mmern
mo
morgan
motiviert
nachkommen,
nachteiligen
nann@@
neuerung
nick@@
ons
problemati@@
rahmens,
rechtspersönlichkeit
reduziert.
rem
revisions@@
sauberer
schieb@@
schwarzarbeit
schweineflei@@
schätzt
sexu@@
sicherheitsvorschriften
sie:
skandale
stationen
stecken,
steigender
stellungnahme,
strafrechts
straßbur@@
straßburg,
streben,
studium
ständig.
symbolische
sympathi@@
takti@@
to.
tätige
umfelds
umstände,
umweltausschusses
umweltbelastung
under@@
ungewöhnlich
unhcr
unterschätzen.
unverzichtbar.
us,
val
valencia
verbraucherschutz,
vereinen
verhofstadt
verletzen
verwandten
viertens,
vorbedingung
wahrheit,
westjordanland
widerspiegeln,
wird@@
wählerinnen
zeichne@@
ziehe
zukünftiger
zuletzt,
zweck.
zyprischen
überbrück@@
übergangsregelung
2002,
2020,
2020-strategie
2020.
abgegebenen
agentur@@
ambitionier@@
anerkennung,
ank@@
anspruchsvoll@@
anwendung.
anzusehen.
aspekten,
aufnahmel@@
augen,
ausdrücklichen
ausgebildet
ausgeglichenen
auszugleichen.
bekundet
bildungssysteme
busse
chao@@
chinesi@@
crowley
dal
darzulegen,
defen@@
dekre@@
dienstleistung@@
diplomaten
duisenberg
dührkop
eigenkapital@@
einheitlichkeit
einkünfte
einziehung
ement@@
ergreift,
eritrea
erleichtert,
ernsthaftigkeit
erzeugnissen,
ess@@
existierende
fay@@
fenen
fischereiflotte
folgenabschätz@@
freizügigkeit,
freunde,
früh,
fügen.
gerade,
geschick
gespal@@
gesunken.
gewandt
gewerblichen
gezahl@@
gige
gingen.
haftbefehl@@
hinterlassen
humane
hüll@@
indigenen
inspektion
interes@@
internalisierung
irgendeinen
it-@@
it@@
katastrophenschutz@@
kommunalen
kontingente
korri@@
kreative
krisen,
ktors
lage@@
lebend@@
legungs@@
leon
lin
lok@@
mangelt.
maschin@@
maßen
menschenrechtsverletzungen,
merkt,
moda@@
nahrungsmittelsicherheit
nen!
nern,
neutra@@
nord-süd-@@
nutzt,
ola
ore@@
pakistan,
port@@
rahmenbeschlusses
raucher
recycling@@
regelmäßi@@
reparatur@@
respekt@@
rubriken
schickt
schokola@@
schuh@@
schutze
set
sport,
ssicherheit,
stabilisiert
stabilitätsmechanismus
standor@@
stechnische
ström@@
ständig@@
stünde
systeme.
süch@@
südosteuropa
tas
territorien
tiger,
unermüdlich
ungeklär@@
unschätz@@
untergeordne@@
unterziehen.
verantworten
verblei@@
vergleichen.
vermeid@@
verordn@@
verwaltungskosten
vor-
vorentwurf
vorgeschla@@
vorkommnisse
warte
wettbewerbsvorteil
willkommen,
würdig,
würdiges
yor@@
zersplitter@@
zugelassen,
zugewiesenen
zurückzuziehen,
zustimmt.
österreichs
übernimmt,
übertreib@@
“@@
2007-@@
2020@@
67
68
abtreib@@
airbus
aktivisten
analyse@@
andor@@
anerkennt.
angedeutet
angeführt,
anrainerstaaten
anstalten
anzuschließen.
arischen
asylbewerber@@
aufgegriffen.
aufschw@@
ausbauen
auseinandersetz@@
ausgeb@@
ausseh@@
ausstoßes
australi@@
beantwortet,
befri@@
befristete
begann,
begeistert
beherrscht
benennen,
bestens
bestätigte
blin@@
dienst.
diensten,
disziplin@@
ea
ehen
ehrt,
einflu@@
einglieder@@
elementare
emissionen,
energieeffizienz,
entstandene
erfahrungsaustausch
erfindung
erschweren
este
externer
fortwähr@@
fremdenfein@@
fukushima
fürchten
gerichtshof,
gespeich@@
gesundheitsdienstleistungen
gewähr@@
griffen.
grünen,
guatemala
hautala
hinrichtung
hoffnung.
höf@@
importeure
industrieländern
innergemeinschaftlichen
insoweit
instand@@
integraler
je.
kassen
kategorisch
kommen!
kommene
kompliziert.
konstruktion
kontrolli@@
konzentrations@@
kosten-nutzen-@@
kraftfahrzeu@@
kulturhauptstadt
königreich.
lateinamerikas
leitet
lese
marí@@
materials
mesischen
milchquoten
militari@@
mischer
mobilisieren.
monti,
mord@@
nachbarland
nachweise
nachweisen
nato,
nenden
neues,
nützen
ostens
paro@@
partnerländer
personal,
pfer
pfer@@
planen,
privilegierte
privilegierten
ratings
ratspräsidenten,
rea@@
repressiven
restriktionen
rübig
scham@@
schlachtung
schlussendlich
schott@@
seminar
separati@@
seuchen@@
sicherheitsanforderungen
sichtiger
sindustrie
sjöstedt
tales
tigung.
toxi@@
tschernoby@@
tsunami
ukrainische
umwelta@@
umweltpolitische
umweltverträglichkeitsprüfung
ungewissheit
universaldienst
uren
vakuum
vereinbar.
vereit@@
vergünstigungen
verhandlungsprozess
verkehrssysteme
verstand
verwunderlich,
veröffentlichen
vizepräsidentin,
waldbränden
wege.
wirbel@@
wirft.
zeugnis
zypern-@@
änderungsvorschlägen
öst@@
überflu@@
übergangsphase
71
72
77
ablehnt.
absch@@
aggression
agrarhaushalt
anbindung
andauernde
angehört.
anhalten@@
anzubieten,
attraktivität
auf:
auflage
aufträgen
ausgeschlossen,
ausgeweit@@
ausnutzung
auszustatten,
außerordent@@
befindliche
begeg@@
begrüßens@@
behinderten@@
bekräftigung
bekunden
berg-@@
besiedelten
bestands
bewunderung
bezu@@
brachte,
cal@@
can@@
cer@@
dargestellt.
darüber.
demonstrieren
dialogs,
dienstleistungsverkehr
dio@@
drohung
ebnet
effektivi@@
eigenmittel@@
eingeräumt.
eingreifen,
einhergehen
einleiten.
einmütig
einrichten
empfohlenen
energies@@
entstand
equi@@
ermittlungs@@
ermordet.
erstreckt
erzeuger,
exportieren.
familienangehörigen
fes
flüchtling@@
formulierte
frauenrechte
fusionen
führer,
gefahr@@
gefoltert
genehmigt.
geschehen?
geschäftsordn@@
gesetzgeberischen
gespräche,
gesundes
geteilten
gewartet
gezielten
gingen,
habe:
hauptzi@@
heuchler@@
historisches
iens
internet.
jahresta@@
just
kartell@@
katastrophenschutz
ketten
kommunikation,
koordinierung,
kuba@@
kus
langfristiges
lationen
leistung,
machten
madri@@
marco
marktin@@
marsch
melden
menschenrechten,
metern
missverständnis
nachdrückliche
nahmen.
nahrungsmittelproduktion
netzwerken
ordnet
pakete
pferd
pho@@
ppen@@
produ@@
resist@@
roadmap
russischer
sachkenntnis
schattenberichterstatterin
schiffbau
schriebene
schuld,
schwierigste
seriöse
si
steller
stellte,
stenz@@
stocken
szenari@@
tak@@
tank@@
tation@@
tations@@
tern@@
tick@@
tierfutter
tiker
tragene
transnationalen
transplan@@
ttel@@
unterschied@@
unterschrieben
unvorherseh@@
verarbeitet
verläuft
verschließen
verwandeln.
wettbewer@@
whitehead
willens,
willkürlichen
wirtschaftss@@
wollen?
zentralisierung
zielgerichtete
zin
zitier@@
zuck@@
zugefügt
zusammenhang.
zutrifft.
zyprio@@
zöllen
überlastung
übermittel@@
überstürz@@
überwiegende
übrig.
0,5
1988
88
akteure,
analphabe@@
ands
angrenzenden
anwesend.
artik@@
aufstellen
ausgearbeiteten
ausgeführt,
ausgenutzt
ausgewogen.
ausgewähl@@
aussich@@
auszusetzen.
basierende
beanspru@@
beeinträch@@
beitreten.
bekämpfungs@@
belarussische
belasten.
bestätig@@
betru@@
betrugsfälle
bewertet.
bos@@
british
bruttoinlandsprodukt
delega@@
digitali@@
ehl@@
eigenständigen
eingeladen,
eingestu@@
einschüchter@@
einzunehmen.
entsandt
entsenden,
erpressung
erwecken,
falscher
fenster
folgt.
formulier@@
forschern
fragmen@@
frattini,
frauenhandel
frustration
fügt
füh@@
fünfjahres@@
galicien
gedenken,
gedenken.
gefälschte
gehandelt,
gelesen.
getri@@
gewar@@
griffen,
guine@@
harmon@@
haushaltsausschusses,
herstellen.
identisch
ignoriert,
indiens
ini.
irgendwelchen
jean-@@
job@@
komitologieverfahren
kommissars,
lach@@
laufbahn
laufs
lichen.
logistik
marge
maschine
menschenrechtsorganisationen
mindeste,
miter@@
mittl@@
musik@@
nachbarschafts@@
nachfol@@
negatives
nichtsdestoweniger
nissen.
nummern
nutzbrin@@
nutznießer
näh@@
oberhand
oberstes
offizieller
ona@@
ordnungsgemäß@@
otta@@
ozean
papa@@
parlamentsmitglieder
peripher@@
ppung
präziser
quellen,
r,
raffin@@
rain
ram@@
rang
rasan@@
ratschläge
rechnungslegungs@@
rechtsausschuß
rechtstex@@
reformieren.
reh@@
reißen
religion,
respekt,
risikokapital
rom@@
ruhestand
schock
schützt.
seien,
sicherheitsfragen
siv
spartnern
stellvertretenden
steuerhinterziehung
straßentran@@
sudanesischen
syste@@
terr@@
thomas
tradition,
tragenen
tunn@@
umzuwand@@
unterdessen
unternimmt.
untersagt
verabscheuungs@@
verbraucherorganisationen
verdeutlichen
verfall
verkündet
vernehmen
verschmutzungen
versorgt
verständigen
verwies
vorei@@
vorkommen.
vorn.
vä@@
wachen,
weigert,
wirkung.
wirtschaftlicher,
wortlau@@
wächst.
zuwenden,
zweifeln
zweifle
ße,
überflüssi@@
überprüft,
überschreiten.
üblich,
’
"europäische
-fraktion,
19,
2001,
5,@@
absage
abzuhalten.
aka@@
allmäh@@
ams
angekündigte
anzuerkennen
apier
asem-@@
assi@@
atischen
aufrechterhalten,
ausgab@@
ausgebildete
ausgeliefert
ausgerichtet.
aussieht.
automobi@@
außenwirtschaftsbeziehungen
bauern,
behandlung.
belassen.
beleben.
berg,
bewerkstelli@@
bewußts@@
bezüge
bleibe
brau@@
brust@@
cent@@
cia-@@
darauf.
demokra@@
dimas
dliches
dortige
drittstaatsangehöri@@
einhellig
einstieg
einzubinden.
einzuschränken,
energiepolitik,
entsorg@@
erfaßt
ergreifen?
erwor@@
essen,
europe@@
exakte
ferber
fli@@
fluggastdaten@@
folgt:
folgte
frassoni
freistellung
fremdenverkehr,
frühe@@
förm@@
gaben,
gali@@
geknüpf@@
genügen.
geri@@
gesammel@@
geschmack
gesetzgeberische
gestiegen,
geworfen
gier
hemi@@
herzstück
hilfestellung
hne,
häufigkeit
immobilien@@
innehat,
kennzeichnungs@@
kompatibel
kompromissvorschlag
konfliktprävention
kopie
kow@@
kubanische
kurdische
kämpft
kümmert
künf@@
langsam@@
liberalisiert
ließen.
lizenz
mehrheit@@
meiste
milliarden@@
mitzuwirken.
möglichkeit.
nachbar
nachbess@@
nachteilige
nahme,
nepal@@
obligator@@
olivenöl@@
onen,
partnerschaft.
personenkraftwagen
phen
pornogra@@
potentielle
provi@@
ratspräsident@@
realwirtschaft
regen
respek@@
schlimme
schnelles
schwä@@
sek@@
sichert,
soldaten,
sommerpause
sozialversicherung
ssicherung
staatsanwalt
staatsober@@
standardisierung
stande
stichwort
straßen,
tener
tragfähige
trocken@@
unerwünschten
ungspaket
uno,
unstrit@@
unterliegt.
untersuchungen,
verankert.
vereinbaren.
verhandlungsführer
verhängen.
verstößt.
video@@
vorjahr
wai@@
wasserqualität
wiegende
wirkt,
wirtschaftsp@@
wirtschaftspolitik.
wissenschaft,
wohnen
wohnsitz
worfen
wähler@@
würde?
zahl,
zahn@@
zeichen.
zerstört,
zuckerrü@@
zufall
zuflucht
170
1996,
2004.
absichtserklärung
abzuhalten,
afghanische
amtsblatt
anfang@@
anfänglich
anle@@
ante
antipersonenminen
arbeitskräf@@
arbeitsleben
arbeitsnormen
ausgangspun@@
ausländer
ausschließen,
ausschuß.
bausektor
befördert
beider@@
beispiellosen
beiträge.
bergen
beschuldigt
bestand.
bestrahl@@
betonte,
binnenschifffahrt
dargestellt,
derjenige,
dieb@@
differenz
din
divi@@
dollar@@
dor
effektiveren
einreichen
energieeinsparung
energiepolitik.
engagiert.
entwicklungsausschusses
erfolgreich@@
et?
fes@@
ffen
finan@@
finanztransaktionen
fizierung
fliegen
fluggast@@
formalitäten
französisch
fundamentalen
garriga
gear@@
gebietes
geblieben,
gebrem@@
gedauert
gegensätze
gemischte
gesichtspun@@
gestartet
gestimm@@
gon@@
grön@@
haarder
haftes
heftigen
hierin
hundertprozentig
installi@@
inten@@
intervention@@
irland.
jetz@@
jobs
juden
kinderpornogra@@
klopf@@
konflikt,
krankenhäuser
kräftig
kürzen.
land-@@
langsamen
lauter
lektionen
leuten,
linien@@
lissabon-strategie,
maritimen
meistern
milosevi@@
muss@@
nachdrücklich,
nachlässi@@
nahm.
nationalen,
normung
opt-ou@@
osteuropa,
ou,
parallel@@
patentierung
pazi@@
pkw
plenarsa@@
politiken.
preise.
protektionistischen
rang@@
rechtlich@@
reflek@@
ressourc@@
richtern
richtigerweise
sanktionen.
scheidung
schlach@@
seel@@
sensibles
sorgt.
sr@@
ssin@@
staatlichkeit
stabilitä@@
stands,
stark,
ständ@@
sun@@
sün@@
technologien.
tto
tto@@
tödlichen
unantast@@
unheil@@
unterwegs
verbot,
verlänger@@
verlängern
versamml@@
verstümmel@@
verzug
veröffentlich@@
vorzugsweise
waffenhandel
weltbühne
wirft,
wirksameren
währungsunion,
zulässige
zusammenhängen.
zusammenwirken
zwöl@@
öl-
übergangsfristen
überzeugungs@@
üblicherweise
ő@@
48@@
9/@@
afrikan@@
ana@@
angekündigt.
angemel@@
arbeitsrecht
armer
auffä@@
aufgeschlo@@
aufzeigt,
ausschöpfung
ausweich@@
ausweis
barnier,
bedürfen,
beispiele.
beispiellose
beit@@
beiträ@@
bekundungen
berichtet.
beruhigen.
besucher
betrieben.
betrieblichen
beweis,
beweislast
billig
blicken,
blieben
blü@@
branche,
brüssel@@
dacht
dankt
daphne-@@
delegierten
denz
detaillier@@
dezem@@
dierung
dilemm@@
drittstaatsangehörige
durfte
dustrie,
einbezieht.
einbezogen.
einfachere
einheit,
einzugs@@
elektron@@
enen.
enp
enswerten
enthalten@@
erem
erender
ergeb@@
erlangung
ernsthaftes
errungen@@
erwachsenen@@
erwies@@
erworbenen
es"
fakt@@
finanzsystem
flich@@
freitag,
fremden
füllen.
geantwortet
gedauert,
geeignet.
geeinigt.
gefundenen
gegengewicht
geldmittel
gemeint,
genossen
genutzten
gerne,
gerät.
gerüstet
gesamthaushaltsplan
geschaff@@
gescheitert.
gesteigert
gewidmet.
gewässer@@
gleichen,
glück,
grenzwerten
griechenland.
halbes
hauptursache
hierdurch
iao-@@
infektions@@
infrastruktur.
intensivieren
karibik
klä@@
knapp@@
konjunktur
konsultation@@
konsumi@@
kontrollen.
laden,
lamassoure
lucas
malaysia
mass@@
meistern.
minderheit,
missverständ@@
mitwirken
müssen@@
nicaragu@@
organisiert,
partnerschaftlichen
peace
personenbezogenen
plenums
pnr-@@
ppe-@@
praktikable
präambel
präzisier@@
rechtsmittel
respektiere
rezept
rindern
roth@@
schuhe
schwieriger,
sinitia@@
sische
solar@@
spannungs@@
staatsanwal@@
stopp@@
streiten,
teilungen
thun
tiefgreif@@
tourismus,
transforma@@
trennen
tunesi@@
tärer
umsichtig
umstrukturi@@
ungeheuer@@
unsinn
unternehmer,
unverständlich
unzulässig
urlaubs
ursprungskennzeichnung
vent@@
verantwortungsbewusste
verbrechen.
vergessenheit
vergewaltigung
verhängten
vernachlässigen.
verschließen.
verunreinigung
verweigert.
vez
visionen
vogelgrippe
vollmitgliedschaft
vorangehen
vorbei,
vorgezogen,
vorteile.
wasserrahmenrichtlinie
wehren,
weiterverbreitung
wirtschaftspoliti@@
wto-regeln
zahlungsverzug
zeitpläne
zivilgesellschaft.
zufriedenstell@@
zugeteilt
zugänglichen
zulässi@@
zusammenhal@@
zusammenzuarbeiten
zutiefst,
zutreffend
án
ägypten,
ç@@
špidla
140
abgestimmten
abschlusses
abschnitte
abweichung
agenda.
agieren,
agieren.
aktuelles
alber@@
alzheimer-krankheit
ankunft
ansteigen
anzuschließen,
arsen@@
asylrecht
atlantiks
ausführungs@@
ausschließen.
ausschluß
auszusetzen,
auszusprechen,
b5-00@@
balkanländer
bask@@
baumwolle
bedroht,
befürchtung,
begründung,
belasten
berechtigt.
bericht:
besorgnis,
besorgniserregend,
besteuerungs@@
bewuß@@
bild,
blockiert.
blutigen
bringe
büch@@
darlehens@@
designi@@
dicht
diese,
doyle
dringlichen
ein-
einwanderungs-
einzigartigen
empfun@@
entlassung
erledigen
erläutert.
ermutigend
erstaunt,
eskali@@
etiket@@
eu-mitgliedstaat
fabre-aubresp@@
feind@@
ferrei@@
firmen,
flexibilisierung
formuli@@
freuen.
gegebene
gehens
gelegten
[...]
