{
  "<EOS>": 0,
  "<GO>": 1,
  "<UNK>": 2,
  "the": 3,
  "of": 4,
  "to": 5,
  "and": 6,
  "in": 7,
  "that": 8,
  "a": 9,
  "is": 10,
  "we": 11,
  "for": 12,
  "i": 13,
  "this": 14,
  "on": 15,
  "it": 16,
  "be": 17,
  "are": 18,
  "have": 19,
  "as": 20,
  "not": 21,
  "with": 22,
  "european": 23,
  "which": 24,
  "will": 25,
  "by": 26,
  "has": 27,
  "mr": 28,
  "at": 29,
  "an": 30,
  "would": 31,
  "also": 32,
  "should": 33,
  "our": 34,
  "but": 35,
  "from": 36,
  "must": 37,
  "all": 38,
  "-": 39,
  "been": 40,
  "there": 41,
  "commission": 42,
  "president,": 43,
  "you": 44,
  "can": 45,
  "member": 46,
  "was": 47,
  "its": 48,
  "more": 49,
  "these": 50,
  "they": 51,
  "or": 52,
  "their": 53,
  "like": 54,
  "very": 55,
  "what": 56,
  "do": 57,
  "if": 58,
  "one": 59,
  "my": 60,
  "no": 61,
  "parliament": 62,
  "about": 63,
  "report": 64,
  "so": 65,
  "union": 66,
  "states": 67,
  "need": 68,
  "only": 69,
  "other": 70,
  "new": 71,
  "who": 72,
  "council": 73,
  "us": 74,
  "important": 75,
  "eu": 76,
  "because": 77,
  "am": 78,
  "such": 79,
  "when": 80,
  "however,": 81,
  "those": 82,
  "take": 83,
  "some": 84,
  "into": 85,
  "people": 86,
  "make": 87,
  "between": 88,
  "up": 89,
  "support": 90,
  "now": 91,
  "countries": 92,
  "any": 93,
  "europe": 94,
  "out": 95,
  "being": 96,
  "economic": 97,
  "political": 98,
  "many": 99,
  "policy": 100,
  "were": 101,
  "therefore": 102,
  "than": 103,
  "time": 104,
  "social": 105,
  "first": 106,
  "made": 107,
  "believe": 108,
  "committee": 109,
  "against": 110,
  "work": 111,
  "just": 112,
  "rights": 113,
  "human": 114,
  "even": 115,
  "think": 116,
  "does": 117,
  "way": 118,
  "say": 119,
  "cannot": 120,
  "how": 121,
  "two": 122,
  "could": 123,
  "most": 124,
  "had": 125,
  "want": 126,
  "development": 127,
  "same": 128,
  "proposal": 129,
  "national": 130,
  "international": 131,
  "debate": 132,
  "where": 133,
  "order": 134,
  "public": 135,
  "financial": 136,
  "already": 137,
  "within": 138,
  "right": 139,
  "fact": 140,
  "question": 141,
  "both": 142,
  "mrs": 143,
  "them": 144,
  "common": 145,
  "still": 146,
  "that,": 147,
  "your": 148,
  "point": 149,
  "good": 150,
  "much": 151,
  "thank": 152,
  "under": 153,
  "he": 154,
  "able": 155,
  "why": 156,
  "see": 157,
  "his": 158,
  "agreement": 159,
  "may": 160,
  "measures": 161,
  "community": 162,
  "over": 163,
  "use": 164,
  "situation": 165,
  "issue": 166,
  "part": 167,
  "me": 168,
  "–": 169,
  "ensure": 170,
  "clear": 171,
  "market": 172,
  "last": 173,
  "hope": 174,
  "without": 175,
  "and,": 176,
  "well": 177,
  "vote": 178,
  "put": 179,
  "taken": 180,
  "state": 181,
  "members": 182,
  "here": 183,
  "ladies": 184,
  "number": 185,
  "own": 186,
  "gentlemen,": 187,
  "group": 188,
  "energy": 189,
  "madam": 190,
  "through": 191,
  "'@@": 192,
  "cooperation": 193,
  "great": 194,
  "legal": 195,
  "possible": 196,
  "know": 197,
  "given": 198,
  "since": 199,
  "means": 200,
  "then": 201,
  "give": 202,
  "particularly": 203,
  "before": 204,
  "directive": 205,
  "future": 206,
  "s": 207,
  "united": 208,
  "action": 209,
  "information": 210,
  "let": 211,
  "citizens": 212,
  "after": 213,
  "security": 214,
  "said": 215,
  "too": 216,
  "place": 217,
  "commissioner": 218,
  "years": 219,
  "country": 220,
  "whether": 221,
  ".": 222,
  "world": 223,
  "amendments": 224,
  "next": 225,
  "set": 226,
  "union.": 227,
  "certain": 228,
  "commissioner,": 229,
  "rules": 230,
  "far": 231,
  "president": 232,
  "protection": 233,
  "view": 234,
  "further": 235,
  "system": 236,
  "government": 237,
  "trade": 238,
  "particular": 239,
  "favour": 240,
  "end": 241,
  "necessary": 242,
  "regard": 243,
  "problem": 244,
  "amendment": 245,
  "problems": 246,
  "area": 247,
  "role": 248,
  "behalf": 249,
  "framework": 250,
  "today": 251,
  "health": 252,
  "come": 253,
  "agree": 254,
  "different": 255,
  "help": 256,
  "position": 257,
  "process": 258,
  "budget": 259,
  "ask": 260,
  "case": 261,
  "continue": 262,
  "house": 263,
  "needs": 264,
  "better": 265,
  "resolution": 266,
  "states.": 267,
  "respect": 268,
  "it.": 269,
  "treaty": 270,
  "going": 271,
  "during": 272,
  "wish": 273,
  "level": 274,
  "few": 275,
  "voted": 276,
  "three": 277,
  "every": 278,
  "towards": 279,
  "year": 280,
  "working": 281,
  "issues": 282,
  "adopted": 283,
  "something": 284,
  "proposals": 285,
  "current": 286,
  "welcome": 287,
  "terms": 288,
  "shall": 289,
  "programme": 290,
  "long": 291,
  "matter": 292,
  "quite": 293,
  "europe.": 294,
  "really": 295,
  "basis": 296,
  "go": 297,
  "did": 298,
  "fundamental": 299,
  "present": 300,
  "including": 301,
  "women": 302,
  "aid": 303,
  "provide": 304,
  "once": 305,
  "general": 306,
  "environmental": 307,
  "another": 308,
  "areas": 309,
  "specific": 310,
  "internal": 311,
  "second": 312,
  "progress": 313,
  "done": 314,
  "decision": 315,
  "report.": 316,
  "especially": 317,
  "regulation": 318,
  "become": 319,
  "find": 320,
  "course,": 321,
  "greater": 322,
  "while": 323,
  "increase": 324,
  "states,": 325,
  "proposed": 326,
  "clearly": 327,
  "again": 328,
  "opportunity": 329,
  "is,": 330,
  "yet": 331,
  "presidency": 332,
  "rapporteur": 333,
  "used": 334,
  "rather": 335,
  "services": 336,
  "serious": 337,
  "therefore,": 338,
  "commission's": 339,
  "democratic": 340,
  "research": 341,
  "taking": 342,
  "time,": 343,
  "always": 344,
  "major": 345,
  "all,": 346,
  "allow": 347,
  "each": 348,
  "third": 349,
  "result": 350,
  "making": 351,
  "importance": 352,
  "real": 353,
  "call": 354,
  "get": 355,
  "whole": 356,
  "high": 357,
  "having": 358,
  "various": 359,
  "based": 360,
  ",": 361,
  "small": 362,
  "change": 363,
  "deal": 364,
  "forward": 365,
  "million": 366,
  "legislation": 367,
  "access": 368,
  "transport": 369,
  "commission,": 370,
  "parliament,": 371,
  "law": 372,
  "report,": 373,
  "strategy": 374,
  "achieve": 375,
  "safety": 376,
  "example,": 377,
  "look": 378,
  "free": 379,
  "union,": 380,
  "countries.": 381,
  "single": 382,
  "approach": 383,
  "difficult": 384,
  "course": 385,
  "subject": 386,
  "although": 387,
  "principle": 388,
  "account": 389,
  "down": 390,
  "essential": 391,
  "policy.": 392,
  "employment": 393,
  "regional": 394,
  "conditions": 395,
  "food": 396,
  "attention": 397,
  "un@@": 398,
  "positive": 399,
  "consider": 400,
  "together": 401,
  "less": 402,
  "effective": 403,
  "implementation": 404,
  "eur": 405,
  "fully": 406,
  "least": 407,
  "certainly": 408,
  "foreign": 409,
  "recent": 410,
  "agricultural": 411,
  "following": 412,
  "back": 413,
  "efforts": 414,
  "responsibility": 415,
  "crisis": 416,
  "global": 417,
  "large": 418,
  "finally,": 419,
  "sector": 420,
  "article": 421,
  "institutions": 422,
  "extremely": 423,
  "simply": 424,
  "commission.": 425,
  "this.": 426,
  "authorities": 427,
  "europe,": 428,
  "full": 429,
  "negotiations": 430,
  "resources": 431,
  "concerns": 432,
  "often": 433,
  "her": 434,
  "best": 435,
  "this,": 436,
  "main": 437,
  "bring": 438,
  "funds": 439,
  "council,": 440,
  "opinion": 441,
  "countries,": 442,
  "parliament.": 443,
  "freedom": 444,
  "concerning": 445,
  "actually": 446,
  "re@@": 447,
  "step": 448,
  "might": 449,
  "'": 450,
  "accept": 451,
  "developing": 452,
  "create": 453,
  "joint": 454,
  "interests": 455,
  "perhaps": 456,
  "control": 457,
  "reform": 458,
  "things": 459,
  "court": 460,
  "de": 461,
  "money": 462,
  "growth": 463,
  "improve": 464,
  "currently": 465,
  "quality": 466,
  "?": 467,
  "reason": 468,
  "fight": 469,
  "products": 470,
  "them.": 471,
  "industry": 472,
  "policy,": 473,
  "policies": 474,
  "points": 475,
  "key": 476,
  "climate": 477,
  "rule": 478,
  "majority": 479,
  "central": 480,
  "regarding": 481,
  "you,": 482,
  "aware": 483,
  "among": 484,
  "itself": 485,
  "objective": 486,
  "parliament's": 487,
  "form": 488,
  ";": 489,
  "special": 490,
  "lisbon": 491,
  "impact": 492,
  "example": 493,
  "procedure": 494,
  "relations": 495,
  "which,": 496,
  "decisions": 497,
  "secondly,": 498,
  "civil": 499,
  "involved": 500,
  "power": 501,
  "start": 502,
  "peace": 503,
  "-@@": 504,
  "interest": 505,
  "understand": 506,
  "concern": 507,
  "nuclear": 508,
  "consumer": 509,
  "structural": 510,
  "several": 511,
  "competition": 512,
  "regards": 513,
  "open": 514,
  "affairs": 515,
  "regions": 516,
  ":": 517,
  "questions": 518,
  "meeting": 519,
  "democracy": 520,
  "appropriate": 521,
  "said,": 522,
  "congratulate": 523,
  "lack": 524,
  "sustainable": 525,
  "responsible": 526,
  "agreements": 527,
  "legislative": 528,
  "little": 529,
  "dialogue": 530,
  "draft": 531,
  "feel": 532,
  "companies": 533,
  "today,": 534,
  "risk": 535,
  "1": 536,
  "production": 537,
  "individual": 538,
  "promote": 539,
  "doing": 540,
  "due": 541,
  "labour": 542,
  "excellent": 543,
  "available": 544,
  "significant": 545,
  "concerned": 546,
  "local": 547,
  "standards": 548,
  "'s": 549,
  "particular,": 550,
  "makes": 551,
  "longer": 552,
  "above": 553,
  "final": 554,
  "nothing": 555,
  "sure": 556,
  "indeed": 557,
  "solution": 558,
  "prevent": 559,
  "it,": 560,
  "budgetary": 561,
  "writing.": 562,
  "management": 563,
  "external": 564,
  "strong": 565,
  "environment": 566,
  "kind": 567,
  "young": 568,
  "lead": 569,
  "guarantee": 570,
  "mean": 571,
  "aim": 572,
  "objectives": 573,
  "stability": 574,
  "s,": 575,
  "provided": 576,
  "party": 577,
  "until": 578,
  "programmes": 579,
  "existing": 580,
  "rights.": 581,
  "initiative": 582,
  "include": 583,
  "results": 584,
  "rights,": 585,
  "text": 586,
  "seen": 587,
  "data": 588,
  "act": 589,
  "commitment": 590,
  "council.": 591,
  "future.": 592,
  "comes": 593,
  "tax": 594,
  "in@@": 595,
  "force": 596,
  "she": 597,
  "plan": 598,
  "euro": 599,
  "market.": 600,
  "remain": 601,
  "technical": 602,
  "agreed": 603,
  "society": 604,
  "relation": 605,
  "idea": 606,
  "seems": 607,
  "time.": 608,
  "pleased": 609,
  "workers": 610,
  "period": 611,
  "line": 612,
  "upon": 613,
  "never": 614,
  "share": 615,
  "despite": 616,
  "according": 617,
  "play": 618,
  "s.": 619,
  "conference": 620,
  "groups": 621,
  "justice": 622,
  "funding": 623,
  "union's": 624,
  "fund": 625,
  "apply": 626,
  "children": 627,
  "principles": 628,
  "thing": 629,
  "field": 630,
  "basic": 631,
  "move": 632,
  "fact,": 633,
  "benefit": 634,
  "thus": 635,
  "economy": 636,
  "express": 637,
  "000": 638,
  "mentioned": 639,
  "enlargement": 640,
  "compromise": 641,
  "investment": 642,
  "carried": 643,
  "firstly,": 644,
  "that.": 645,
  "military": 646,
  "cultural": 647,
  "equal": 648,
  "voting": 649,
  "true": 650,
  "needed": 651,
  "priority": 652,
  "agenda": 653,
  "protect": 654,
  "throughout": 655,
  "fisheries": 656,
  "pay": 657,
  "asked": 658,
  "words": 659,
  "reduce": 660,
  "parliamentary": 661,
  "contribution": 662,
  "monetary": 663,
  "education": 664,
  "life": 665,
  "solidarity": 666,
  "convention": 667,
  "nor": 668,
  "governments": 669,
  "draw": 670,
  "communication": 671,
  "reports": 672,
  "show": 673,
  "rapporteur,": 674,
  "context": 675,
  "adopt": 676,
  "everyone": 677,
  "meet": 678,
  "relating": 679,
  "item": 680,
  "costs": 681,
  "keep": 682,
  "cohesion": 683,
  "hand,": 684,
  "using": 685,
  "speak": 686,
  "years.": 687,
  "consumers": 688,
  "crucial": 689,
  "parties": 690,
  "projects": 691,
  "region": 692,
  "previous": 693,
  "year.": 694,
  "summit": 695,
  "achieved": 696,
  "talking": 697,
  "turkey": 698,
  "off": 699,
  "everything": 700,
  "soon": 701,
  "increased": 702,
  "held": 703,
  "response": 704,
  "matters": 705,
  "aspects": 706,
  "accession": 707,
  "around": 708,
  "rural": 709,
  "changes": 710,
  "provisions": 711,
  "increasing": 712,
  "enough": 713,
  "ing,": 714,
  "creation": 715,
  "cases": 716,
  "now,": 717,
  "called": 718,
  "furthermore,": 719,
  "themselves": 720,
  "develop": 721,
  "across": 722,
  "tabled": 723,
  "service": 724,
  "view,": 725,
  "jobs": 726,
  "activities": 727,
  "four": 728,
  "presented": 729,
  "work.": 730,
  "saying": 731,
  "close": 732,
  "too,": 733,
  "thanks": 734,
  "mention": 735,
  "group.": 736,
  "years,": 737,
  "prepared": 738,
  "absolutely": 739,
  "assistance": 740,
  "try": 741,
  "us,": 742,
  "address": 743,
  "discussion": 744,
  "actions": 745,
  "level.": 746,
  "business": 747,
  "answer": 748,
  "application": 749,
  "statement": 750,
  "fishing": 751,
  "monitoring": 752,
  "request": 753,
  "year,": 754,
  "him": 755,
  "colleagues": 756,
  "though": 757,
  "reach": 758,
  "systems": 759,
  "almost": 760,
  "coming": 761,
  "namely": 762,
  "world.": 763,
  "focus": 764,
  "agriculture": 765,
  "establish": 766,
  "five": 767,
  "effect": 768,
  "fellow": 769,
  "decided": 770,
  "expressed": 771,
  "road": 772,
  "eu's": 773,
  "illegal": 774,
  "ourselves": 775,
  "us.": 776,
  "whose": 777,
  "tell": 778,
  "along": 779,
  "led": 780,
  "nations": 781,
  "unfortunately,": 782,
  "face": 783,
  "today.": 784,
  "brought": 785,
  "private": 786,
  "transparency": 787,
  "additional": 788,
  "case,": 789,
  "moreover,": 790,
  "balance": 791,
  "minister": 792,
  "enable": 793,
  "months": 794,
  "talk": 795,
  "integration": 796,
  "direct": 797,
  "implement": 798,
  "citizens.": 799,
  "giving": 800,
  "others": 801,
  "opportunities": 802,
  "russia": 803,
  "president-in-office": 804,
  "consequences": 805,
  "eu.": 806,
  "reasons": 807,
  "vital": 808,
  "minutes": 809,
  "left": 810,
  "potential": 811,
  "day": 812,
  "know,": 813,
  "issue.": 814,
  "took": 815,
  "completely": 816,
  "reached": 817,
  "possible.": 818,
  "un": 819,
  "here.": 820,
  "fair": 821,
  "people.": 822,
  "criminal": 823,
  "area.": 824,
  "so,": 825,
  "encourage": 826,
  "review": 827,
  "honourable": 828,
  "pressure": 829,
  "demand": 830,
  "‘@@": 831,
  "war": 832,
  "outside": 833,
  "europe's": 834,
  "natural": 835,
  "ensuring": 836,
  "takes": 837,
  "concerned,": 838,
  "air": 839,
  "creating": 840,
  "british": 841,
  "people,": 842,
  "reduction": 843,
  "raised": 844,
  "strengthen": 845,
  "farmers": 846,
  "value": 847,
  "regulations": 848,
  "supported": 849,
  "experience": 850,
  "project": 851,
  "required": 852,
  "indeed,": 853,
  "humanitarian": 854,
  "begin": 855,
  "defence": 856,
  "opinion,": 857,
  "instead": 858,
  "note": 859,
  "violence": 860,
  "!": 861,
  "country,": 862,
  "job": 863,
  "amount": 864,
  "cause": 865,
  "past": 866,
  "movement": 867,
  "behind": 868,
  "included": 869,
  "lot": 870,
  "process.": 871,
  "values": 872,
  "ing.": 873,
  "2": 874,
  "e@@": 875,
  "practical": 876,
  "found": 877,
  "living": 878,
  "population": 879,
  "instrument": 880,
  "stress": 881,
  "dis@@": 882,
  "relevant": 883,
  "effects": 884,
  "discuss": 885,
  "received": 886,
  "partnership": 887,
  "expect": 888,
  "training": 889,
  "remains": 890,
  "d@@": 891,
  "water": 892,
  "scientific": 893,
  "french": 894,
  "not,": 895,
  "offer": 896,
  "cost": 897,
  "proper": 898,
  "avoid": 899,
  "s@@": 900,
  "market,": 901,
  "doubt": 902,
  "recently": 903,
  "possibility": 904,
  "criteria": 905,
  "procedures": 906,
  "here,": 907,
  "success": 908,
  "task": 909,
  "country.": 910,
  "instruments": 911,
  "precisely": 912,
  "live": 913,
  "sense": 914,
  "effort": 915,
  "waste": 916,
  "closed.": 917,
  "but,": 918,
  "approved": 919,
  "debate.": 920,
  "established": 921,
  "times": 922,
  "requirements": 923,
  "light": 924,
  "aimed": 925,
  "carry": 926,
  "es": 927,
  "trying": 928,
  "motion": 929,
  "administrative": 930,
  "initiatives": 931,
  "heard": 932,
  "discussed": 933,
  "reference": 934,
  "either": 935,
  "development.": 936,
  "representatives": 937,
  "huge": 938,
  "list": 939,
  "price": 940,
  "industrial": 941,
  "paragraph": 942,
  "improving": 943,
  "active": 944,
  "10": 945,
  "goes": 946,
  "contribute": 947,
  "challenges": 948,
  "group,": 949,
  "adoption": 950,
  "strategic": 951,
  "stop": 952,
  "poverty": 953,
  "implementing": 954,
  "discussions": 955,
  "provides": 956,
  "elections": 957,
  "institutional": 958,
  "considered": 959,
  "markets": 960,
  "dealing": 961,
  "personal": 962,
  "coordination": 963,
  "shown": 964,
  "total": 965,
  "green": 966,
  "add": 967,
  "turn": 968,
  "scope": 969,
  "providing": 970,
  "ever": 971,
  "powers": 972,
  "accordance": 973,
  "allowed": 974,
  "considerable": 975,
  "away": 976,
  "non-@@": 977,
  "nature": 978,
  "prime": 979,
  "victims": 980,
  "six": 981,
  "es,": 982,
  "3": 983,
  "are,": 984,
  "priorities": 985,
  "finally": 986,
  "conflict": 987,
  "promoting": 988,
  "independent": 989,
  "combat": 990,
  "rightly": 991,
  "sector.": 992,
  "receive": 993,
  "home": 994,
  "old": 995,
  "per": 996,
  "assessment": 997,
  "beyond": 998,
  "organisations": 999,
  "short": 1000,
  "quickly": 1001,
  "calls": 1002,
  "constitutional": 1003,
  "remind": 1004,
  "men": 1005,
  "long-term": 1006,
  "requires": 1007,
  "ing": 1008,
  "way,": 1009,
  "annual": 1010,
  "directive.": 1011,
  "15": 1012,
  "moment": 1013,
  "law.": 1014,
  "applied": 1015,
  "minimum": 1016,
  "propose": 1017,
  "committed": 1018,
  "confidence": 1019,
  "looking": 1020,
  "words,": 1021,
  "system.": 1022,
  "mind": 1023,
  "billion": 1024,
  "environment,": 1025,
  "ten": 1026,
  "k@@": 1027,
  "asylum": 1028,
  "developed": 1029,
  "message": 1030,
  "20": 1031,
  "ministers": 1032,
  "future,": 1033,
  "forms": 1034,
  "proposal.": 1035,
  "eastern": 1036,
  "nevertheless,": 1037,
  "return": 1038,
  "hard": 1039,
  "es.": 1040,
  "addition,": 1041,
  "12": 1042,
  "practice": 1043,
  "hand": 1044,
  "supporting": 1045,
  "entire": 1046,
  "overall": 1047,
  "obviously": 1048,
  "say,": 1049,
  "urgent": 1050,
  "situation.": 1051,
  "events": 1052,
  "implemented": 1053,
  "again,": 1054,
  "animal": 1055,
  "levels": 1056,
  "treatment": 1057,
  "de@@": 1058,
  "setting": 1059,
  "participation": 1060,
  "referred": 1061,
  "irish": 1062,
  "maintain": 1063,
  "wanted": 1064,
  "republic": 1065,
  "provision": 1066,
  "ago": 1067,
  "agreement.": 1068,
  "introduction": 1069,
  "bank": 1070,
  "eu,": 1071,
  "combating": 1072,
  "medium-sized": 1073,
  "shows": 1074,
  "organisation": 1075,
  "well.": 1076,
  "%": 1077,
  "package": 1078,
  "steps": 1079,
  "complete": 1080,
  "capacity": 1081,
  "paid": 1082,
  "gives": 1083,
  "china": 1084,
  "reducing": 1085,
  "sometimes": 1086,
  "stand": 1087,
  "increasingly": 1088,
  "stated": 1089,
  "achieving": 1090,
  "affected": 1091,
  "guidelines": 1092,
  "former": 1093,
  "financing": 1094,
  "half": 1095,
  "urge": 1096,
  "decide": 1097,
  "paper": 1098,
  "’s": 1099,
  "similar": 1100,
  "rate": 1101,
  "them,": 1102,
  "sitting": 1103,
  "tomorrow": 1104,
  "g@@": 1105,
  "death": 1106,
  "emissions": 1107,
  "genuine": 1108,
  "way.": 1109,
  "reforms": 1110,
  "strengthening": 1111,
  "produce": 1112,
  "immigration": 1113,
  "ban": 1114,
  "closely": 1115,
  "directly": 1116,
  "german": 1117,
  "middle": 1118,
  "care": 1119,
  "calling": 1120,
  "oil": 1121,
  "caused": 1122,
  "beginning": 1123,
  "benefits": 1124,
  "early": 1125,
  "higher": 1126,
  "emphasise": 1127,
  "sea": 1128,
  "successful": 1129,
  "hear": 1130,
  "highly": 1131,
  "\"@@": 1132,
  "development,": 1133,
  "discussing": 1134,
  "ago,": 1135,
  "t@@": 1136,
  "conclusions": 1137,
  "then,": 1138,
  "family": 1139,
  "join": 1140,
  "people's": 1141,
  "problem.": 1142,
  "created": 1143,
  "represents": 1144,
  "culture": 1145,
  "leave": 1146,
  "intended": 1147,
  "competitiveness": 1148,
  "exchange": 1149,
  "al@@": 1150,
  "extent": 1151,
  "refer": 1152,
  "b@@": 1153,
  "establishing": 1154,
  "cross-border": 1155,
  "type": 1156,
  "cut": 1157,
  "ways": 1158,
  "require": 1159,
  "constitution": 1160,
  "police": 1161,
  "so-called": 1162,
  "stage": 1163,
  "december": 1164,
  "o@@": 1165,
  "document": 1166,
  "level,": 1167,
  "media": 1168,
  "t,": 1169,
  "respond": 1170,
  "a,": 1171,
  "becoming": 1172,
  "views": 1173,
  "challenge": 1174,
  "p@@": 1175,
  "authority": 1176,
  "question.": 1177,
  "south": 1178,
  "represent": 1179,
  "terrorism": 1180,
  "specifically": 1181,
  "sufficient": 1182,
  "work,": 1183,
  "matter.": 1184,
  "on.": 1185,
  "anything": 1186,
  "candidate": 1187,
  "connection": 1188,
  "pointed": 1189,
  "areas.": 1190,
  "'.": 1191,
  "fr": 1192,
  "solutions": 1193,
  "status": 1194,
  "convinced": 1195,
  "follow": 1196,
  "difficulties": 1197,
  "border": 1198,
  "comprehensive": 1199,
  "probably": 1200,
  "concrete": 1201,
  "speaking": 1202,
  "directive,": 1203,
  "gas": 1204,
  "written": 1205,
  "unemployment": 1206,
  "produced": 1207,
  "wants": 1208,
  "efficient": 1209,
  "recognise": 1210,
  "american": 1211,
  "poor": 1212,
  "ambitious": 1213,
  "statements": 1214,
  "whom": 1215,
  "entirely": 1216,
  "programme.": 1217,
  "introduce": 1218,
  "model": 1219,
  "forces": 1220,
  "efficiency": 1221,
  "duty": 1222,
  "asking": 1223,
  "agency": 1224,
  "debate,": 1225,
  "raise": 1226,
  "so.": 1227,
  "businesses": 1228,
  "broad": 1229,
  "ation,": 1230,
  "prices": 1231,
  "east": 1232,
  "5": 1233,
  "4": 1234,
  "limited": 1235,
  "competitive": 1236,
  "hold": 1237,
  "rise": 1238,
  "spanish": 1239,
  "supply": 1240,
  "issues.": 1241,
  "building": 1242,
  "june": 1243,
  "exactly": 1244,
  "democrats": 1245,
  "s?": 1246,
  "remember": 1247,
  "partners": 1248,
  "treaty.": 1249,
  "ation.": 1250,
  "comments": 1251,
  "agreement,": 1252,
  "c@@": 1253,
  "strongly": 1254,
  "facing": 1255,
  "budget.": 1256,
  "plans": 1257,
  "i@@": 1258,
  "regret": 1259,
  "opening": 1260,
  "support.": 1261,
  "limit": 1262,
  "goods": 1263,
  "f@@": 1264,
  "accepted": 1265,
  "closer": 1266,
  "equality": 1267,
  "demands": 1268,
  "consideration": 1269,
  "knowledge": 1270,
  "important.": 1271,
  "related": 1272,
  "proposal,": 1273,
  "capital": 1274,
  "aspect": 1275,
  "dealt": 1276,
  "commercial": 1277,
  "sector,": 1278,
  "integrated": 1279,
  "25": 1280,
  "y,": 1281,
  "discrimination": 1282,
  "delegation": 1283,
  "too.": 1284,
  "putting": 1285,
  "one.": 1286,
  "parts": 1287,
  "western": 1288,
  "legislation.": 1289,
  "citizens,": 1290,
  "big": 1291,
  "balanced": 1292,
  "aims": 1293,
  "thirdly,": 1294,
  "critical": 1295,
  "term": 1296,
  "content": 1297,
  "ireland": 1298,
  "study": 1299,
  "palestinian": 1300,
  "all.": 1301,
  "week": 1302,
  "recognition": 1303,
  "sectors": 1304,
  "constructive": 1305,
  "world,": 1306,
  "law,": 1307,
  "mutual": 1308,
  "technology": 1309,
  "neither": 1310,
  "thousands": 1311,
  "30": 1312,
  "known": 1313,
  "wto": 1314,
  "industry,": 1315,
  "bear": 1316,
  "house.": 1317,
  "side": 1318,
  "applies": 1319,
  "days": 1320,
  "out,": 1321,
  "negative": 1322,
  "mainly": 1323,
  "effectively": 1324,
  "procedure.": 1325,
  "name": 1326,
  "possible,": 1327,
  "russian": 1328,
  "sensitive": 1329,
  "product": 1330,
  "january": 1331,
  "innovation": 1332,
  "growing": 1333,
  "vote.": 1334,
  "added": 1335,
  "measure": 1336,
  "seek": 1337,
  "issue,": 1338,
  "rest": 1339,
  "merely": 1340,
  "drawn": 1341,
  "11": 1342,
  "commitments": 1343,
  "send": 1344,
  "came": 1345,
  "purpose": 1346,
  "unable": 1347,
  "happy": 1348,
  "useful": 1349,
  "alternative": 1350,
  "sort": 1351,
  "representative": 1352,
  "forget": 1353,
  "on,": 1354,
  "attempt": 1355,
  "crime": 1356,
  "crisis.": 1357,
  "myself": 1358,
  "ed": 1359,
  "affairs,": 1360,
  "leading": 1361,
  "enormous": 1362,
  "laid": 1363,
  "contains": 1364,
  "reason,": 1365,
  "unfortunately": 1366,
  "m@@": 1367,
  "outcome": 1368,
  "house,": 1369,
  "submitted": 1370,
  "build": 1371,
  "charter": 1372,
  "establishment": 1373,
  "well,": 1374,
  "renewable": 1375,
  "i,": 1376,
  "developments": 1377,
  "official": 1378,
  "6": 1379,
  "france": 1380,
  "word": 1381,
  "fall": 1382,
  "reading": 1383,
  "society.": 1384,
  "damage": 1385,
  "action.": 1386,
  "threat": 1387,
  "risks": 1388,
  "concept": 1389,
  "opposition": 1390,
  "area,": 1391,
  "thinking": 1392,
  "faced": 1393,
  "seem": 1394,
  "bringing": 1395,
  "t": 1396,
  "seriously": 1397,
  "unacceptable": 1398,
  "differences": 1399,
  "system,": 1400,
  "whilst": 1401,
  "now.": 1402,
  "ability": 1403,
  "relationship": 1404,
  "influence": 1405,
  "mediterranean": 1406,
  "t.": 1407,
  "comment": 1408,
  "spirit": 1409,
  "organised": 1410,
  "borders": 1411,
  "trust": 1412,
  "environment.": 1413,
  "ought": 1414,
  "intend": 1415,
  "addition": 1416,
  "regime": 1417,
  "problems.": 1418,
  "continuing": 1419,
  "press": 1420,
  "treaty,": 1421,
  "properly": 1422,
  "introduced": 1423,
  "north": 1424,
  "y.": 1425,
  "pl": 1426,
  "elements": 1427,
  "cooperation.": 1428,
  "important,": 1429,
  "italian": 1430,
  "totally": 1431,
  "o": 1432,
  "actual": 1433,
  "dangerous": 1434,
  "a@@": 1435,
  "will,": 1436,
  "because,": 1437,
  "supports": 1438,
  "reality": 1439,
  "getting": 1440,
  "worked": 1441,
  "ate": 1442,
  "conclusion": 1443,
  "n@@": 1444,
  "citizens'": 1445,
  "includes": 1446,
  "thought": 1447,
  "age": 1448,
  "elected": 1449,
  "programme,": 1450,
  "happened": 1451,
  "managed": 1452,
  "declaration": 1453,
  "2000": 1454,
  "institutions.": 1455,
  "substantial": 1456,
  "speech": 1457,
  "economy.": 1458,
  "liberalisation": 1459,
  "intergovernmental": 1460,
  "me,": 1461,
  "oral": 1462,
  "van": 1463,
  "turkish": 1464,
  "wrong": 1465,
  "council's": 1466,
  "expenditure": 1467,
  "forced": 1468,
  "read": 1469,
  "original": 1470,
  "state.": 1471,
  "gender": 1472,
  "crisis,": 1473,
  "informed": 1474,
  "improved": 1475,
  "reduced": 1476,
  "extend": 1477,
  "history": 1478,
  "s'": 1479,
  "8": 1480,
  "process,": 1481,
  "consensus": 1482,
  "finance": 1483,
  "told": 1484,
  "concerned.": 1485,
  "region.": 1486,
  "co@@": 1487,
  "over@@": 1488,
  "please": 1489,
  "language": 1490,
  "low": 1491,
  "protecting": 1492,
  "prevention": 1493,
  "l@@": 1494,
  "anyone": 1495,
  "chance": 1496,
  "point,": 1497,
  "be@@": 1498,
  "ar@@": 1499,
  "nos": 1500,
  "greatest": 1501,
  "immediate": 1502,
  "opposed": 1503,
  "recommendations": 1504,
  "ro@@": 1505,
  "grateful": 1506,
  "signed": 1507,
  "says": 1508,
  "5@@": 1509,
  "conclude": 1510,
  "northern": 1511,
  "measures.": 1512,
  "y@@": 1513,
  "out.": 1514,
  "improvement": 1515,
  "services.": 1516,
  "involving": 1517,
  "socialist": 1518,
  "highlight": 1519,
  "flexibility": 1520,
  "7": 1521,
  "lives": 1522,
  "adequate": 1523,
  "truly": 1524,
  "animals": 1525,
  "cover": 1526,
  "failure": 1527,
  "desire": 1528,
  "company": 1529,
  "today's": 1530,
  "fear": 1531,
  "resolve": 1532,
  "a.": 1533,
  "sound": 1534,
  "europeans": 1535,
  "office": 1536,
  "association": 1537,
  "committee,": 1538,
  "maritime": 1539,
  "adopting": 1540,
  "staff": 1541,
  "schengen": 1542,
  "date": 1543,
  "presidency,": 1544,
  "ers": 1545,
  "evidence": 1546,
  "enterprises": 1547,
  "en@@": 1548,
  "z@@": 1549,
  "reject": 1550,
  "starting": 1551,
  "addressed": 1552,
  "services,": 1553,
  "intention": 1554,
  "analysis": 1555,
  "promotion": 1556,
  "seeking": 1557,
  "areas,": 1558,
  "tackle": 1559,
  "easy": 1560,
  "ating": 1561,
  "linked": 1562,
  "judicial": 1563,
  "producers": 1564,
  "consultation": 1565,
  "definition": 1566,
  "ation": 1567,
  "uk": 1568,
  "understanding": 1569,
  "happen": 1570,
  "place.": 1571,
  "network": 1572,
  "3@@": 1573,
  "red": 1574,
  "methods": 1575,
  "march": 1576,
  "bilateral": 1577,
  "strategy.": 1578,
  "ready": 1579,
  "ti@@": 1580,
  "9": 1581,
  "mechanism": 1582,
  "appear": 1583,
  "export": 1584,
  "direction": 1585,
  "situation,": 1586,
  "child": 1587,
  "internet": 1588,
  "al,": 1589,
  "swedish": 1590,
  "event": 1591,
  "african": 1592,
  "documents": 1593,
  "laws": 1594,
  "land": 1595,
  "shared": 1596,
  "secure": 1597,
  "d,": 1598,
  "also,": 1599,
  "customs": 1600,
  "range": 1601,
  "wishes": 1602,
  "s:": 1603,
  "lost": 1604,
  "detailed": 1605,
  "amongst": 1606,
  "ed.": 1607,
  "series": 1608,
  "point.": 1609,
  "an@@": 1610,
  "activity": 1611,
  "exercise": 1612,
  "brussels": 1613,
  "6@@": 1614,
  "explain": 1615,
  "complex": 1616,
  "involvement": 1617,
  "burden": 1618,
  "involve": 1619,
  "correct": 1620,
  "comply": 1621,
  "degree": 1622,
  "unless": 1623,
  "acceptable": 1624,
  "s;": 1625,
  "serve": 1626,
  "directives": 1627,
  "designed": 1628,
  "failed": 1629,
  "christian": 1630,
  "h@@": 1631,
  "africa": 1632,
  "4@@": 1633,
  "heads": 1634,
  "defend": 1635,
  "li@@": 1636,
  "industry.": 1637,
  "regulatory": 1638,
  "bodies": 1639,
  "7@@": 1640,
  "fish": 1641,
  "leaders": 1642,
  "sign": 1643,
  "se@@": 1644,
  "there.": 1645,
  "initial": 1646,
  "intervention": 1647,
  "sanctions": 1648,
  "discharge": 1649,
  "earlier": 1650,
  "meps": 1651,
  "sources": 1652,
  "religious": 1653,
  "ideas": 1654,
  "israel": 1655,
  "change.": 1656,
  "met": 1657,
  "attitude": 1658,
  "conduct": 1659,
  "case.": 1660,
  "respect,": 1661,
  "weeks": 1662,
  "debates": 1663,
  "maximum": 1664,
  "exist": 1665,
  "approval": 1666,
  "er,": 1667,
  "commission’s": 1668,
  "transparent": 1669,
  "impossible": 1670,
  "interesting": 1671,
  "you.": 1672,
  "worth": 1673,
  "decision-making": 1674,
  "appeal": 1675,
  "enter": 1676,
  "policies.": 1677,
  "question,": 1678,
  "members,": 1679,
  "colleague": 1680,
  "later": 1681,
  "institutions,": 1682,
  "though,": 1683,
  "infrastructure": 1684,
  "states'": 1685,
  "method": 1686,
  "ts": 1687,
  "followed": 1688,
  "covered": 1689,
  "operation": 1690,
  "emphasis": 1691,
  "election": 1692,
  "body": 1693,
  "person": 1694,
  "moving": 1695,
  "simple": 1696,
  "resolution,": 1697,
  "bad": 1698,
  "protection.": 1699,
  "gave": 1700,
  "naturally": 1701,
  "recommendation": 1702,
  "refugees": 1703,
  "democracy.": 1704,
  "continues": 1705,
  "budgets": 1706,
  "rail": 1707,
  "element": 1708,
  "budget,": 1709,
  "y": 1710,
  "guarantees": 1711,
  "democracy,": 1712,
  "affect": 1713,
  "ra@@": 1714,
  "thereby": 1715,
  "travel": 1716,
  "domestic": 1717,
  "itself.": 1718,
  "run": 1719,
  "obtain": 1720,
  "appears": 1721,
  "ated": 1722,
  "one,": 1723,
  "terrorist": 1724,
  "acts": 1725,
  "measures,": 1726,
  "e": 1727,
  "monitor": 1728,
  "speakers": 1729,
  "procedure,": 1730,
  "trafficking": 1731,
  "delighted": 1732,
  "positions": 1733,
  "recognised": 1734,
  "inform": 1735,
  "fighting": 1736,
  "mechanisms": 1737,
  "obvious": 1738,
  "state,": 1739,
  "facilitate": 1740,
  "committee.": 1741,
  "talks": 1742,
  "placed": 1743,
  "tourism": 1744,
  "lastly,": 1745,
  "pact": 1746,
  "independence": 1747,
  "traffic": 1748,
  "ed,": 1749,
  "v@@": 1750,
  "resolution.": 1751,
  "kosovo": 1752,
  "advantage": 1753,
  "czech": 1754,
  "presence": 1755,
  "d.": 1756,
  "dimension": 1757,
  "p.m.": 1758,
  "granted": 1759,
  "greek": 1760,
  "repeat": 1761,
  "otherwise": 1762,
  "lower": 1763,
  "first,": 1764,
  "resources.": 1765,
  "women's": 1766,
  "responsibilities": 1767,
  "reflect": 1768,
  "context,": 1769,
  "allowing": 1770,
  "is@@": 1771,
  "persons": 1772,
  "targets": 1773,
  "rapporteurs": 1774,
  "circumstances": 1775,
  "via": 1776,
  "proposing": 1777,
  "evaluation": 1778,
  "voluntary": 1779,
  "figures": 1780,
  "germany": 1781,
  "rapid": 1782,
  "done.": 1783,
  "interested": 1784,
  "we,": 1785,
  "permanent": 1786,
  "rejected": 1787,
  "products.": 1788,
  "cooperation,": 1789,
  "glad": 1790,
  "administration": 1791,
  "le@@": 1792,
  "binding": 1793,
  "table": 1794,
  "payments": 1795,
  "sent": 1796,
  "m": 1797,
  "mandate": 1798,
  "target": 1799,
  "ted": 1800,
  "centre": 1801,
  "negotiating": 1802,
  "technological": 1803,
  "currency": 1804,
  "likely": 1805,
  "numerous": 1806,
  "50": 1807,
  "yesterday": 1808,
  "source": 1809,
  "pt": 1810,
  "practices": 1811,
  "globalisation": 1812,
  "whatever": 1813,
  "professional": 1814,
  "equally": 1815,
  "entry": 1816,
  "acp": 1817,
  "compliance": 1818,
  "position.": 1819,
  "causes": 1820,
  "ri@@": 1821,
  "reasonable": 1822,
  "rapporteur.": 1823,
  "8@@": 1824,
  "rates": 1825,
  "immediately": 1826,
  "membership": 1827,
  "greece": 1828,
  "speaker": 1829,
  "again.": 1830,
  "obligations": 1831,
  "resolutions": 1832,
  "standard": 1833,
  "functioning": 1834,
  "happening": 1835,
  "choice": 1836,
  "government,": 1837,
  "community.": 1838,
  "ha@@": 1839,
  "suffering": 1840,
  "e,": 1841,
  "minority": 1842,
  "income": 1843,
  "link": 1844,
  "separate": 1845,
  "arms": 1846,
  "solve": 1847,
  "conciliation": 1848,
  "problem,": 1849,
  "reply": 1850,
  "lies": 1851,
  "women,": 1852,
  "votes": 1853,
  "spent": 1854,
  "2@@": 1855,
  "',": 1856,
  "presidency.": 1857,
  "carefully": 1858,
  "visa": 1859,
  "expected": 1860,
  "consistent": 1861,
  "modern": 1862,
  "traditional": 1863,
  "ahead": 1864,
  "u@@": 1865,
  "impose": 1866,
  "issues,": 1867,
  "safe": 1868,
  "september": 1869,
  "protocol": 1870,
  "helping": 1871,
  "assure": 1872,
  "encouraging": 1873,
  "forthcoming": 1874,
  "expression": 1875,
  "fail": 1876,
  "november": 1877,
  "credit": 1878,
  "education,": 1879,
  "obligation": 1880,
  "believe,": 1881,
  "endorse": 1882,
  "learn": 1883,
  "danger": 1884,
  "associated": 1885,
  "round": 1886,
  "improvements": 1887,
  "board": 1888,
  "im@@": 1889,
  "tobacco": 1890,
  "k": 1891,
  "structure": 1892,
  "criticism": 1893,
  "self-@@": 1894,
  "temporary": 1895,
  "tried": 1896,
  "continued": 1897,
  "heart": 1898,
  "27": 1899,
  "regions.": 1900,
  "amsterdam": 1901,
  "/@@": 1902,
  "alone": 1903,
  "started": 1904,
  "controls": 1905,
  "e.": 1906,
  "origin": 1907,
  "payment": 1908,
  "regulation.": 1909,
  "recovery": 1910,
  "weapons": 1911,
  "trading": 1912,
  "ecu": 1913,
  "millions": 1914,
  "institution": 1915,
  "2020": 1916,
  "ac@@": 1917,
  "governance": 1918,
  "capable": 1919,
  "perspective": 1920,
  "compared": 1921,
  "proposes": 1922,
  "women.": 1923,
  "southern": 1924,
  "agencies": 1925,
  "fraud": 1926,
  "session": 1927,
  "got": 1928,
  "must,": 1929,
  "approve": 1930,
  "baltic": 1931,
  "participate": 1932,
  "easier": 1933,
  "imposed": 1934,
  "amounts": 1935,
  "do.": 1936,
  "economy,": 1937,
  "firm": 1938,
  "primarily": 1939,
  "ago.": 1940,
  "safeguard": 1941,
  "me@@": 1942,
  "...": 1943,
  "peaceful": 1944,
  "sexual": 1945,
  "iraq": 1946,
  "re-@@": 1947,
  "do,": 1948,
  "networks": 1949,
  "electronic": 1950,
  "strict": 1951,
  "chinese": 1952,
  "manage": 1953,
  "generally": 1954,
  "funds.": 1955,
  "plenary": 1956,
  "legislation,": 1957,
  "te@@": 1958,
  "mis@@": 1959,
  "strategy,": 1960,
  "roma": 1961,
  "ch@@": 1962,
  "october": 1963,
  "parliaments": 1964,
  "white": 1965,
  "romania": 1966,
  "have,": 1967,
  "direction.": 1968,
  "employment.": 1969,
  "considering": 1970,
  "treated": 1971,
  "rules.": 1972,
  "demonstrate": 1973,
  "employment,": 1974,
  "transfer": 1975,
  "played": 1976,
  "realise": 1977,
  "demonstrated": 1978,
  "contained": 1979,
  "signal": 1980,
  "harmonisation": 1981,
  "portuguese": 1982,
  "keeping": 1983,
  "energy,": 1984,
  "others,": 1985,
  "peoples": 1986,
  "prove": 1987,
  "j@@": 1988,
  "surely": 1989,
  "consequently,": 1990,
  "planning": 1991,
  "examine": 1992,
  "closed": 1993,
  "trade,": 1994,
  "part,": 1995,
  "apart": 1996,
  "undoubtedly": 1997,
  "necessary,": 1998,
  "forward.": 1999,
  "involves": 2000,
  "disaster": 2001,
  "meetings": 2002,
  "approach.": 2003,
  "al": 2004,
  "suggest": 2005,
  "w@@": 2006,
  "negotiations.": 2007,
  "preventing": 2008,
  "agenda.": 2009,
  "entitled": 2010,
  "factor": 2011,
  "communities": 2012,
  "amendments,": 2013,
  "jobs.": 2014,
  "somewhat": 2015,
  "mo@@": 2016,
  "construction": 2017,
  "loss": 2018,
  "amendments.": 2019,
  "firmly": 2020,
  "lines": 2021,
  "government.": 2022,
  "introducing": 2023,
  "substances": 2024,
  "collective": 2025,
  "cases,": 2026,
  "commissioner.": 2027,
  "goal": 2028,
  "lose": 2029,
  "ec": 2030,
  "regulation,": 2031,
  "campaign": 2032,
  "voice": 2033,
  "situations": 2034,
  "passed": 2035,
  "competence": 2036,
  "preparing": 2037,
  "’": 2038,
  "proposals.": 2039,
  "decisive": 2040,
  "dutch": 2041,
  "es@@": 2042,
  "credibility": 2043,
  "conclusion,": 2044,
  "er@@": 2045,
  "13": 2046,
  "appreciate": 2047,
  "fiscal": 2048,
  "defined": 2049,
  "aid.": 2050,
  "grounds": 2051,
  "attack": 2052,
  "allows": 2053,
  "constantly": 2054,
  "man": 2055,
  "firstly": 2056,
  "floor": 2057,
  "sides": 2058,
  "drugs": 2059,
  "compensation": 2060,
  "ground": 2061,
  "freedoms": 2062,
  "it@@": 2063,
  "top": 2064,
  "basis.": 2065,
  "kingdom": 2066,
  "c": 2067,
  "welfare": 2068,
  "up.": 2069,
  "subsidies": 2070,
  "speed": 2071,
  "r@@": 2072,
  "1999": 2073,
  "visit": 2074,
  "end,": 2075,
  "points.": 2076,
  "however": 2077,
  "allocated": 2078,
  "diversity": 2079,
  "pension": 2080,
  "inclusion": 2081,
  "gone": 2082,
  "security.": 2083,
  "relates": 2084,
  "change,": 2085,
  "di@@": 2086,
  "9@@": 2087,
  "security,": 2088,
  "ethnic": 2089,
  "labelling": 2090,
  "18": 2091,
  "spending": 2092,
  "effectiveness": 2093,
  "day,": 2094,
  "confirm": 2095,
  "problems,": 2096,
  "protection,": 2097,
  "matter,": 2098,
  "clarify": 2099,
  "code": 2100,
  "highest": 2101,
  "requirement": 2102,
  "attacks": 2103,
  "place,": 2104,
  "restrictions": 2105,
  "information,": 2106,
  "fulfil": 2107,
  "offers": 2108,
  "committees": 2109,
  "legitimate": 2110,
  "works": 2111,
  "up,": 2112,
  "society,": 2113,
  "or,": 2114,
  "subject:": 2115,
  "letter": 2116,
  "applying": 2117,
  "drawing": 2118,
  "chairman": 2119,
  "principle,": 2120,
  "families": 2121,
  "universal": 2122,
  "operating": 2123,
  "who,": 2124,
  "regions,": 2125,
  "el": 2126,
  "technologies": 2127,
  "mass": 2128,
  "prepare": 2129,
  "goals": 2130,
  "largest": 2131,
  "cooperate": 2132,
  "ted.": 2133,
  "proceed": 2134,
  "experts": 2135,
  "anti-@@": 2136,
  "interinstitutional": 2137,
  "operate": 2138,
  "personally": 2139,
  "else": 2140,
  "largely": 2141,
  "types": 2142,
  "distribution": 2143,
  "revision": 2144,
  "mobility": 2145,
  "limits": 2146,
  "life.": 2147,
  "smes": 2148,
  "willing": 2149,
  "operational": 2150,
  "nl": 2151,
  "on@@": 2152,
  "commission'": 2153,
  "car": 2154,
  "programmes.": 2155,
  "arrangements": 2156,
  "historic": 2157,
  "economies": 2158,
  "information.": 2159,
  "has,": 2160,
  "minister,": 2161,
  "authorities.": 2162,
  "flexible": 2163,
  "whole.": 2164,
  "finding": 2165,
  "maintaining": 2166,
  "brings": 2167,
  "impression": 2168,
  "policies,": 2169,
  "contrary,": 2170,
  "region,": 2171,
  "chamber": 2172,
  "gain": 2173,
  "con@@": 2174,
  "al.": 2175,
  "medical": 2176,
  "intends": 2177,
  "yes,": 2178,
  "support,": 2179,
  "ab@@": 2180,
  "made.": 2181,
  "spoke": 2182,
  "late": 2183,
  "ted,": 2184,
  "nevertheless": 2185,
  "liberal": 2186,
  "planned": 2187,
  "politicians": 2188,
  "spain": 2189,
  "mission": 2190,
  "emergency": 2191,
  "ongoing": 2192,
  "opinions": 2193,
  "freedom,": 2194,
  "he@@": 2195,
  "together.": 2196,
  "or@@": 2197,
  "overcome": 2198,
  "contact": 2199,
  "moment,": 2200,
  "believes": 2201,
  "funds,": 2202,
  "debt": 2203,
  "territorial": 2204,
  "pass": 2205,
  "vulnerable": 2206,
  "israeli": 2207,
  "urgently": 2208,
  "taxation": 2209,
  "knows": 2210,
  "seven": 2211,
  "sensible": 2212,
  "more,": 2213,
  "14": 2214,
  "aid,": 2215,
  "aviation": 2216,
  "july": 2217,
  "determined": 2218,
  "ones": 2219,
  "reasons,": 2220,
  "submit": 2221,
  "awareness": 2222,
  "ultimately": 2223,
  "crimes": 2224,
  "contributions": 2225,
  "examples": 2226,
  "necessary.": 2227,
  "waiting": 2228,
  "wonder": 2229,
  "p": 2230,
  "consumption": 2231,
  "spoken": 2232,
  "italy": 2233,
  "pollution": 2234,
  "result,": 2235,
  "pursue": 2236,
  "excessive": 2237,
  "stronger": 2238,
  "dependent": 2239,
  "existence": 2240,
  "changed": 2241,
  "health.": 2242,
  "material": 2243,
  "standards.": 2244,
  "define": 2245,
  "concluded": 2246,
  "america": 2247,
  "present,": 2248,
  "april": 2249,
  "assembly": 2250,
  "extended": 2251,
  "objectives.": 2252,
  "solution.": 2253,
  "transitional": 2254,
  "delay": 2255,
  "disease": 2256,
  "debating": 2257,
  "proved": 2258,
  "research,": 2259,
  "copenhagen": 2260,
  "treaties": 2261,
  "migration": 2262,
  "itself,": 2263,
  "changing": 2264,
  "vice-president": 2265,
  "urban": 2266,
  "noted": 2267,
  "instance,": 2268,
  "producing": 2269,
  "auditors": 2270,
  "hungarian": 2271,
  "structures": 2272,
  "40": 2273,
  "no@@": 2274,
  "investments": 2275,
  "space": 2276,
  "tasks": 2277,
  "thanking": 2278,
  "markets.": 2279,
  "conditions.": 2280,
  "playing": 2281,
  "announced": 2282,
  "transport,": 2283,
  "appropriations": 2284,
  "normal": 2285,
  "insurance": 2286,
  "ic@@": 2287,
  "path": 2288,
  "ukraine": 2289,
  "driving": 2290,
  "right.": 2291,
  "kept": 2292,
  "president.": 2293,
  "innovative": 2294,
  "turning": 2295,
  "transport.": 2296,
  "wait": 2297,
  "sets": 2298,
  "safety.": 2299,
  "iran": 2300,
  "am@@": 2301,
  "actively": 2302,
  "grant": 2303,
  "factors": 2304,
  "leads": 2305,
  "confirmed": 2306,
  "clear,": 2307,
  "products,": 2308,
  "precise": 2309,
  "hence": 2310,
  "responsibility.": 2311,
  "perfectly": 2312,
  "resources,": 2313,
  "violations": 2314,
  "condemn": 2315,
  "enough.": 2316,
  "other.": 2317,
  "primary": 2318,
  "colleague,": 2319,
  "unfair": 2320,
  "insist": 2321,
  "vision": 2322,
  "d": 2323,
  "governing": 2324,
  "imports": 2325,
  "assess": 2326,
  "ratification": 2327,
  "said.": 2328,
  "ates": 2329,
  "daily": 2330,
  "mentioned,": 2331,
  "parliament’s": 2332,
  "room": 2333,
  "not.": 2334,
  "careful": 2335,
  "someone": 2336,
  "latin": 2337,
  "is.": 2338,
  "energy.": 2339,
  "if,": 2340,
  "holding": 2341,
  "fuel": 2342,
  "partner": 2343,
  "example.": 2344,
  "described": 2345,
  "cyprus": 2346,
  "partly": 2347,
  "obstacles": 2348,
  "should,": 2349,
  "base": 2350,
  "considers": 2351,
  "territory": 2352,
  "terrorism.": 2353,
  "absolute": 2354,
  "claim": 2355,
  "consumers.": 2356,
  "position,": 2357,
  "seeing": 2358,
  "\"": 2359,
  "becomes": 2360,
  "constitute": 2361,
  "manner": 2362,
  "genuinely": 2363,
  "terms,": 2364,
  "offered": 2365,
  "others.": 2366,
  "things,": 2367,
  "subsidiarity": 2368,
  "competition.": 2369,
  "represented": 2370,
  "drug": 2371,
  "2007": 2372,
  "latest": 2373,
  "record": 2374,
  "in,": 2375,
  "100": 2376,
  "progress.": 2377,
  "published": 2378,
  "hands": 2379,
  "cap": 2380,
  "ations": 2381,
  "difference": 2382,
  "significantly": 2383,
  "neighbouring": 2384,
  "formal": 2385,
  "tool": 2386,
  "enlargement.": 2387,
  "affects": 2388,
  "multilateral": 2389,
  "resulting": 2390,
  "health,": 2391,
  "meant": 2392,
  "felt": 2393,
  "invest": 2394,
  "hours": 2395,
  "suffer": 2396,
  "le": 2397,
  "qualified": 2398,
  "500": 2399,
  "exists": 2400,
  "authorities,": 2401,
  "mar@@": 2402,
  "places": 2403,
  "studies": 2404,
  "vehicles": 2405,
  "statistics": 2406,
  "officials": 2407,
  "courage": 2408,
  "coordinated": 2409,
  "shadow": 2410,
  "immigrants": 2411,
  "extension": 2412,
  "referendum": 2413,
  "lo@@": 2414,
  "attempts": 2415,
  "hope,": 2416,
  "si@@": 2417,
  "practice.": 2418,
  "other,": 2419,
  "guaranteed": 2420,
  "concentrate": 2421,
  "banks": 2422,
  "be.": 2423,
  "politically": 2424,
  "vote,": 2425,
  "action,": 2426,
  "themselves.": 2427,
  "acting": 2428,
  "wider": 2429,
  "amending": 2430,
  "average": 2431,
  "affairs.": 2432,
  "acknowledge": 2433,
  "be,": 2434,
  "months.": 2435,
  "minorities": 2436,
  "france,": 2437,
  "sweden": 2438,
  "test": 2439,
  "employees": 2440,
  "requested": 2441,
  "po@@": 2442,
  "saw": 2443,
  "enjoy": 2444,
  "protected": 2445,
  "conflicts": 2446,
  "systems.": 2447,
  "sufficiently": 2448,
  "referring": 2449,
  "alliance": 2450,
  "details": 2451,
  "black": 2452,
  "option": 2453,
  "remove": 2454,
  "17": 2455,
  "bulgaria": 2456,
  "clear.": 2457,
  "remarks": 2458,
  "day.": 2459,
  "st@@": 2460,
  "legally": 2461,
  "tomorrow.": 2462,
  "massive": 2463,
  "co2": 2464,
  "scheme": 2465,
  "detail": 2466,
  "to,": 2467,
  "commissioners": 2468,
  "least,": 2469,
  "austrian": 2470,
  "inter@@": 2471,
  "community,": 2472,
  "contain": 2473,
  "identify": 2474,
  "choose": 2475,
  "morning": 2476,
  "under@@": 2477,
  "arguments": 2478,
  "carrying": 2479,
  "term,": 2480,
  "obliged": 2481,
  "safety,": 2482,
  "me.": 2483,
  "pre@@": 2484,
  "agreements.": 2485,
  "ting": 2486,
  "definitely": 2487,
  "valuable": 2488,
  "eight": 2489,
  "there,": 2490,
  "listen": 2491,
  "16": 2492,
  "hundreds": 2493,
  "belgian": 2494,
  "bo@@": 2495,
  "er.": 2496,
  "wide": 2497,
  "went": 2498,
  "television": 2499,
  "stable": 2500,
  "rules,": 2501,
  "near": 2502,
  "in.": 2503,
  "involved.": 2504,
  "farming": 2505,
  "absence": 2506,
  "regular": 2507,
  "addressing": 2508,
  "russia,": 2509,
  "coherent": 2510,
  "ad@@": 2511,
  "luxembourg": 2512,
  "highlighted": 2513,
  "2004": 2514,
  "assume": 2515,
  "honour": 2516,
  "justice.": 2517,
  "undertaken": 2518,
  "2006": 2519,
  "convergence": 2520,
  "possibly": 2521,
  "l": 2522,
  "2010": 2523,
  "operators": 2524,
  "west": 2525,
  "subject.": 2526,
  "regard,": 2527,
  "ii": 2528,
  "abuse": 2529,
  "contrary": 2530,
  "at@@": 2531,
  "nobody": 2532,
  "nato": 2533,
  "guaranteeing": 2534,
  "groups,": 2535,
  "trade.": 2536,
  "competent": 2537,
  "with.": 2538,
  "determination": 2539,
  "statute": 2540,
  "much,": 2541,
  "spite": 2542,
  "view.": 2543,
  "groups.": 2544,
  "children.": 2545,
  "transatlantic": 2546,
  "core": 2547,
  "us@@": 2548,
  "proportion": 2549,
  "greatly": 2550,
  "deserves": 2551,
  "approach,": 2552,
  "determine": 2553,
  "built": 2554,
  "citizen": 2555,
  "solely": 2556,
  "ms": 2557,
  "relatively": 2558,
  "growth,": 2559,
  "heavy": 2560,
  "preparation": 2561,
  "electricity": 2562,
  "transition": 2563,
  "belarus": 2564,
  "respect.": 2565,
  "launched": 2566,
  "diplomatic": 2567,
  "understood": 2568,
  "latter": 2569,
  "2005": 2570,
  "individuals": 2571,
  "release": 2572,
  "interests.": 2573,
  "barriers": 2574,
  "suffered": 2575,
  "head": 2576,
  "prior": 2577,
  "languages": 2578,
  "tragic": 2579,
  "operations": 2580,
  "truth": 2581,
  "save": 2582,
  "accounts": 2583,
  "realistic": 2584,
  "conditions,": 2585,
  "do@@": 2586,
  "exploitation": 2587,
  "figure": 2588,
  "property": 2589,
  "proposals,": 2590,
  "neighbourhood": 2591,
  "deliver": 2592,
  "money.": 2593,
  "matters.": 2594,
  "bit": 2595,
  "done,": 2596,
  "extra": 2597,
  "co-@@": 2598,
  "extending": 2599,
  "nearly": 2600,
  "justified": 2601,
  "briefly": 2602,
  "deals": 2603,
  "biggest": 2604,
  "poland": 2605,
  "codecision": 2606,
  "none": 2607,
  "purely": 2608,
  "taxes": 2609,
  "economic,": 2610,
  "running": 2611,
  "moral": 2612,
  "vat": 2613,
  "passengers": 2614,
  "geographical": 2615,
  "able,": 2616,
  "ce@@": 2617,
  "argument": 2618,
  "heading": 2619,
  "passenger": 2620,
  "fishermen": 2621,
  "resolved": 2622,
  "term.": 2623,
  "chosen": 2624,
  "ppe-de": 2625,
  "as,": 2626,
  "youth": 2627,
  "requests": 2628,
  "condition": 2629,
  "right,": 2630,
  "poorest": 2631,
  "ated.": 2632,
  "basis,": 2633,
  "questions.": 2634,
  "links": 2635,
  "difficulty": 2636,
  "seeks": 2637,
  "russia.": 2638,
  "reconstruction": 2639,
  "focused": 2640,
  "danish": 2641,
  "er": 2642,
  "pe@@": 2643,
  "clearly,": 2644,
  "children,": 2645,
  "ro": 2646,
  "restructuring": 2647,
  "substance": 2648,
  "kyoto": 2649,
  "es?": 2650,
  "suitable": 2651,
  "would,": 2652,
  "jobs,": 2653,
  "2008": 2654,
  "extensive": 2655,
  "to@@": 2656,
  "amended": 2657,
  "remaining": 2658,
  "double": 2659,
  "depend": 2660,
  "expectations": 2661,
  "union’s": 2662,
  "indicated": 2663,
  "answers": 2664,
  "hearing": 2665,
  "function": 2666,
  "bearing": 2667,
  "reflected": 2668,
  "b": 2669,
  "success.": 2670,
  "force.": 2671,
  "control.": 2672,
  "nice": 2673,
  "milk": 2674,
  "ated,": 2675,
  "borders.": 2676,
  "proof": 2677,
  "portugal": 2678,
  "piece": 2679,
  "brief": 2680,
  "behaviour": 2681,
  "week,": 2682,
  "constant": 2683,
  "field.": 2684,
  "helped": 2685,
  "rich": 2686,
  "assist": 2687,
  "spread": 2688,
  "ous": 2689,
  "uniform": 2690,
  "germany,": 2691,
  "rapporteur's": 2692,
  "tomorrow,": 2693,
  "intellectual": 2694,
  "growth.": 2695,
  "reaching": 2696,
  "ag@@": 2697,
  "programmes,": 2698,
  "spend": 2699,
  "polish": 2700,
  "negotiations,": 2701,
  "mind,": 2702,
  "ne@@": 2703,
  "month": 2704,
  "1@@": 2705,
  "essentially": 2706,
  "enforcement": 2707,
  "leadership": 2708,
  "so@@": 2709,
  "out@@": 2710,
  "quotas": 2711,
  "past.": 2712,
  "think,": 2713,
  "enlargement,": 2714,
  "fine": 2715,
  "granting": 2716,
  "24": 2717,
  "whereas": 2718,
  "g": 2719,
  "instead,": 2720,
  "oppose": 2721,
  "il@@": 2722,
  "numbers": 2723,
  "depends": 2724,
  "paying": 2725,
  "to.": 2726,
  "news": 2727,
  "sugar": 2728,
  "decision.": 2729,
  "february": 2730,
  "eu’s": 2731,
  "strategies": 2732,
  "issued": 2733,
  "ly,": 2734,
  "about.": 2735,
  "regarded": 2736,
  "ngos": 2737,
  "country's": 2738,
  "suggested": 2739,
  "scale": 2740,
  "worst": 2741,
  "ts,": 2742,
  "hopes": 2743,
  "trans@@": 2744,
  "demanding": 2745,
  "federal": 2746,
  "results.": 2747,
  "conducted": 2748,
  "meat": 2749,
  "historical": 2750,
  "why,": 2751,
  "willingness": 2752,
  "ly": 2753,
  "compulsory": 2754,
  "supplementary": 2755,
  "needed.": 2756,
  "ombudsman": 2757,
  "text.": 2758,
  "workers,": 2759,
  "entered": 2760,
  "investigation": 2761,
  "enhance": 2762,
  "reading.": 2763,
  "made,": 2764,
  "harmful": 2765,
  "clause": 2766,
  "ge@@": 2767,
  "phase": 2768,
  "supposed": 2769,
  "duties": 2770,
  "significance": 2771,
  "months,": 2772,
  "2009": 2773,
  "usa": 2774,
  "section": 2775,
  "check": 2776,
  "moment.": 2777,
  "communist": 2778,
  "happens": 2779,
  "sum": 2780,
  "lay": 2781,
  "politics": 2782,
  "learning": 2783,
  "debated": 2784,
  "2,": 2785,
  "feeling": 2786,
  "gap": 2787,
  "interest.": 2788,
  "satisfied": 2789,
  "terrorism,": 2790,
  "refers": 2791,
  "plant": 2792,
  "together,": 2793,
  "europe’s": 2794,
  "extreme": 2795,
  "healthy": 2796,
  "corruption": 2797,
  "as@@": 2798,
  "adapt": 2799,
  "unacceptable.": 2800,
  "bi@@": 2801,
  "whereby": 2802,
  "identified": 2803,
  "disasters": 2804,
  "k,": 2805,
  "armed": 2806,
  "engage": 2807,
  "imagine": 2808,
  "replace": 2809,
  "worse": 2810,
  "supervision": 2811,
  "promised": 2812,
  "advance": 2813,
  "stocks": 2814,
  "activities.": 2815,
  "carbon": 2816,
  "constitutes": 2817,
  "powerful": 2818,
  "proud": 2819,
  "turkey,": 2820,
  "for,": 2821,
  "arrest": 2822,
  "electoral": 2823,
  "version": 2824,
  "enabling": 2825,
  "hardly": 2826,
  "greenhouse": 2827,
  "manner.": 2828,
  "order.": 2829,
  "man@@": 2830,
  "19": 2831,
  "violation": 2832,
  "experienced": 2833,
  "succeed": 2834,
  "proceedings": 2835,
  "declared": 2836,
  "easily": 2837,
  "21": 2838,
  "reliable": 2839,
  "interpretation": 2840,
  "raising": 2841,
  "sport": 2842,
  "leaving": 2843,
  "project.": 2844,
  "launch": 2845,
  "fourth": 2846,
  "ordinary": 2847,
  "port": 2848,
  "contributed": 2849,
  "president-in-office,": 2850,
  "equipment": 2851,
  "reiterate": 2852,
  "n": 2853,
  "thus,": 2854,
  "agreements,": 2855,
  "past,": 2856,
  "railway": 2857,
  "deeply": 2858,
  "companies,": 2859,
  "reality.": 2860,
  "companies.": 2861,
  "per@@": 2862,
  "drafting": 2863,
  "creates": 2864,
  "ts.": 2865,
  "import": 2866,
  "mon@@": 2867,
  "china,": 2868,
  "category": 2869,
  "opened": 2870,
  "nonetheless,": 2871,
  "underline": 2872,
  "initiative.": 2873,
  "reflects": 2874,
  "with,": 2875,
  "favourable": 2876,
  "e-@@": 2877,
  "importance.": 2878,
  "dignity": 2879,
  "thorough": 2880,
  "increases": 2881,
  "world's": 2882,
  "pillar": 2883,
  "negotiation": 2884,
  "may,": 2885,
  "utmost": 2886,
  "control,": 2887,
  "previously": 2888,
  "i.e.": 2889,
  "facts": 2890,
  "affecting": 2891,
  "1998": 2892,
  "ity.": 2893,
  "modified": 2894,
  "implications": 2895,
  "feed": 2896,
  "practice,": 2897,
  "diseases": 2898,
  "necessarily": 2899,
  "successfully": 2900,
  "turned": 2901,
  "ber@@": 2902,
  "agriculture,": 2903,
  "welcomes": 2904,
  "1,": 2905,
  "for.": 2906,
  "summit.": 2907,
  "account.": 2908,
  "million.": 2909,
  "possibilities": 2910,
  "barcelona": 2911,
  "forum": 2912,
  "noon.": 2913,
  "digital": 2914,
  "bound": 2915,
  "applicant": 2916,
  "fields": 2917,
  "u": 2918,
  "summit,": 2919,
  "period.": 2920,
  "general,": 2921,
  "se": 2922,
  "ers.": 2923,
  "tools": 2924,
  "reaction": 2925,
  "motions": 2926,
  "reasons.": 2927,
  "expressing": 2928,
  "netherlands": 2929,
  "bar@@": 2930,
  "smaller": 2931,
  "convention.": 2932,
  "th@@": 2933,
  "negotiated": 2934,
  "strengthened": 2935,
  "applicable": 2936,
  "more.": 2937,
  "adopted.": 2938,
  "ate.": 2939,
  "cuts": 2940,
  "vast": 2941,
  "restore": 2942,
  "presenting": 2943,
  "justify": 2944,
  "succeeded": 2945,
  "complicated": 2946,
  "able.": 2947,
  "eliminate": 2948,
  "afraid": 2949,
  "doubts": 2950,
  "ate,": 2951,
  "ethical": 2952,
  "a.m.": 2953,
  "members.": 2954,
  "turkey.": 2955,
  "front": 2956,
  "integration.": 2957,
  "penalty": 2958,
  "strasbourg": 2959,
  "nation": 2960,
  "claims": 2961,
  "incorporated": 2962,
  "elections.": 2963,
  "es:": 2964,
  "processes": 2965,
  "initiative,": 2966,
  "ded": 2967,
  "parties.": 2968,
  "fund.": 2969,
  "19@@": 2970,
  "alongside": 2971,
  "welcomed": 2972,
  "materials": 2973,
  "competition,": 2974,
  "showing": 2975,
  "options": 2976,
  "22": 2977,
  "principle.": 2978,
  "topic": 2979,
  "puts": 2980,
  "ers,": 2981,
  "crime.": 2982,
  "fewer": 2983,
  "well-@@": 2984,
  "23": 2985,
  "stressed": 2986,
  "2002": 2987,
  "stage.": 2988,
  "200": 2989,
  "lasting": 2990,
  "deserve": 2991,
  "exceptional": 2992,
  "covers": 2993,
  "repeatedly": 2994,
  "2003": 2995,
  "accidents": 2996,
  "targeted": 2997,
  "20@@": 2998,
  "broader": 2999,
  "sh@@": 3000,
  "colleagues,": 3001,
  "projects.": 3002,
  "terrible": 3003,
  "dynamic": 3004,
  "15@@": 3005,
  "prospects": 3006,
  "vessels": 3007,
  "school": 3008,
  "became": 3009,
  "radical": 3010,
  "combined": 3011,
  "falls": 3012,
  "life,": 3013,
  "workers.": 3014,
  "recall": 3015,
  "sustainability": 3016,
  "obtained": 3017,
  "outstanding": 3018,
  "a's": 3019,
  "patent": 3020,
  "’.": 3021,
  "poverty.": 3022,
  "end.": 3023,
  "generation": 3024,
  "industries": 3025,
  "speeches": 3026,
  "ru@@": 3027,
  "bse": 3028,
  "articles": 3029,
  "prosperity": 3030,
  "adjustment": 3031,
  "exports": 3032,
  "exclusion": 3033,
  "bureaucratic": 3034,
  "10@@": 3035,
  "educational": 3036,
  "looked": 3037,
  "advertising": 3038,
  "circumstances,": 3039,
  "stands": 3040,
  "this:": 3041,
  "below": 3042,
  "explanation": 3043,
  "warmly": 3044,
  "constitution.": 3045,
  "markets,": 3046,
  "trans-european": 3047,
  "beef": 3048,
  "peace,": 3049,
  "60": 3050,
  "islamic": 3051,
  "tackling": 3052,
  "achieved.": 3053,
  "3,": 3054,
  "congratulations": 3055,
  "satisfactory": 3056,
  "fund,": 3057,
  "wine": 3058,
  "standing": 3059,
  "attention.": 3060,
  "lessons": 3061,
  "public.": 3062,
  "concern.": 3063,
  "encouraged": 3064,
  "barroso": 3065,
  "sp@@": 3066,
  "resulted": 3067,
  "occasion": 3068,
  "adopted,": 3069,
  "opinion.": 3070,
  "ratified": 3071,
  "systems,": 3072,
  "croatia": 3073,
  "considerably": 3074,
  "subject,": 3075,
  "20%": 3076,
  "car@@": 3077,
  "d?": 3078,
  "framework.": 3079,
  "can,": 3080,
  "undermine": 3081,
  "solidarity.": 3082,
  "openness": 3083,
  "deficit": 3084,
  "causing": 3085,
  "force,": 3086,
  "sv": 3087,
  "ci@@": 3088,
  "poverty,": 3089,
  "civilian": 3090,
  "justice,": 3091,
  "another.": 3092,
  "aware,": 3093,
  "euro@@": 3094,
  "regardless": 3095,
  "everybody": 3096,
  "culture,": 3097,
  "party,": 3098,
  "wording": 3099,
  "leader": 3100,
  "sorry": 3101,
  "presidents": 3102,
  "pleasure": 3103,
  "texts": 3104,
  "ecological": 3105,
  "fresh": 3106,
  "marketing": 3107,
  "priority.": 3108,
  "cars": 3109,
  "mark": 3110,
  "couple": 3111,
  "costs.": 3112,
  "objectives,": 3113,
  "arab": 3114,
  "12@@": 3115,
  "break": 3116,
  "himself": 3117,
  "fairly": 3118,
  "stock": 3119,
  "declare": 3120,
  "production.": 3121,
  "environmentally": 3122,
  "sovereignty": 3123,
  "surprised": 3124,
  "es;": 3125,
  "india": 3126,
  "hit": 3127,
  "obviously,": 3128,
  "ant": 3129,
  "medicines": 3130,
  "timetable": 3131,
  "whole,": 3132,
  "marine": 3133,
  "ships": 3134,
  "conference.": 3135,
  "taken.": 3136,
  "patients": 3137,
  "ment": 3138,
  "op@@": 3139,
  "rapidly": 3140,
  "population.": 3141,
  "disabled": 3142,
  "raw": 3143,
  "city": 3144,
  "tion.": 3145,
  "relate": 3146,
  "listened": 3147,
  "regrettable": 3148,
  "ireland,": 3149,
  "union'": 3150,
  "purposes": 3151,
  "indicate": 3152,
  "approximately": 3153,
  "achievement": 3154,
  "go@@": 3155,
  "preparations": 3156,
  "extraordinary": 3157,
  "regard.": 3158,
  "afghanistan": 3159,
  "parliament'": 3160,
  "war.": 3161,
  "interim": 3162,
  "threats": 3163,
  "commit": 3164,
  "intervene": 3165,
  "are.": 3166,
  "power.": 3167,
  "unnecessary": 3168,
  "la@@": 3169,
  "th": 3170,
  "prospect": 3171,
  "ations.": 3172,
  "recommend": 3173,
  "respected": 3174,
  "preserve": 3175,
  "serbia": 3176,
  "spring": 3177,
  "contracts": 3178,
  "standards,": 3179,
  "31": 3180,
  "africa.": 3181,
  "receiving": 3182,
  "jointly": 3183,
  "stay": 3184,
  "retain": 3185,
  "withdraw": 3186,
  "savings": 3187,
  "kinds": 3188,
  "size": 3189,
  "allocation": 3190,
  "regulate": 3191,
  "over-@@": 3192,
  "destruction": 3193,
  "criteria.": 3194,
  "further.": 3195,
  "friendly": 3196,
  "strength": 3197,
  "dispute": 3198,
  "s’": 3199,
  "continent": 3200,
  "2000,": 3201,
  "millennium": 3202,
  "eu-@@": 3203,
  "sake": 3204,
  "users": 3205,
  "completed": 3206,
  "larger": 3207,
  "postal": 3208,
  "present.": 3209,
  "1.": 3210,
  "amend": 3211,
  "plants": 3212,
  "les": 3213,
  "ma@@": 3214,
  "boost": 3215,
  "financed": 3216,
  "sought": 3217,
  "examined": 3218,
  "ally": 3219,
  "textile": 3220,
  "accident": 3221,
  "forest": 3222,
  "engaged": 3223,
  "shares": 3224,
  "unanimously": 3225,
  "short,": 3226,
  "advantages": 3227,
  "prisoners": 3228,
  "emphasised": 3229,
  "clean": 3230,
  "intensive": 3231,
  "14@@": 3232,
  "demographic": 3233,
  "congratulating": 3234,
  "offering": 3235,
  "values.": 3236,
  "suspended": 3237,
  "abolition": 3238,
  "effect.": 3239,
  "constitution,": 3240,
  "talked": 3241,
  "'the": 3242,
  "admit": 3243,
  "pursuant": 3244,
  "otherwise,": 3245,
  "friends": 3246,
  "convention,": 3247,
  "2010.": 3248,
  "aside": 3249,
  "consumers,": 3250,
  "decision,": 3251,
  "deep": 3252,
  "ity,": 3253,
  "enhanced": 3254,
  "role.": 3255,
  "informal": 3256,
  "worthy": 3257,
  "soviet": 3258,
  "simplification": 3259,
  "research.": 3260,
  "hu": 3261,
  "terms.": 3262,
  "4,": 3263,
  "ling": 3264,
  "ten@@": 3265,
  "performance": 3266,
  "decisions.": 3267,
  "em@@": 3268,
  "ports": 3269,
  "transparency,": 3270,
  "disposal": 3271,
  "sub@@": 3272,
  "maastricht": 3273,
  "europol": 3274,
  "procedures.": 3275,
  "worrying": 3276,
  "ds.": 3277,
  "signing": 3278,
  "ity": 3279,
  "pse": 3280,
  "t-@@": 3281,
  "etc.": 3282,
  "fin@@": 3283,
  "agenda,": 3284,
  "sending": 3285,
  "bu@@": 3286,
  "stage,": 3287,
  "tri@@": 3288,
  "peace.": 3289,
  "occasions": 3290,
  "accompanied": 3291,
  "communications": 3292,
  "en": 3293,
  "clarity": 3294,
  "2001": 3295,
  "negotiate": 3296,
  "representation": 3297,
  "fifth": 3298,
  "either.": 3299,
  "priorities.": 3300,
  "1997": 3301,
  "demonstrates": 3302,
  "centres": 3303,
  "ations,": 3304,
  "count": 3305,
  "relations.": 3306,
  "austria": 3307,
  "18@@": 3308,
  "manufacturers": 3309,
  "5,": 3310,
  "foundation": 3311,
  "finnish": 3312,
  "dialogue.": 3313,
  "du@@": 3314,
  "particular.": 3315,
  "excluded": 3316,
  "identity": 3317,
  "severe": 3318,
  "answer.": 3319,
  "unanimous": 3320,
  "tragedy": 3321,
  "evening": 3322,
  "chapter": 3323,
  "coordinate": 3324,
  "mentioned.": 3325,
  "of,": 3326,
  "yesterday,": 3327,
  "ol@@": 3328,
  "ing@@": 3329,
  "species": 3330,
  "framework,": 3331,
  "ve@@": 3332,
  "deadline": 3333,
  "ke@@": 3334,
  "drafted": 3335,
  "opposite": 3336,
  "charges": 3337,
  "executive": 3338,
  "gdp": 3339,
  "organisations,": 3340,
  "war,": 3341,
  "gradually": 3342,
  "reform.": 3343,
  "2000.": 3344,
  "up@@": 3345,
  "reinforce": 3346,
  "reservations": 3347,
  "weak": 3348,
  "sovereign": 3349,
  "connected": 3350,
  "meaning": 3351,
  "arising": 3352,
  "greece,": 3353,
  "credible": 3354,
  "expense": 3355,
  "berlin": 3356,
  "organisations.": 3357,
  "foundations": 3358,
  "y?": 3359,
  "checks": 3360,
  "naturally,": 3361,
  "amendment,": 3362,
  "age,": 3363,
  "production,": 3364,
  "chemical": 3365,
  "fe@@": 3366,
  "maintained": 3367,
  "directed": 3368,
  "agrees": 3369,
  "eye": 3370,
  "settlement": 3371,
  "text,": 3372,
  "ap@@": 3373,
  "m,": 3374,
  "advice": 3375,
  "island": 3376,
  "unfortunate": 3377,
  "widespread": 3378,
  "prodi": 3379,
  "moved": 3380,
  "funded": 3381,
  "mere": 3382,
  "explained": 3383,
  "skills": 3384,
  "ignore": 3385,
  "petitions": 3386,
  "sharing": 3387,
  "da": 3388,
  "physical": 3389,
  "basically": 3390,
  "reading,": 3391,
  "socialists": 3392,
  "ver@@": 3393,
  "tests": 3394,
  "buy": 3395,
  "widely": 3396,
  "suggestions": 3397,
  "economically": 3398,
  "unique": 3399,
  "italy,": 3400,
  "estimated": 3401,
  "applications": 3402,
  "organise": 3403,
  "inadequate": 3404,
  "es'": 3405,
  "contacts": 3406,
  "wealth": 3407,
  "sincerely": 3408,
  "far,": 3409,
  "ecb": 3410,
  "nationals": 3411,
  "period,": 3412,
  "partners.": 3413,
  "strictly": 3414,
  "implemented.": 3415,
  "things.": 3416,
  "2009.": 3417,
  "26": 3418,
  "push": 3419,
  "ds,": 3420,
  "complaints": 3421,
  "alcohol": 3422,
  "like,": 3423,
  "ally,": 3424,
  "began": 3425,
  "power,": 3426,
  "looks": 3427,
  "available.": 3428,
  "amendment.": 3429,
  "shape": 3430,
  "declarations": 3431,
  "sectors.": 3432,
  "firms": 3433,
  "facilities": 3434,
  "pro@@": 3435,
  "plays": 3436,
  "collaboration": 3437,
  "restrict": 3438,
  "incentives": 3439,
  "exclusively": 3440,
  "vi@@": 3441,
  "h": 3442,
  "16@@": 3443,
  "profits": 3444,
  "divided": 3445,
  "refuse": 3446,
  "secret": 3447,
  "players": 3448,
  "ding": 3449,
  "division": 3450,
  "%,": 3451,
  "afford": 3452,
  "prefer": 3453,
  "progress,": 3454,
  "regulations.": 3455,
  "%.": 3456,
  "emission": 3457,
  "tion,": 3458,
  "down.": 3459,
  "conclude,": 3460,
  "frequently": 3461,
  "arise": 3462,
  "counter": 3463,
  "2.": 3464,
  "preventive": 3465,
  "treat": 3466,
  "permit": 3467,
  "continuation": 3468,
  "underlying": 3469,
  "elections,": 3470,
  "mal@@": 3471,
  "distinction": 3472,
  "was,": 3473,
  "spain,": 3474,
  "balkans": 3475,
  "consequence": 3476,
  "tribute": 3477,
  "joining": 3478,
  "ou@@": 3479,
  "no,": 3480,
  "stance": 3481,
  "importantly,": 3482,
  "ous,": 3483,
  "tangible": 3484,
  "healthcare": 3485,
  "compromise.": 3486,
  "parties,": 3487,
  "yet,": 3488,
  "dialogue,": 3489,
  "century": 3490,
  "legitimacy": 3491,
  "undertake": 3492,
  "raises": 3493,
  "ho@@": 3494,
  "phenomenon": 3495,
  "schemes": 3496,
  "enlarged": 3497,
  "background": 3498,
  "defending": 3499,
  "solidarity,": 3500,
  "simplify": 3501,
  "asia": 3502,
  "le,": 3503,
  "africa,": 3504,
  "quota": 3505,
  "belief": 3506,
  "waters": 3507,
  "d:": 3508,
  "supervisory": 3509,
  "7,": 3510,
  "lin@@": 3511,
  "y-@@": 3512,
  "banking": 3513,
  "heritage": 3514,
  "ment,": 3515,
  "airlines": 3516,
  "crime,": 3517,
  "keen": 3518,
  "ak@@": 3519,
  "respecting": 3520,
  "28": 3521,
  "harmonised": 3522,
  "restricted": 3523,
  "lie": 3524,
  "repeated": 3525,
  "ings": 3526,
  "sense,": 3527,
  "points,": 3528,
  "re,": 3529,
  "week.": 3530,
  "processing": 3531,
  "worldwide": 3532,
  "invite": 3533,
  "managing": 3534,
  "reports.": 3535,
  "familiar": 3536,
  "collection": 3537,
  "mistake": 3538,
  "unity": 3539,
  "preliminary": 3540,
  "ia": 3541,
  "annex": 3542,
  "warning": 3543,
  "battle": 3544,
  "r": 3545,
  "mobile": 3546,
  "barroso,": 3547,
  "refugee": 3548,
  "fi@@": 3549,
  "resumed": 3550,
  "transparency.": 3551,
  "responsibility,": 3552,
  "transit": 3553,
  "ent,": 3554,
  "racism": 3555,
  "medium": 3556,
  "13@@": 3557,
  "projects,": 3558,
  "2006,": 3559,
  "1996": 3560,
  "zone": 3561,
  "times,": 3562,
  "par@@": 3563,
  "extent,": 3564,
  "undertaking": 3565,
  "britain": 3566,
  "weight": 3567,
  "gi@@": 3568,
  "respective": 3569,
  "m.": 3570,
  "charge": 3571,
  "ans": 3572,
  "gu@@": 3573,
  "beings": 3574,
  "compatible": 3575,
  "representing": 3576,
  "china.": 3577,
  "violence.": 3578,
  "condemned": 3579,
  "reports,": 3580,
  "an,": 3581,
  "wage": 3582,
  "unlike": 3583,
  "beneficial": 3584,
  "k.": 3585,
  "emerging": 3586,
  "expensive": 3587,
  "money,": 3588,
  "involved,": 3589,
  "contributing": 3590,
  "x@@": 3591,
  "matters,": 3592,
  "however.": 3593,
  "subsequent": 3594,
  "rapporteurs,": 3595,
  "objective.": 3596,
  "ve,": 3597,
  "tonnes": 3598,
  "percentage": 3599,
  "result.": 3600,
  "bureau": 3601,
  "usually": 3602,
  "showed": 3603,
  "accessible": 3604,
  "eyes": 3605,
  "procedural": 3606,
  "gra@@": 3607,
  "imposing": 3608,
  "reality,": 3609,
  "o,": 3610,
  "slightly": 3611,
  "lisbon,": 3612,
  "a5-0@@": 3613,
  "17@@": 3614,
  "aircraft": 3615,
  "finland": 3616,
  "covering": 3617,
  "net": 3618,
  "undertakings": 3619,
  "funding.": 3620,
  "revised": 3621,
  "forward,": 3622,
  "progressive": 3623,
  "organic": 3624,
  "compete": 3625,
  "similarly,": 3626,
  "belong": 3627,
  "ex@@": 3628,
  "subjects": 3629,
  "project,": 3630,
  "concludes": 3631,
  "borders,": 3632,
  "community's": 3633,
  "picture": 3634,
  "penalties": 3635,
  "29": 3636,
  "iraqi": 3637,
  "rising": 3638,
  "strike": 3639,
  "training,": 3640,
  "ad": 3641,
  "considerations": 3642,
  "plan,": 3643,
  "east.": 3644,
  "regulated": 3645,
  "defining": 3646,
  "satisfaction": 3647,
  "losing": 3648,
  "viable": 3649,
  "refused": 3650,
  "struggle": 3651,
  "faith": 3652,
  "euro.": 3653,
  "hundred": 3654,
  "rejection": 3655,
  "des": 3656,
  "costs,": 3657,
  "au@@": 3658,
  "follow-up": 3659,
  "education.": 3660,
  "liability": 3661,
  "fifteen": 3662,
  "rely": 3663,
  "abstained": 3664,
  "prevented": 3665,
  "sa@@": 3666,
  "replaced": 3667,
  "short-term": 3668,
  "genetically": 3669,
  "event,": 3670,
  "people’s": 3671,
  "solid": 3672,
  "king": 3673,
  "procurement": 3674,
  "ca@@": 3675,
  "urgency": 3676,
  "tra@@": 3677,
  "competences": 3678,
  "certainty": 3679,
  "surrounding": 3680,
  "trend": 3681,
  "incorporate": 3682,
  "ar": 3683,
  "2004,": 3684,
  "values,": 3685,
  "needs.": 3686,
  "resolving": 3687,
  "plan.": 3688,
  "alone.": 3689,
  "closure": 3690,
  "cities": 3691,
  "freely": 3692,
  "themselves,": 3693,
  "business.": 3694,
  "highlights": 3695,
  "telecommunications": 3696,
  "nations.": 3697,
  "exception": 3698,
  "reported": 3699,
  "sincere": 3700,
  "vehicle": 3701,
  "confident": 3702,
  "conference,": 3703,
  "thousand": 3704,
  "perspective,": 3705,
  "violence,": 3706,
  "agriculture.": 3707,
  "block": 3708,
  "logical": 3709,
  "euro-mediterranean": 3710,
  "deaths": 3711,
  "evident": 3712,
  "respects": 3713,
  "convince": 3714,
  "can@@": 3715,
  "noise": 3716,
  "nonetheless": 3717,
  "promise": 3718,
  "observe": 3719,
  "door": 3720,
  "candidates": 3721,
  "promises": 3722,
  "el@@": 3723,
  "is:": 3724,
  "timely": 3725,
  "reform,": 3726,
  "joined": 3727,
  "delays": 3728,
  "cre@@": 3729,
  "1999,": 3730,
  "for@@": 3731,
  "f": 3732,
  "coastal": 3733,
  "levels.": 3734,
  "infringement": 3735,
  "order,": 3736,
  "effective.": 3737,
  "we@@": 3738,
  "threatened": 3739,
  "ratify": 3740,
  "perspective.": 3741,
  "safeguarding": 3742,
  "items": 3743,
  "den": 3744,
  "presentation": 3745,
  "subsequently": 3746,
  "y;": 3747,
  "ally.": 3748,
  "d;": 3749,
  "nine": 3750,
  "geneva": 3751,
  "science": 3752,
  "use.": 3753,
  "mi@@": 3754,
  "acceptance": 3755,
  "conservation": 3756,
  "reserve": 3757,
  "multiannual": 3758,
  "imported": 3759,
  "2009,": 3760,
  "50%": 3761,
  "lives.": 3762,
  "coherence": 3763,
  "ter@@": 3764,
  "freight": 3765,
  "service.": 3766,
  "pursued": 3767,
  "explanations": 3768,
  "georgia": 3769,
  ".@@": 3770,
  "war@@": 3771,
  "respected.": 3772,
  "slow": 3773,
  "field,": 3774,
  "tourism,": 3775,
  "visited": 3776,
  "2010,": 3777,
  "et@@": 3778,
  "ambition": 3779,
  "borne": 3780,
  "systematic": 3781,
  "commend": 3782,
  "cs": 3783,
  "containing": 3784,
  "removed": 3785,
  "su@@": 3786,
  "unemployment,": 3787,
  "prison": 3788,
  "suggestion": 3789,
  "e?": 3790,
  "8,": 3791,
  "older": 3792,
  "failing": 3793,
  "conflict.": 3794,
  "integrate": 3795,
  "occurred": 3796,
  "red,": 3797,
  "ste@@": 3798,
  "regularly": 3799,
  "impetus": 3800,
  "good,": 3801,
  "der": 3802,
  "cu@@": 3803,
  "used.": 3804,
  "mandatory": 3805,
  "gained": 3806,
  "governments,": 3807,
  "honest": 3808,
  "2004.": 3809,
  "actions.": 3810,
  "thing.": 3811,
  "solution,": 3812,
  "better.": 3813,
  "ireland.": 3814,
  "om@@": 3815,
  "gross": 3816,
  "controversial": 3817,
  "equivalent": 3818,
  "anniversary": 3819,
  "register": 3820,
  "institute": 3821,
  "quickly.": 3822,
  "advanced": 3823,
  "tions": 3824,
  "virtually": 3825,
  "course.": 3826,
  "notably": 3827,
  "disappointed": 3828,
  "cancer": 3829,
  "date,": 3830,
  "b5-0@@": 3831,
  "indicators": 3832,
  "300": 3833,
  "non-governmental": 3834,
  "effective,": 3835,
  "listening": 3836,
  "liked": 3837,
  "enterprises.": 3838,
  "army": 3839,
  "com@@": 3840,
  "management.": 3841,
  "businesses,": 3842,
  "comparison": 3843,
  "z": 3844,
  "popular": 3845,
  "te,": 3846,
  "ve": 3847,
  "times.": 3848,
  "min@@": 3849,
  "portugal,": 3850,
  "red.": 3851,
  "rather,": 3852,
  "technology.": 3853,
  "decent": 3854,
  "pensions": 3855,
  "quote": 3856,
  "applause": 3857,
  "population,": 3858,
  "except": 3859,
  "nations,": 3860,
  "unemployment.": 3861,
  "statistical": 3862,
  "clearer": 3863,
  "iranian": 3864,
  "0.@@": 3865,
  "means,": 3866,
  "pursuing": 3867,
  "sha@@": 3868,
  "observation": 3869,
  "apparent": 3870,
  "ism": 3871,
  "cor@@": 3872,
  "accepting": 3873,
  "speech,": 3874,
  "flow": 3875,
  "advocate": 3876,
  "precautionary": 3877,
  "effectively.": 3878,
  "2005,": 3879,
  "evaluate": 3880,
  "react": 3881,
  "signs": 3882,
  "alde": 3883,
  "acquis": 3884,
  "ni@@": 3885,
  "image": 3886,
  "interest,": 3887,
  "this?": 3888,
  "2007.": 3889,
  "thursday": 3890,
  "acted": 3891,
  "maybe": 3892,
  "presidential": 3893,
  "drive": 3894,
  "dramatic": 3895,
  "1.@@": 3896,
  "ones.": 3897,
  "solutions.": 3898,
  "follows": 3899,
  "d-@@": 3900,
  "prices.": 3901,
  "outermost": 3902,
  "third-country": 3903,
  "needed,": 3904,
  "true,": 3905,
  "2007,": 3906,
  "unilateral": 3907,
  "emissions.": 3908,
  "wherever": 3909,
  "3.": 3910,
  "incentive": 3911,
  "organization": 3912,
  "intentions": 3913,
  "interests,": 3914,
  "female": 3915,
  "marked": 3916,
  "partners,": 3917,
  "pakistan": 3918,
  "appointment": 3919,
  "reporting": 3920,
  "schools": 3921,
  "inflation": 3922,
  "eventually": 3923,
  "pl@@": 3924,
  "focusing": 3925,
  "fruit": 3926,
  "entering": 3927,
  "essential.": 3928,
  "societies": 3929,
  "judge": 3930,
  "recently,": 3931,
  "bureaucracy": 3932,
  "lisbon.": 3933,
  "instance": 3934,
  "integration,": 3935,
  "fails": 3936,
  "helps": 3937,
  "blame": 3938,
  "socio-economic": 3939,
  "violent": 3940,
  "correctly": 3941,
  "brussels.": 3942,
  "context.": 3943,
  "ter": 3944,
  "periods": 3945,
  "ari@@": 3946,
  "paragraphs": 3947,
  "ent.": 3948,
  "y:": 3949,
  "insufficient": 3950,
  "cutting": 3951,
  "losses": 3952,
  "euro,": 3953,
  "fleet": 3954,
  "permitted": 3955,
  "before,": 3956,
  "disagree": 3957,
  "uncertainty": 3958,
  "innovation,": 3959,
  "enterprises,": 3960,
  "sad": 3961,
  "requirements.": 3962,
  "profit": 3963,
  "killed": 3964,
  "revenue": 3965,
  "age.": 3966,
  "member,": 3967,
  "enables": 3968,
  "political,": 3969,
  "criteria,": 3970,
  "controlled": 3971,
  "employers": 3972,
  "lifelong": 3973,
  "english": 3974,
  "cas@@": 3975,
  "general.": 3976,
  "new,": 3977,
  "meets": 3978,
  "sectors,": 3979,
  "bio@@": 3980,
  "ba@@": 3981,
  "summer": 3982,
  "ir@@": 3983,
  "discussion.": 3984,
  "shortcomings": 3985,
  "happen.": 3986,
  "search": 3987,
  "crises": 3988,
  "devoted": 3989,
  "sk": 3990,
  "relations,": 3991,
  "journalists": 3992,
  "nature.": 3993,
  "public,": 3994,
  "leaves": 3995,
  "neighbours": 3996,
  "regime.": 3997,
  "threshold": 3998,
  "albeit": 3999,
  "courts": 4000,
  "fourthly,": 4001,
  "contract": 4002,
  "bank,": 4003,
  "experiencing": 4004,
  "stringent": 4005,
  "pre-@@": 4006,
  "ties": 4007,
  "renewed": 4008,
  "speaking,": 4009,
  "80": 4010,
  "y'": 4011,
  "se,": 4012,
  "students": 4013,
  "recognises": 4014,
  "e:": 4015,
  "japan": 4016,
  "team": 4017,
  "chemicals": 4018,
  "promoted": 4019,
  "consulted": 4020,
  "date.": 4021,
  "restrictive": 4022,
  "participating": 4023,
  "host": 4024,
  "substantially": 4025,
  "hoped": 4026,
  "act.": 4027,
  "reforms.": 4028,
  "kosovo.": 4029,
  "ren@@": 4030,
  "le.": 4031,
  "breach": 4032,
  "such,": 4033,
  "him.": 4034,
  "sympathy": 4035,
  "indication": 4036,
  "authorisation": 4037,
  "iraq.": 4038,
  "good.": 4039,
  "usd": 4040,
  "ment.": 4041,
  "5.": 4042,
  "bosnia": 4043,
  "see,": 4044,
  "arrive": 4045,
  "cases.": 4046,
  "motor": 4047,
  "wise": 4048,
  "blood": 4049,
  "struck": 4050,
  "concentration": 4051,
  "exist.": 4052,
  "2003,": 4053,
  "pilot": 4054,
  "ist": 4055,
  "route": 4056,
  "learned": 4057,
  "ch": 4058,
  "’,": 4059,
  "gradual": 4060,
  "3%": 4061,
  "poland,": 4062,
  "inquiry": 4063,
  "activities,": 4064,
  "post": 4065,
  "sales": 4066,
  "employed": 4067,
  "korea": 4068,
  "catch": 4069,
  "uses": 4070,
  "fixed": 4071,
  "ing?": 4072,
  "when,": 4073,
  "wi@@": 4074,
  "parallel": 4075,
  "east,": 4076,
  "accounting": 4077,
  "alone,": 4078,
  "reductions": 4079,
  "competitiveness.": 4080,
  "belgium": 4081,
  "valid": 4082,
  "immigration.": 4083,
  "2008,": 4084,
  "emu": 4085,
  "protest": 4086,
  "direction,": 4087,
  "troops": 4088,
  "tes": 4089,
  "envisaged": 4090,
  "treaties.": 4091,
  "te": 4092,
  "begun": 4093,
  "irrespective": 4094,
  "post-@@": 4095,
  "justification": 4096,
  "palestinians": 4097,
  "mental": 4098,
  "investigate": 4099,
  "regulations,": 4100,
  "qualifications": 4101,
  "withdrawal": 4102,
  "2006.": 4103,
  ".'": 4104,
  "procedures,": 4105,
  "inside": 4106,
  "argue": 4107,
  "risk.": 4108,
  "surveillance": 4109,
  "doha": 4110,
  "clarification": 4111,
  "budgets,": 4112,
  "deny": 4113,
  "seriously.": 4114,
  "invited": 4115,
  "apparently": 4116,
  "coal": 4117,
  "har@@": 4118,
  "ul@@": 4119,
  "connection,": 4120,
  "biodiversity": 4121,
  "2005.": 4122,
  "6,": 4123,
  "productive": 4124,
  "grow": 4125,
  "americans": 4126,
  "assurance": 4127,
  "denied": 4128,
  "need,": 4129,
  "immigration,": 4130,
  "objective,": 4131,
  "sen@@": 4132,
  "consequences.": 4133,
  "businesses.": 4134,
  "variety": 4135,
  "harm": 4136,
  "cannot,": 4137,
  "far.": 4138,
  "1995": 4139,
  "million,": 4140,
  "hazardous": 4141,
  "echo": 4142,
  "composition": 4143,
  "ent@@": 4144,
  "ic": 4145,
  "nature,": 4146,
  "1999.": 4147,
  "dublin": 4148,
  "ruling": 4149,
  "tough": 4150,
  "examining": 4151,
  "concerns.": 4152,
  "ed@@": 4153,
  "ds": 4154,
  "unanimity": 4155,
  "buildings": 4156,
  "parents": 4157,
  "2008.": 4158,
  "the@@": 4159,
  "transactions": 4160,
  "questions,": 4161,
  "vocational": 4162,
  "hungary": 4163,
  "unemployed": 4164,
  "tions,": 4165,
  "far-reaching": 4166,
  "liberals": 4167,
  "social,": 4168,
  "countries'": 4169,
  "conservative": 4170,
  "title": 4171,
  "reflection": 4172,
  "religion": 4173,
  "missing": 4174,
  "stability,": 4175,
  "backing": 4176,
  "cohesion.": 4177,
  "cope": 4178,
  "notes": 4179,
  "falling": 4180,
  "corporate": 4181,
  "men@@": 4182,
  "ly.": 4183,
  "chair": 4184,
  "thing,": 4185,
  "farmers,": 4186,
  "year's": 4187,
  "dangers": 4188,
  "medicinal": 4189,
  "personally,": 4190,
  "governments.": 4191,
  "proven": 4192,
  "qu@@": 4193,
  "earlier,": 4194,
  "sole": 4195,
  "hopefully": 4196,
  "mer@@": 4197,
  "implementation.": 4198,
  "excuse": 4199,
  "ous.": 4200,
  "est": 4201,
  "iraq,": 4202,
  "originally": 4203,
  "experiences": 4204,
  "integrity": 4205,
  "required.": 4206,
  "categories": 4207,
  "outlined": 4208,
  "drivers": 4209,
  "decades": 4210,
  "ecofin": 4211,
  "ised": 4212,
  "adapted": 4213,
  "corresponding": 4214,
  "trial": 4215,
  "sea.": 4216,
  "whenever": 4217,
  "10%": 4218,
  "fears": 4219,
  "innovation.": 4220,
  "recital": 4221,
  "initially": 4222,
  "rating": 4223,
  "authority.": 4224,
  "billion.": 4225,
  "serves": 4226,
  "handling": 4227,
  "consistently": 4228,
  "ce,": 4229,
  "consideration.": 4230,
  "1%": 4231,
  "ably": 4232,
  "ban@@": 4233,
  "an.": 4234,
  "stability.": 4235,
  "fi": 4236,
  "populations": 4237,
  "resistance": 4238,
  "0@@": 4239,
  "cent": 4240,
  "part.": 4241,
  "recommended": 4242,
  "forestry": 4243,
  "her@@": 4244,
  "pi@@": 4245,
  "ship": 4246,
  "victim": 4247,
  "later,": 4248,
  "sit": 4249,
  "damaging": 4250,
  "europe'": 4251,
  "ministerial": 4252,
  "sums": 4253,
  "audiovisual": 4254,
  "tens": 4255,
  "swift": 4256,
  "ur@@": 4257,
  "adequately": 4258,
  "sur@@": 4259,
  "expansion": 4260,
  "mor@@": 4261,
  "intelligent": 4262,
  "shortly": 4263,
  "examination": 4264,
  "exchanges": 4265,
  "hi@@": 4266,
  "form@@": 4267,
  "disastrous": 4268,
  "explicitly": 4269,
  "consolidation": 4270,
  "linguistic": 4271,
  "morning,": 4272,
  "gen@@": 4273,
  "circumstances.": 4274,
  "necessity": 4275,
  "endorsed": 4276,
  "much.": 4277,
  "role,": 4278,
  "minor": 4279,
  "gaza": 4280,
  "loans": 4281,
  "als": 4282,
  "data.": 4283,
  "presents": 4284,
  "large-scale": 4285,
  "assistance.": 4286,
  "notice": 4287,
  "suggests": 4288,
  "where,": 4289,
  "lacking": 4290,
  "days,": 4291,
  "decisions,": 4292,
  "workers'": 4293,
  "effect,": 4294,
  "pressing": 4295,
  "volume": 4296,
  "pharmaceutical": 4297,
  "package.": 4298,
  "principles.": 4299,
  "enshrined": 4300,
  "assessments": 4301,
  "4.": 4302,
  "res": 4303,
  "win": 4304,
  "je@@": 4305,
  "founded": 4306,
  "horizontal": 4307,
  "fit": 4308,
  "touch": 4309,
  "stating": 4310,
  "characterised": 4311,
  "ai@@": 4312,
  "principal": 4313,
  "destroy": 4314,
  "arrived": 4315,
  "characteristics": 4316,
  "helpful": 4317,
  "kosovo,": 4318,
  "fundamentally": 4319,
  "tu@@": 4320,
  "water,": 4321,
  "saving": 4322,
  "consolidate": 4323,
  "shift": 4324,
  "it?": 4325,
  "die": 4326,
  "compromise,": 4327,
  "pretext": 4328,
  "leg@@": 4329,
  "supplies": 4330,
  "finances": 4331,
  "appointed": 4332,
  "choices": 4333,
  "competitiveness,": 4334,
  "another,": 4335,
  "atlantic": 4336,
  "driven": 4337,
  "observed": 4338,
  "registration": 4339,
  "aids": 4340,
  "reconciliation": 4341,
  "contributes": 4342,
  "x": 4343,
  "consequently": 4344,
  "forests": 4345,
  "conventions": 4346,
  "died": 4347,
  "80%": 4348,
  "culture.": 4349,
  "gener@@": 4350,
  "sections": 4351,
  "investment.": 4352,
  "service,": 4353,
  "judgment": 4354,
  "exploit": 4355,
  "marks": 4356,
  "farm": 4357,
  "programming": 4358,
  "majority.": 4359,
  "preparatory": 4360,
  "last,": 4361,
  "s!": 4362,
  "endeavour": 4363,
  "35": 4364,
  "lt": 4365,
  "answered": 4366,
  "enabled": 4367,
  "citizenship": 4368,
  "responsibilities.": 4369,
  "achievements": 4370,
  "delivered": 4371,
  "visible": 4372,
  "fo@@": 4373,
  "seventh": 4374,
  "slovakia": 4375,
  "inevitably": 4376,
  "ground.": 4377,
  "university": 4378,
  "ga@@": 4379,
  "harmonise": 4380,
  "names": 4381,
  "l,": 4382,
  "broadly": 4383,
  "telling": 4384,
  "before.": 4385,
  "islands": 4386,
  "detention": 4387,
  "cod": 4388,
  "hol@@": 4389,
  "ambitions": 4390,
  "c5-0@@": 4391,
  "ation?": 4392,
  "coordinating": 4393,
  "adverse": 4394,
  "assessing": 4395,
  "have.": 4396,
  "side.": 4397,
  "notion": 4398,
  "re.": 4399,
  "netherlands,": 4400,
  "consultations": 4401,
  "century.": 4402,
  "stick": 4403,
  "solving": 4404,
  "discrimination.": 4405,
  "associations": 4406,
  "obtaining": 4407,
  "potentially": 4408,
  "history.": 4409,
  "stabilisation": 4410,
  "consistency": 4411,
  "ultimate": 4412,
  "laying": 4413,
  "é@@": 4414,
  "kurdish": 4415,
  "turkey's": 4416,
  "yourself": 4417,
  "campaigns": 4418,
  "prize": 4419,
  "say.": 4420,
  "stake": 4421,
  "travelling": 4422,
  "exclusive": 4423,
  "9,": 4424,
  "detriment": 4425,
  "terrorists": 4426,
  "court.": 4427,
  "completion": 4428,
  "imperative": 4429,
  "question:": 4430,
  "wished": 4431,
  "elderly": 4432,
  "i.": 4433,
  "foremost": 4434,
  "placing": 4435,
  "igc": 4436,
  "specifically,": 4437,
  "territories": 4438,
  "fought": 4439,
  "train": 4440,
  "char@@": 4441,
  "attached": 4442,
  "systematically": 4443,
  "fallen": 4444,
  "birth": 4445,
  "ment@@": 4446,
  "instruments.": 4447,
  "blind": 4448,
  "2003.": 4449,
  "deciding": 4450,
  "sight": 4451,
  "confusion": 4452,
  "a4-0@@": 4453,
  "removal": 4454,
  "torture": 4455,
  "generate": 4456,
  "acknowledged": 4457,
  "t?": 4458,
  "investing": 4459,
  "dumping": 4460,
  "remained": 4461,
  "banned": 4462,
  "safeguards": 4463,
  "straight": 4464,
  "ppe": 4465,
  "technology,": 4466,
  "40%": 4467,
  "sees": 4468,
  "sports": 4469,
  "friend": 4470,
  "own-initiative": 4471,
  "steel": 4472,
  "foster": 4473,
  "resource": 4474,
  "asian": 4475,
  "side,": 4476,
  "feature": 4477,
  "response.": 4478,
  "2002,": 4479,
  "modernisation": 4480,
  "afternoon": 4481,
  "desirable": 4482,
  "back@@": 4483,
  "disadvantaged": 4484,
  "ended": 4485,
  "badly": 4486,
  "fast": 4487,
  "stimulate": 4488,
  "baroness": 4489,
  "cheap": 4490,
  "ously": 4491,
  "length": 4492,
  "treaties,": 4493,
  "enough,": 4494,
  "ation:": 4495,
  "sell": 4496,
  "football": 4497,
  "quality,": 4498,
  "romanian": 4499,
  "exposed": 4500,
  "audit": 4501,
  "exemption": 4502,
  "genetic": 4503,
  "favour.": 4504,
  "card": 4505,
  "innocent": 4506,
  "night": 4507,
  "stricter": 4508,
  "conviction": 4509,
  "line.": 4510,
  "everyday": 4511,
  "rid": 4512,
  "quality.": 4513,
  "5%": 4514,
  "management,": 4515,
  "automatically": 4516,
  "movements": 4517,
  "ensured": 4518,
  "securing": 4519,
  "references": 4520,
  "taken,": 4521,
  "observers": 4522,
  "occur": 4523,
  "brussels,": 4524,
  "21st": 4525,
  "high-quality": 4526,
  "stockholm": 4527,
  "cap@@": 4528,
  "practically": 4529,
  "use,": 4530,
  "transferred": 4531,
  "stations": 4532,
  "sis": 4533,
  "closing": 4534,
  "y's": 4535,
  "ent": 4536,
  "albania": 4537,
  "s'.": 4538,
  "lu@@": 4539,
  "abandon": 4540,
  "alternatives": 4541,
  "cuba": 4542,
  "comparable": 4543,
  "integrating": 4544,
  "model.": 4545,
  "transposition": 4546,
  "ev@@": 4547,
  "ourselves.": 4548,
  "freedom.": 4549,
  "tion@@": 4550,
  "onto": 4551,
  "abuses": 4552,
  "democrat": 4553,
  "satellite": 4554,
  "res,": 4555,
  "sentence": 4556,
  "ati@@": 4557,
  "fire": 4558,
  "sixth": 4559,
  "sale": 4560,
  "further,": 4561,
  "welcome.": 4562,
  "banning": 4563,
  "airports": 4564,
  "woman": 4565,
  "ance": 4566,
  "ingly": 4567,
  "galileo": 4568,
  "pact.": 4569,
  "wholeheartedly": 4570,
  "mistakes": 4571,
  "importance,": 4572,
  "adding": 4573,
  "banana": 4574,
  "euro-@@": 4575,
  "activity.": 4576,
  "dependence": 4577,
  "integral": 4578,
  "design": 4579,
  "traditions": 4580,
  "ise": 4581,
  "accused": 4582,
  "lesson": 4583,
  "means.": 4584,
  "v": 4585,
  "h-0@@": 4586,
  "approaches": 4587,
  "mind.": 4588,
  "nation@@": 4589,
  "ending": 4590,
  "von": 4591,
  "models": 4592,
  "bank.": 4593,
  "tor@@": 4594,
  "expertise": 4595,
  "used,": 4596,
  "monopoly": 4597,
  "warm": 4598,
  "2001,": 4599,
  "voters": 4600,
  "false": 4601,
  "men.": 4602,
  "obstacle": 4603,
  "creative": 4604,
  "fl@@": 4605,
  "inspection": 4606,
  "rigorous": 4607,
  "cha@@": 4608,
  "testing": 4609,
  "efficiency.": 4610,
  "appreciation": 4611,
  "principles,": 4612,
  "en,": 4613,
  "track": 4614,
  "worried": 4615,
  "radio": 4616,
  "a-@@": 4617,
  "offices": 4618,
  "roads": 4619,
  "attach": 4620,
  "inhabitants": 4621,
  "ensures": 4622,
  "emerged": 4623,
  "organisation.": 4624,
  "refusal": 4625,
  "ve.": 4626,
  "addresses": 4627,
  "se.": 4628,
  "crops": 4629,
  "document.": 4630,
  "preferred": 4631,
  "normally": 4632,
  "were,": 4633,
  "farmers.": 4634,
  "continent.": 4635,
  "facilitating": 4636,
  "pointing": 4637,
  "lowest": 4638,
  "exclude": 4639,
  "solved": 4640,
  "efforts.": 4641,
  "doubt,": 4642,
  "ine": 4643,
  "unprecedented": 4644,
  "data,": 4645,
  "t's": 4646,
  "satisfy": 4647,
  "goals.": 4648,
  "absurd": 4649,
  "ded,": 4650,
  "draftsman": 4651,
  "finish": 4652,
  "biological": 4653,
  "won": 4654,
  "need.": 4655,
  "ec@@": 4656,
  "assured": 4657,
  "ings,": 4658,
  "sold": 4659,
  "ageing": 4660,
  "avoiding": 4661,
  "ves": 4662,
  "rome": 4663,
  "london": 4664,
  "reforms,": 4665,
  "p,": 4666,
  "attend": 4667,
  "denmark": 4668,
  "sustained": 4669,
  "complied": 4670,
  "cohesion,": 4671,
  "strive": 4672,
  "organizations": 4673,
  "second,": 4674,
  "housing": 4675,
  "sweden,": 4676,
  "heavily": 4677,
  "tolerance": 4678,
  "scientists": 4679,
  "ceiling": 4680,
  "t:": 4681,
  "object": 4682,
  "moldova": 4683,
  "2002.": 4684,
  "austria,": 4685,
  "twenty": 4686,
  "challenges.": 4687,
  "initiated": 4688,
  "reminded": 4689,
  "dimension.": 4690,
  "res@@": 4691,
  "component": 4692,
  "paper,": 4693,
  "unions": 4694,
  "shipping": 4695,
  "soil": 4696,
  "verts/ale": 4697,
  "saddam": 4698,
  "universities": 4699,
  "posed": 4700,
  "job.": 4701,
  "san@@": 4702,
  "stages": 4703,
  "8.": 4704,
  "persuade": 4705,
  "wrong.": 4706,
  "formally": 4707,
  "root": 4708,
  "rate,": 4709,
  "document,": 4710,
  "clear:": 4711,
  "witnessed": 4712,
  "minutes.": 4713,
  "tradition": 4714,
  "maintenance": 4715,
  "ness": 4716,
  "morocco": 4717,
  "migrants": 4718,
  "networks.": 4719,
  "subjected": 4720,
  "aspects,": 4721,
  "ded.": 4722,
  "kingdom,": 4723,
  "america.": 4724,
  "continue.": 4725,
  "veterinary": 4726,
  "flows": 4727,
  "ing:": 4728,
  "ant@@": 4729,
  "expert": 4730,
  "eu@@": 4731,
  "lists": 4732,
  "facility": 4733,
  "forgotten": 4734,
  "mid-term": 4735,
  "ked": 4736,
  "-based": 4737,
  "opportunities.": 4738,
  "sing": 4739,
  "pact,": 4740,
  "subsidiarity.": 4741,
  "exceptions": 4742,
  "grave": 4743,
  "communication,": 4744,
  "hong": 4745,
  "aspects.": 4746,
  "democratically": 4747,
  "macedonia": 4748,
  "label": 4749,
  "ko@@": 4750,
  "airport": 4751,
  "compromises": 4752,
  "destroyed": 4753,
  "limiting": 4754,
  "opportunity.": 4755,
  "backed": 4756,
  "fil@@": 4757,
  "investigations": 4758,
  "responses": 4759,
  "der@@": 4760,
  "different.": 4761,
  "funding,": 4762,
  "disputes": 4763,
  "step.": 4764,
  "br@@": 4765,
  "available,": 4766,
  "book": 4767,
  "sectoral": 4768,
  "tr@@": 4769,
  "recycling": 4770,
  "in-depth": 4771,
  "removing": 4772,
  "railways": 4773,
  "h,": 4774,
  "aiming": 4775,
  "autonomy": 4776,
  "col@@": 4777,
  "prerequisite": 4778,
  "stem": 4779,
  "2011": 4780,
  "occasions,": 4781,
  "speech.": 4782,
  "priorities,": 4783,
  "task.": 4784,
  "gets": 4785,
  "down@@": 4786,
  "about,": 4787,
  "analyse": 4788,
  "lays": 4789,
  "returned": 4790,
  "gulf": 4791,
  "confirms": 4792,
  "budgets.": 4793,
  "producer": 4794,
  "secretary-general": 4795,
  "class": 4796,
  "simplified": 4797,
  "canada": 4798,
  "march,": 4799,
  "ownership": 4800,
  "actions,": 4801,
  "sel@@": 4802,
  "package,": 4803,
  "consists": 4804,
  "advisory": 4805,
  "comments.": 4806,
  "served": 4807,
  "ate@@": 4808,
  "foremost,": 4809,
  "chamber.": 4810,
  "controlling": 4811,
  "hour": 4812,
  "achieved,": 4813,
  "residence": 4814,
  "act,": 4815,
  "socially": 4816,
  "functions": 4817,
  "personnel": 4818,
  "delicate": 4819,
  "radioactive": 4820,
  "fate": 4821,
  "accurate": 4822,
  "await": 4823,
  "america,": 4824,
  "else.": 4825,
  "purpose.": 4826,
  "features": 4827,
  "history,": 4828,
  "indicates": 4829,
  "tackled": 4830,
  "regulating": 4831,
  "jo@@": 4832,
  "fac@@": 4833,
  "guilty": 4834,
  "expressly": 4835,
  "council'": 4836,
  "august": 4837,
  "abolish": 4838,
  "initiatives.": 4839,
  "adaptation": 4840,
  "storage": 4841,
  "twice": 4842,
  "greens": 4843,
  "sphere": 4844,
  "30%": 4845,
  "occupied": 4846,
  "business,": 4847,
  "ideal": 4848,
  "threatening": 4849,
  "accordingly,": 4850,
  "currency.": 4851,
  "scheduled": 4852,
  "results,": 4853,
  "topical": 4854,
  "released": 4855,
  "all@@": 4856,
  "prodi,": 4857,
  "enjoyed": 4858,
  "collapse": 4859,
  "occupation": 4860,
  "repercussions": 4861,
  "regul@@": 4862,
  "198@@": 4863,
  "gue/ngl": 4864,
  "providers": 4865,
  "come.": 4866,
  "attractive": 4867,
  "platform": 4868,
  "des@@": 4869,
  "attempting": 4870,
  "europeans,": 4871,
  "moves": 4872,
  "reproductive": 4873,
  "acceptable.": 4874,
  "december,": 4875,
  "ation;": 4876,
  "um@@": 4877,
  "6.": 4878,
  "perspectives": 4879,
  "scrutiny": 4880,
  "grants": 4881,
  "openly": 4882,
  "indirect": 4883,
  "pose": 4884,
  "efficiency,": 4885,
  "cross": 4886,
  "enforce": 4887,
  "remarkable": 4888,
  "democrats,": 4889,
  "whatsoever": 4890,
  "dairy": 4891,
  "appalling": 4892,
  "am,": 4893,
  "ideological": 4894,
  "earmarked": 4895,
  "ser@@": 4896,
  "chain": 4897,
  "res.": 4898,
  "romania,": 4899,
  "25@@": 4900,
  "/98": 4901,
  "morning.": 4902,
  "difficult.": 4903,
  "disaster.": 4904,
  "author.": 4905,
  "investment,": 4906,
  "fuels": 4907,
  "thinks": 4908,
  "den@@": 4909,
  "demanded": 4910,
  "thoroughly": 4911,
  "encourages": 4912,
  "regimes": 4913,
  "own.": 4914,
  "generated": 4915,
  "dedicated": 4916,
  "usual": 4917,
  "registered": 4918,
  "part-session": 4919,
  "passing": 4920,
  "fer@@": 4921,
  "powers.": 4922,
  "logic": 4923,
  "children's": 4924,
  "dead": 4925,
  "distance": 4926,
  "decline": 4927,
  "are@@": 4928,
  "ative": 4929,
  "availability": 4930,
  "elsewhere": 4931,
  "40@@": 4932,
  "tabling": 4933,
  "concern,": 4934,
  "murder": 4935,
  "24@@": 4936,
  "days.": 4937,
  "te.": 4938,
  "believed": 4939,
  "victims.": 4940,
  "27@@": 4941,
  "men,": 4942,
  "minute": 4943,
  "30@@": 4944,
  "territory.": 4945,
  "generous": 4946,
  "anti@@": 4947,
  "definitive": 4948,
  "waste.": 4949,
  "st": 4950,
  "office,": 4951,
  "responding": 4952,
  "expenditure.": 4953,
  "accountability": 4954,
  "ating,": 4955,
  "70": 4956,
  "autonomous": 4957,
  "poorer": 4958,
  "authority,": 4959,
  "follows:": 4960,
  "sex": 4961,
  "prices,": 4962,
  "rare": 4963,
  "ings.": 4964,
  "sea,": 4965,
  "sed": 4966,
  "ses": 4967,
  "quick": 4968,
  "han@@": 4969,
  "governed": 4970,
  "water.": 4971,
  "relative": 4972,
  "400": 4973,
  "burma": 4974,
  "man,": 4975,
  "elimination": 4976,
  "diverse": 4977,
  "tremendous": 4978,
  "statement,": 4979,
  "efforts,": 4980,
  "organisation,": 4981,
  "combine": 4982,
  "initiate": 4983,
  "loc@@": 4984,
  "-related": 4985,
  "n,": 4986,
  "zimbabwe": 4987,
  "instruments,": 4988,
  "majority,": 4989,
  "lines.": 4990,
  "al-@@": 4991,
  "commissioners,": 4992,
  "7.": 4993,
  "pace": 4994,
  "clauses": 4995,
  "paper.": 4996,
  "recognising": 4997,
  "monitored": 4998,
  "difficulties.": 4999,
  "born": 5000,
  "sol@@": 5001,
  "wake": 5002,
  "sed.": 5003,
  "affected.": 5004,
  "stresses": 5005,
  "recorded": 5006,
  "tions.": 5007,
  "promotes": 5008,
  "properly.": 5009,
  "technologies.": 5010,
  "describe": 5011,
  "appeared": 5012,
  "partnerships": 5013,
  "delegations": 5014,
  "value.": 5015,
  "fisheries,": 5016,
  "iran,": 5017,
  "governance.": 5018,
  "organized": 5019,
  "june,": 5020,
  "chamber,": 5021,
  "praise": 5022,
  "focuses": 5023,
  "drinking": 5024,
  "may.": 5025,
  "announcement": 5026,
  "ministers,": 5027,
  "opportunity,": 5028,
  "interference": 5029,
  "partnership.": 5030,
  "donor": 5031,
  "parliaments.": 5032,
  "greens/european": 5033,
  "2001.": 5034,
  "gratitude": 5035,
  "findings": 5036,
  "á@@": 5037,
  "table.": 5038,
  "ones,": 5039,
  "emphasises": 5040,
  "egypt": 5041,
  "devote": 5042,
  "words.": 5043,
  "seemed": 5044,
  "fortunately,": 5045,
  "soldiers": 5046,
  "presidency's": 5047,
  "model,": 5048,
  "uphold": 5049,
  "help.": 5050,
  "criticise": 5051,
  "training.": 5052,
  "eu'": 5053,
  "multi-@@": 5054,
  "consent": 5055,
  "fact.": 5056,
  "flight": 5057,
  "agency,": 5058,
  "farms": 5059,
  "board.": 5060,
  "wonderful": 5061,
  "reply.": 5062,
  "victory": 5063,
  "d'": 5064,
  "criticised": 5065,
  "feels": 5066,
  "ates,": 5067,
  "iran.": 5068,
  "enhancing": 5069,
  "down,": 5070,
  "practices.": 5071,
  "profound": 5072,
  "ty@@": 5073,
  "challenge.": 5074,
  "head@@": 5075,
  "tion": 5076,
  "bears": 5077,
  "afghan": 5078,
  "assets": 5079,
  "statement.": 5080,
  "incidentally,": 5081,
  "government's": 5082,
  "communication.": 5083,
  "holds": 5084,
  "visas": 5085,
  "depending": 5086,
  "distributed": 5087,
  "don@@": 5088,
  "ting,": 5089,
  "combination": 5090,
  "implemented,": 5091,
  "treatment.": 5092,
  "invested": 5093,
  "simplifying": 5094,
  "cold": 5095,
  "/9@@": 5096,
  "helsinki": 5097,
  "taxpayers'": 5098,
  "globalisation.": 5099,
  "immunity": 5100,
  "true.": 5101,
  "investors": 5102,
  "years'": 5103,
  "claimed": 5104,
  "strikes": 5105,
  "urged": 5106,
  "accepted.": 5107,
  "lithuania": 5108,
  "agencies.": 5109,
  "food,": 5110,
  "republic,": 5111,
  "line,": 5112,
  "45": 5113,
  "ies.": 5114,
  "emphasize": 5115,
  "olaf": 5116,
  "actors": 5117,
  "arctic": 5118,
  "transnational": 5119,
  "minorities.": 5120,
  "internet.": 5121,
  "2%": 5122,
  "29@@": 5123,
  "work@@": 5124,
  "infrastructure,": 5125,
  "kind.": 5126,
  "ignored": 5127,
  "powers,": 5128,
  "substantive": 5129,
  "efficiently": 5130,
  "multinational": 5131,
  "caught": 5132,
  "o.": 5133,
  "media,": 5134,
  "era": 5135,
  "conjunction": 5136,
  "197@@": 5137,
  "muslim": 5138,
  "writing": 5139,
  "applied.": 5140,
  "exert": 5141,
  "jurisdiction": 5142,
  "hu@@": 5143,
  "same.": 5144,
  "cultures": 5145,
  "rejecting": 5146,
  "imp@@": 5147,
  "privacy": 5148,
  "gh@@": 5149,
  "changes.": 5150,
  "drop": 5151,
  "zero": 5152,
  "rel@@": 5153,
  "events,": 5154,
  "estimates": 5155,
  "ry": 5156,
  "error": 5157,
  "selection": 5158,
  "desired": 5159,
  "als,": 5160,
  "23@@": 5161,
  "fires": 5162,
  "definite": 5163,
  "authorised": 5164,
  "displaced": 5165,
  "errors": 5166,
  "else,": 5167,
  "olympic": 5168,
  "comitology": 5169,
  "prevention,": 5170,
  "ing'": 5171,
  "af@@": 5172,
  "bas@@": 5173,
  "faces": 5174,
  "z,": 5175,
  "far@@": 5176,
  "bre@@": 5177,
  "00@@": 5178,
  "own,": 5179,
  "committee's": 5180,
  "less.": 5181,
  "town": 5182,
  "macroeconomic": 5183,
  "council’s": 5184,
  "high-level": 5185,
  "account,": 5186,
  "fulfilling": 5187,
  "origin.": 5188,
  "irregularities": 5189,
  "breaking": 5190,
  "wto.": 5191,
  "manufacturing": 5192,
  "interpreted": 5193,
  "livestock": 5194,
  "tend": 5195,
  "assistance,": 5196,
  "assessed": 5197,
  "bon@@": 5198,
  "ultimately,": 5199,
  "improved.": 5200,
  "mil@@": 5201,
  "sion": 5202,
  "tampere": 5203,
  "inland": 5204,
  "economies.": 5205,
  "objections": 5206,
  "cl@@": 5207,
  "animals.": 5208,
  "ality": 5209,
  "mother": 5210,
  "wide-ranging": 5211,
  "elsewhere.": 5212,
  "sho@@": 5213,
  "bro@@": 5214,
  "remote": 5215,
  "handed": 5216,
  "perform": 5217,
  "weeks,": 5218,
  "differ": 5219,
  "nordic": 5220,
  "'no'": 5221,
  "goods.": 5222,
  "pre-accession": 5223,
  "smes,": 5224,
  "these,": 5225,
  "ach@@": 5226,
  "criterion": 5227,
  "eliminating": 5228,
  "ters": 5229,
  "communities.": 5230,
  "retirement": 5231,
  "eib": 5232,
  "slovak": 5233,
  "reassure": 5234,
  "observations": 5235,
  "map": 5236,
  "participants": 5237,
  "realised": 5238,
  "0,": 5239,
  "discrimination,": 5240,
  "documents.": 5241,
  "tunisia": 5242,
  "accession.": 5243,
  "repression": 5244,
  "stakeholders": 5245,
  "palestine": 5246,
  "ahead.": 5247,
  "networks,": 5248,
  "/2002": 5249,
  "mobilisation": 5250,
  "anywhere": 5251,
  "concluding": 5252,
  "step,": 5253,
  "floods": 5254,
  "tic": 5255,
  "initiatives,": 5256,
  "agencies,": 5257,
  "organising": 5258,
  "criminals": 5259,
  "patient": 5260,
  "dan@@": 5261,
  "sites": 5262,
  "50@@": 5263,
  "plus": 5264,
  "bodies.": 5265,
  "sense.": 5266,
  "ger@@": 5267,
  "flights": 5268,
  "win@@": 5269,
  "silence": 5270,
  "brutal": 5271,
  "meeting.": 5272,
  "undermining": 5273,
  "generations": 5274,
  "knowing": 5275,
  "ven@@": 5276,
  "secondary": 5277,
  "cal@@": 5278,
  "relief": 5279,
  "college": 5280,
  "discussion,": 5281,
  "os": 5282,
  "languages.": 5283,
  "demonstration": 5284,
  "office.": 5285,
  "ble": 5286,
  "posts": 5287,
  "establishes": 5288,
  "balance.": 5289,
  "reserves": 5290,
  "id@@": 5291,
  "contradiction": 5292,
  "ks": 5293,
  "goods,": 5294,
  "perfect": 5295,
  "technologies,": 5296,
  "ying": 5297,
  "rejected.": 5298,
  "changed.": 5299,
  "concessions": 5300,
  "eligible": 5301,
  "guidelines.": 5302,
  "criticisms": 5303,
  "ce.": 5304,
  "perhaps,": 5305,
  "/97": 5306,
  "self-employed": 5307,
  "incidents": 5308,
  "september,": 5309,
  "lan@@": 5310,
  "met.": 5311,
  "mu@@": 5312,
  "requiring": 5313,
  "tariff": 5314,
  "overwhelming": 5315,
  "dual": 5316,
  "equality,": 5317,
  "ies": 5318,
  "bases": 5319,
  "explanatory": 5320,
  "publicly": 5321,
  "priority,": 5322,
  "sed,": 5323,
  "confidence.": 5324,
  "sk@@": 5325,
  "asks": 5326,
  "runs": 5327,
  "seekers": 5328,
  "moratorium": 5329,
  "ising": 5330,
  "bal@@": 5331,
  "ps": 5332,
  "later.": 5333,
  "commissioner's": 5334,
  "er's": 5335,
  "party.": 5336,
  "liberties,": 5337,
  "at,": 5338,
  "survival": 5339,
  "shortage": 5340,
  "determining": 5341,
  "outset": 5342,
  "democratisation": 5343,
  "infrastructures": 5344,
  "inequalities": 5345,
  "secretary": 5346,
  "form.": 5347,
  "arrangement": 5348,
  "recognize": 5349,
  "ta@@": 5350,
  "land,": 5351,
  "vienna": 5352,
  "success,": 5353,
  "dates": 5354,
  "na@@": 5355,
  "proposed.": 5356,
  "food.": 5357,
  "patten": 5358,
  "wages": 5359,
  "against.": 5360,
  "150": 5361,
  "expand": 5362,
  "levels,": 5363,
  "threaten": 5364,
  "conventional": 5365,
  "surprise": 5366,
  "meeting,": 5367,
  "emissions,": 5368,
  "manner,": 5369,
  "pragmatic": 5370,
  "ph@@": 5371,
  "pri@@": 5372,
  "mixed": 5373,
  "osce": 5374,
  "purposes.": 5375,
  "wishing": 5376,
  "sri": 5377,
  "meantime,": 5378,
  "privileged": 5379,
  "ans,": 5380,
  "vo@@": 5381,
  "ers'": 5382,
  "ta": 5383,
  "bl@@": 5384,
  "will.": 5385,
  "condemnation": 5386,
  "en.": 5387,
  "complement": 5388,
  "deliberately": 5389,
  "quarter": 5390,
  "bodies,": 5391,
  "dear": 5392,
  "accepts": 5393,
  "speci@@": 5394,
  "cr@@": 5395,
  "balkan": 5396,
  "tuna": 5397,
  "37@@": 5398,
  "ality.": 5399,
  "pays": 5400,
  "missions": 5401,
  "issuing": 5402,
  "enterprise": 5403,
  "september.": 5404,
  "essential,": 5405,
  "said:": 5406,
  "input": 5407,
  "proves": 5408,
  "sudan": 5409,
  "june.": 5410,
  "lis@@": 5411,
  "handled": 5412,
  "dioxide": 5413,
  "unit": 5414,
  "remedy": 5415,
  "productivity": 5416,
  "malta": 5417,
  "belonging": 5418,
  "israel,": 5419,
  "detail.": 5420,
  "disparities": 5421,
  "hamas": 5422,
  "ju@@": 5423,
  "breaches": 5424,
  "rational": 5425,
  "deficits": 5426,
  "administration.": 5427,
  "internationally": 5428,
  "identifying": 5429,
  "bur@@": 5430,
  "ourselves,": 5431,
  "loud": 5432,
  "hal@@": 5433,
  "weeks.": 5434,
  "explicit": 5435,
  "parliaments,": 5436,
  "everyone.": 5437,
  "quantity": 5438,
  "arrested": 5439,
  "doing,": 5440,
  "split": 5441,
  "region@@": 5442,
  "myself,": 5443,
  "ass@@": 5444,
  "immediately.": 5445,
  "viewed": 5446,
  "gr@@": 5447,
  "inspections": 5448,
  "care.": 5449,
  "belarus.": 5450,
  "often,": 5451,
  "alarming": 5452,
  "um": 5453,
  "disease.": 5454,
  "ful": 5455,
  "detrimental": 5456,
  "women’s": 5457,
  "unified": 5458,
  "representative,": 5459,
  "evening.": 5460,
  "activity,": 5461,
  "located": 5462,
  "ard": 5463,
  "capacity.": 5464,
  "sub-@@": 5465,
  "publish": 5466,
  "group's": 5467,
  "compare": 5468,
  "billion,": 5469,
  "towns": 5470,
  "inappropriate": 5471,
  "poses": 5472,
  "als.": 5473,
  "preserving": 5474,
  "ary": 5475,
  "game": 5476,
  "october,": 5477,
  "ters,": 5478,
  "expresses": 5479,
  "empty": 5480,
  "reinforced": 5481,
  "transmission": 5482,
  "researchers": 5483,
  "symbolic": 5484,
  "returning": 5485,
  "pursuit": 5486,
  "minorities,": 5487,
  "ran@@": 5488,
  "liber@@": 5489,
  "yes": 5490,
  "van@@": 5491,
  "yugoslav": 5492,
  "reverse": 5493,
  "la": 5494,
  "postpone": 5495,
  "delay.": 5496,
  "ble.": 5497,
  "ies,": 5498,
  "ning": 5499,
  "super@@": 5500,
  "telephone": 5501,
  "revealed": 5502,
  "publication": 5503,
  "suspension": 5504,
  "approving": 5505,
  "ators": 5506,
  "tur@@": 5507,
  "him,": 5508,
  "refugees.": 5509,
  "reforming": 5510,
  "awaiting": 5511,
  "fishery": 5512,
  "da@@": 5513,
  "december.": 5514,
  "1998.": 5515,
  "fraud.": 5516,
  "ler": 5517,
  "gar@@": 5518,
  "sadly,": 5519,
  "agree,": 5520,
  "does,": 5521,
  "contrast": 5522,
  "brazil": 5523,
  "happen,": 5524,
  "analysis,": 5525,
  "refusing": 5526,
  "s-@@": 5527,
  "indispensable": 5528,
  "hunger": 5529,
  "isolated": 5530,
  "administration,": 5531,
  "equality.": 5532,
  "deprived": 5533,
  "law@@": 5534,
  "divide": 5535,
  "ation@@": 5536,
  "says,": 5537,
  "responded": 5538,
  "transfers": 5539,
  "smoking": 5540,
  "online": 5541,
  "discipline": 5542,
  "wind": 5543,
  "halt": 5544,
  "ves,": 5545,
  "turn,": 5546,
  "6%": 5547,
  "and@@": 5548,
  "seat": 5549,
  "hor@@": 5550,
  "gmos": 5551,
  "globalisation,": 5552,
  "senior": 5553,
  "subsidiarity,": 5554,
  "founding": 5555,
  "what,": 5556,
  "how,": 5557,
  "slovenia": 5558,
  "instrument,": 5559,
  "instrument.": 5560,
  "currency,": 5561,
  "modest": 5562,
  "people'": 5563,
  "difficult,": 5564,
  "/2001": 5565,
  "wholly": 5566,
  "specified": 5567,
  "acquired": 5568,
  "floor.": 5569,
  "friday": 5570,
  "regime,": 5571,
  "smes.": 5572,
  "escape": 5573,
  "ukraine.": 5574,
  "membership.": 5575,
  "g20": 5576,
  "euros": 5577,
  "toxic": 5578,
  "experience,": 5579,
  "owe": 5580,
  "vis@@": 5581,
  "at.": 5582,
  "over.": 5583,
  "70%": 5584,
  "witness": 5585,
  "arises": 5586,
  "want.": 5587,
  "continuous": 5588,
  "automatic": 5589,
  "signals": 5590,
  "che@@": 5591,
  "vitally": 5592,
  "expecting": 5593,
  "fulfilled": 5594,
  "3.@@": 5595,
  "ors": 5596,
  "these.": 5597,
  "bel@@": 5598,
  "of.": 5599,
  "revolution": 5600,
  "compensate": 5601,
  "speak,": 5602,
  "lebanon": 5603,
  "a5-00@@": 5604,
  "provisions.": 5605,
  "concentrated": 5606,
  "congress": 5607,
  "t'": 5608,
  "agreeing": 5609,
  "infrastructure.": 5610,
  "ments,": 5611,
  "since,": 5612,
  "topics": 5613,
  "europeans.": 5614,
  "agency.": 5615,
  "better,": 5616,
  "mat@@": 5617,
  "ped": 5618,
  "irresponsible": 5619,
  "concerns,": 5620,
  "human@@": 5621,
  "knowledge-based": 5622,
  "warrant": 5623,
  "governance,": 5624,
  "watch": 5625,
  "protocol.": 5626,
  "ality,": 5627,
  "famous": 5628,
  "minds": 5629,
  "restricting": 5630,
  "hoping": 5631,
  "yesterday's": 5632,
  "lengthy": 5633,
  "content.": 5634,
  "ants": 5635,
  "encouragement": 5636,
  "led.": 5637,
  "knew": 5638,
  "write": 5639,
  "serbian": 5640,
  "computer": 5641,
  "convey": 5642,
  "author@@": 5643,
  "formed": 5644,
  "90": 5645,
  "embargo": 5646,
  "bill": 5647,
  "2.@@": 5648,
  "alleged": 5649,
  "preservation": 5650,
  "faster": 5651,
  "hungary,": 5652,
  "balkans.": 5653,
  "media.": 5654,
  "germany.": 5655,
  "accordingly.": 5656,
  "aspirations": 5657,
  "cattle": 5658,
  "consult": 5659,
  "ends": 5660,
  "land.": 5661,
  "november,": 5662,
  "proposed,": 5663,
  "ner": 5664,
  "tive": 5665,
  "ty": 5666,
  "twelve": 5667,
  "natura": 5668,
  "tes,": 5669,
  "structured": 5670,
  "partial": 5671,
  "separation": 5672,
  "learnt": 5673,
  "n.": 5674,
  "bottom": 5675,
  "advances": 5676,
  "pal@@": 5677,
  "taxpayers": 5678,
  "60%": 5679,
  "routes": 5680,
  "point:": 5681,
  "ments": 5682,
  "speaks": 5683,
  "tourism.": 5684,
  "being,": 5685,
  "/200@@": 5686,
  "libya": 5687,
  "syria": 5688,
  "persecution": 5689,
  "identification": 5690,
  "mountain": 5691,
  "conflict,": 5692,
  "star@@": 5693,
  "positively": 5694,
  "communicate": 5695,
  "commitments.": 5696,
  "say:": 5697,
  "go.": 5698,
  "make.": 5699,
  "soft": 5700,
  "emerge": 5701,
  "ce": 5702,
  "demonstrating": 5703,
  "cooperating": 5704,
  "freedoms.": 5705,
  "thursday,": 5706,
  "christians": 5707,
  "requirements,": 5708,
  "cotonou": 5709,
  "quickly,": 5710,
  "grown": 5711,
  "mobilise": 5712,
  "uen": 5713,
  "tic@@": 5714,
  "members'": 5715,
  "consumer.": 5716,
  "federation": 5717,
  "stated,": 5718,
  "deadlines": 5719,
  "exact": 5720,
  "bush": 5721,
  "ep@@": 5722,
  "mutually": 5723,
  "guiding": 5724,
  "pick": 5725,
  "advocates": 5726,
  "bridge": 5727,
  "formulated": 5728,
  "pan@@": 5729,
  "ists": 5730,
  "1998,": 5731,
  "required,": 5732,
  "ian": 5733,
  "pillars": 5734,
  "popul@@": 5735,
  "broken": 5736,
  "capital.": 5737,
  "chechnya": 5738,
  "cast": 5739,
  "selling": 5740,
  "listed": 5741,
  "meanwhile,": 5742,
  "raised.": 5743,
  "officially": 5744,
  "ring": 5745,
  "supranational": 5746,
  "pro-@@": 5747,
  "de,": 5748,
  "strange": 5749,
  "yugoslavia": 5750,
  "cyprus,": 5751,
  "internet,": 5752,
  "guidance": 5753,
  "symbol": 5754,
  "forces.": 5755,
  "constituency": 5756,
  "derogation": 5757,
  "misleading": 5758,
  "beneficiaries": 5759,
  "pas@@": 5760,
  "events.": 5761,
  "invitation": 5762,
  "capital,": 5763,
  "tan@@": 5764,
  "century,": 5765,
  "opportunities,": 5766,
  "delivery": 5767,
  "geared": 5768,
  "weaken": 5769,
  "families.": 5770,
  "conclusion.": 5771,
  "foodstuffs": 5772,
  "finland,": 5773,
  "month,": 5774,
  "28@@": 5775,
  "relationships": 5776,
  "home.": 5777,
  "ism,": 5778,
  "translation": 5779,
  "messages": 5780,
  "ukraine,": 5781,
  "sources.": 5782,
  "differing": 5783,
  "attended": 5784,
  "care,": 5785,
  "producers,": 5786,
  "'yes'": 5787,
  "reconcile": 5788,
  "est@@": 5789,
  "suspend": 5790,
  "condemning": 5791,
  "merit": 5792,
  "humanity": 5793,
  "2020.": 5794,
  "9.": 5795,
  "1997,": 5796,
  "sides.": 5797,
  "hand@@": 5798,
  "airline": 5799,
  "enthusiasm": 5800,
  "dictatorship": 5801,
  "november.": 5802,
  "pollution.": 5803,
  "de.": 5804,
  "directives.": 5805,
  "complaint": 5806,
  "ing;": 5807,
  "exist,": 5808,
  "pity": 5809,
  "bed": 5810,
  "risks.": 5811,
  "cycle": 5812,
  "translated": 5813,
  "mexico": 5814,
  "ill-@@": 5815,
  "broadcasting": 5816,
  "overall,": 5817,
  "guide": 5818,
  "continuity": 5819,
  "monday": 5820,
  "tourist": 5821,
  "ats": 5822,
  "belarus,": 5823,
  "wave": 5824,
  "obligations.": 5825,
  "sin@@": 5826,
  "national,": 5827,
  "match": 5828,
  "execution": 5829,
  "ties.": 5830,
  "ter,": 5831,
  "excessively": 5832,
  "w": 5833,
  "dly": 5834,
  "sooner": 5835,
  "france.": 5836,
  "exploited": 5837,
  "high-@@": 5838,
  "continually": 5839,
  "adapting": 5840,
  "mentions": 5841,
  "ge": 5842,
  "constraints": 5843,
  "60@@": 5844,
  "recourse": 5845,
  "ping": 5846,
  "wall": 5847,
  "sto@@": 5848,
  "hand.": 5849,
  "argued": 5850,
  "indian": 5851,
  "mediterranean.": 5852,
  "receives": 5853,
  "conservatives": 5854,
  "wanting": 5855,
  "situations.": 5856,
  "scale.": 5857,
  "wednesday": 5858,
  "frequent": 5859,
  "ical": 5860,
  "appropriate.": 5861,
  "technically": 5862,
  "under-@@": 5863,
  "israel.": 5864,
  "billions": 5865,
  "medi@@": 5866,
  "expenditure,": 5867,
  "courageous": 5868,
  "concepts": 5869,
  "launching": 5870,
  "knowledge,": 5871,
  "indications": 5872,
  "producers.": 5873,
  "danube": 5874,
  "cou@@": 5875,
  "positive.": 5876,
  "update": 5877,
  "4%": 5878,
  "10,": 5879,
  "patents": 5880,
  "handle": 5881,
  "cuban": 5882,
  "interventions": 5883,
  "arbitrary": 5884,
  "everyone,": 5885,
  "renewal": 5886,
  "channel": 5887,
  "report:": 5888,
  "lend": 5889,
  "spectrum": 5890,
  "verheugen": 5891,
  "basque": 5892,
  "deemed": 5893,
  "deterioration": 5894,
  "allocate": 5895,
  "restriction": 5896,
  "author": 5897,
  "ar,": 5898,
  "exceed": 5899,
  "away.": 5900,
  "frontex": 5901,
  "developments.": 5902,
  "biofuels": 5903,
  "trends": 5904,
  "copyright": 5905,
  "sion.": 5906,
  "noticed": 5907,
  "thoughts": 5908,
  "existed": 5909,
  "stopped": 5910,
  "albanian": 5911,
  "player": 5912,
  "complexity": 5913,
  "shame": 5914,
  "olive": 5915,
  "channels": 5916,
  "oecd": 5917,
  "river": 5918,
  "acquire": 5919,
  "mann": 5920,
  "vague": 5921,
  "tested": 5922,
  "appropriate,": 5923,
  "safer": 5924,
  "p.": 5925,
  "body,": 5926,
  "remark": 5927,
  "politics.": 5928,
  "pan-european": 5929,
  "a'": 5930,
  "incident": 5931,
  "maternity": 5932,
  "needs,": 5933,
  "strasbourg.": 5934,
  "outline": 5935,
  "ation'": 5936,
  "fossil": 5937,
  "ing-@@": 5938,
  "conclusions.": 5939,
  "liberal,": 5940,
  "implementation,": 5941,
  "ways.": 5942,
  "blocking": 5943,
  "evening,": 5944,
  "engagement": 5945,
  "ts@@": 5946,
  "ks,": 5947,
  "euratom": 5948,
  "implies": 5949,
  "analyses": 5950,
  "march.": 5951,
  "destroying": 5952,
  "blocked": 5953,
  "interfere": 5954,
  "while,": 5955,
  "opens": 5956,
  "burdens": 5957,
  "pushing": 5958,
  "fragile": 5959,
  "suddenly": 5960,
  "beijing": 5961,
  "distortions": 5962,
  "task,": 5963,
  "adhere": 5964,
  "/2003": 5965,
  "cooperative": 5966,
  "want,": 5967,
  "indigenous": 5968,
  "0.": 5969,
  "today’s": 5970,
  "alis@@": 5971,
  "weaknesses": 5972,
  "bra@@": 5973,
  "fruitful": 5974,
  "surplus": 5975,
  "ann@@": 5976,
  "cour@@": 5977,
  "opposing": 5978,
  "excise": 5979,
  "dg": 5980,
  "eurostat": 5981,
  "vel@@": 5982,
  "mp@@": 5983,
  "25%": 5984,
  "quantities": 5985,
  "essence": 5986,
  "expenses": 5987,
  "fu@@": 5988,
  "ments.": 5989,
  "c,": 5990,
  "europe?": 5991,
  "inclusive": 5992,
  "threatens": 5993,
  "speculation": 5994,
  "balkans,": 5995,
  "montenegro": 5996,
  "mining": 5997,
  "margin": 5998,
  "dream": 5999,
  "ically": 6000,
  "afghanistan,": 6001,
  "sends": 6002,
  "harmonising": 6003,
  "value,": 6004,
  "preference": 6005,
  "tendency": 6006,
  "ble@@": 6007,
  "finds": 6008,
  "ours": 6009,
  "dare": 6010,
  "story": 6011,
  "namely,": 6012,
  "measure.": 6013,
  "fraud,": 6014,
  "scotland": 6015,
  "moderate": 6016,
  "immense": 6017,
  "successful.": 6018,
  "or.": 6019,
  "ruled": 6020,
  "atmosphere": 6021,
  "hear@@": 6022,
  "ates.": 6023,
  "one's": 6024,
  "distinguish": 6025,
  "guidelines,": 6026,
  "8%": 6027,
  "painful": 6028,
  "language,": 6029,
  "ons": 6030,
  "ll@@": 6031,
  "back.": 6032,
  "santer": 6033,
  "greece.": 6034,
  "judged": 6035,
  "tal@@": 6036,
  "nu@@": 6037,
  "touched": 6038,
  "clo@@": 6039,
  "month.": 6040,
  "games": 6041,
  "produces": 6042,
  "take.": 6043,
  "sanctions.": 6044,
  "happened.": 6045,
  "afghanistan.": 6046,
  "killing": 6047,
  "bigger": 6048,
  "italy.": 6049,
  "lines,": 6050,
  "vote:": 6051,
  "ze": 6052,
  "lifting": 6053,
  "character": 6054,
  "conducting": 6055,
  "ary,": 6056,
  "india,": 6057,
  "1994": 6058,
  "dr@@": 6059,
  "alised": 6060,
  "sun@@": 6061,
  "evaluating": 6062,
  "switzerland": 6063,
  "understand,": 6064,
  "through.": 6065,
  "avoided": 6066,
  "2011.": 6067,
  "body.": 6068,
  "plans.": 6069,
  "responsible.": 6070,
  "mep": 6071,
  "inequality": 6072,
  "meda": 6073,
  "soon.": 6074,
  "russia's": 6075,
  "artificial": 6076,
  "choice.": 6077,
  "packaging": 6078,
  "mostly": 6079,
  "typical": 6080,
  "val@@": 6081,
  "note,": 6082,
  "t;": 6083,
  "partnership,": 6084,
  "dossier": 6085,
  "equipped": 6086,
  "liberties": 6087,
  "start.": 6088,
  "ating.": 6089,
  "form,": 6090,
  "director": 6091,
  "welcoming": 6092,
  "attaches": 6093,
  "belongs": 6094,
  "hide": 6095,
  "dam@@": 6096,
  "two-@@": 6097,
  "origin,": 6098,
  "supply.": 6099,
  "tion:": 6100,
  "tape": 6101,
  "convincing": 6102,
  "mentioning": 6103,
  "142": 6104,
  "shoulder": 6105,
  "philosophy": 6106,
  "pipeline": 6107,
  "48": 6108,
  "et": 6109,
  "status.": 6110,
  "600": 6111,
  "thrown": 6112,
  "defended": 6113,
  "air@@": 6114,
  "views.": 6115,
  "modes": 6116,
  "mercury": 6117,
  "privatisation": 6118,
  "certainly,": 6119,
  "conditional": 6120,
  "still,": 6121,
  "advocated": 6122,
  "formulate": 6123,
  "subsidy": 6124,
  "gn@@": 6125,
  "adjustments": 6126,
  "consolidated": 6127,
  "tion?": 6128,
  "fault": 6129,
  "targets.": 6130,
  "/2000": 6131,
  "accountable": 6132,
  "disproportionate": 6133,
  "licence": 6134,
  "sch@@": 6135,
  "incapable": 6136,
  "precedent": 6137,
  "revise": 6138,
  "union?": 6139,
  "replacing": 6140,
  "voices": 6141,
  "chose": 6142,
  "language.": 6143,
  "difficulties,": 6144,
  "institution.": 6145,
  "repeat,": 6146,
  "harmonization": 6147,
  "january,": 6148,
  "terror": 6149,
  "purchase": 6150,
  "disappointment": 6151,
  "profitable": 6152,
  "long.": 6153,
  "states?": 6154,
  "199@@": 6155,
  "low-@@": 6156,
  "textiles": 6157,
  "established.": 6158,
  "intelligence": 6159,
  "underlined": 6160,
  "movement,": 6161,
  "doing.": 6162,
  "wto,": 6163,
  "well-known": 6164,
  "c.": 6165,
  "public@@": 6166,
  "counter@@": 6167,
  "tolerate": 6168,
  "reactions": 6169,
  "nothing.": 6170,
  "challenges,": 6171,
  "secretariat": 6172,
  "1996,": 6173,
  "round.": 6174,
  "illegally": 6175,
  "delayed": 6176,
  "jeopardise": 6177,
  "disregard": 6178,
  "ance,": 6179,
  "worse.": 6180,
  "ness,": 6181,
  "san": 6182,
  "owners": 6183,
  "usa,": 6184,
  "european,": 6185,
  "methods.": 6186,
  "ct@@": 6187,
  "race": 6188,
  "ashton,": 6189,
  "owing": 6190,
  "isation": 6191,
  "alter": 6192,
  "punishment": 6193,
  "definitions": 6194,
  "throw": 6195,
  "a?": 6196,
  "coalition": 6197,
  "donors": 6198,
  "drastic": 6199,
  "less,": 6200,
  "see@@": 6201,
  "girls": 6202,
  "ep": 6203,
  "answer,": 6204,
  "reception": 6205,
  "refugees,": 6206,
  "abstain": 6207,
  "addressed.": 6208,
  "restoring": 6209,
  "cease": 6210,
  "belgium,": 6211,
  "accompanying": 6212,
  "fishing.": 6213,
  "ks.": 6214,
  "problematic": 6215,
  "ministers.": 6216,
  "momentum": 6217,
  "risk,": 6218,
  "chancellor": 6219,
  "redundant": 6220,
  "thrust": 6221,
  "homes": 6222,
  "withdrawn": 6223,
  "real@@": 6224,
  "instability": 6225,
  "laeken": 6226,
  "goal.": 6227,
  "victims,": 6228,
  "earlier.": 6229,
  "justified.": 6230,
  "civilians": 6231,
  "complementary": 6232,
  "product.": 6233,
  "intense": 6234,
  "successive": 6235,
  "severely": 6236,
  "buying": 6237,
  "eec": 6238,
  "micro@@": 6239,
  "bri@@": 6240,
  "read@@": 6241,
  "ia,": 6242,
  "diseases.": 6243,
  "transparent,": 6244,
  "devastating": 6245,
  "underlines": 6246,
  "strong,": 6247,
  "created.": 6248,
  "supplied": 6249,
  "applaud": 6250,
  "substances.": 6251,
  "court,": 6252,
  "wish,": 6253,
  "confronted": 6254,
  "ble,": 6255,
  "sal@@": 6256,
  "fran@@": 6257,
  "pay@@": 6258,
  "informing": 6259,
  "doors": 6260,
  "disasters.": 6261,
  "wor@@": 6262,
  "mas@@": 6263,
  "lacks": 6264,
  "ye@@": 6265,
  "rac@@": 6266,
  "ukrainian": 6267,
  "drew": 6268,
  "clarified": 6269,
  "stood": 6270,
  "preferential": 6271,
  "lives,": 6272,
  "brok": 6273,
  "ce:": 6274,
  "biotechnology": 6275,
  "rule,": 6276,
  "miss": 6277,
  "costly": 6278,
  "report's": 6279,
  "one-@@": 6280,
  "life@@": 6281,
  "idea,": 6282,
  "ic,": 6283,
  "ef@@": 6284,
  "uk,": 6285,
  "contribution.": 6286,
  "1997.": 6287,
  "roots": 6288,
  "globalised": 6289,
  "incompatible": 6290,
  "sakharov": 6291,
  "amsterdam,": 6292,
  "35@@": 6293,
  "rescue": 6294,
  "deplore": 6295,
  "that?": 6296,
  "dimension,": 6297,
  "gaps": 6298,
  "prompt": 6299,
  "micro-@@": 6300,
  "july,": 6301,
  "coast": 6302,
  "linking": 6303,
  "enforced": 6304,
  "remit": 6305,
  "hague": 6306,
  "shar@@": 6307,
  "multi@@": 6308,
  "assisting": 6309,
  "could,": 6310,
  "introduces": 6311,
  "ot@@": 6312,
  "ver,": 6313,
  "attention,": 6314,
  "discovered": 6315,
  "precondition": 6316,
  "milosevic": 6317,
  "guided": 6318,
  "iz@@": 6319,
  "parliamentarians": 6320,
  "face.": 6321,
  "industrialised": 6322,
  "psychological": 6323,
  "alising": 6324,
  "contamination": 6325,
  "pen@@": 6326,
  "tonight": 6327,
  "left,": 6328,
  "abandoned": 6329,
  "cyprus.": 6330,
  "os@@": 6331,
  "meaningful": 6332,
  "commitment.": 6333,
  "frankly,": 6334,
  "offences": 6335,
  "network.": 6336,
  "ob@@": 6337,
  "eco-@@": 6338,
  "sources,": 6339,
  "supplement": 6340,
  "prevents": 6341,
  "drugs.": 6342,
  "cross-@@": 6343,
  "highlighting": 6344,
  "deepening": 6345,
  "mine": 6346,
  "witnessing": 6347,
  "protectionism": 6348,
  "stake.": 6349,
  "responsible,": 6350,
  "/0@@": 6351,
  "egf": 6352,
  "solutions,": 6353,
  "26@@": 6354,
  "2013.": 6355,
  "dy": 6356,
  "32": 6357,
  "councils": 6358,
  "a;": 6359,
  "reduced.": 6360,
  "merits": 6361,
  "dominated": 6362,
  "forcing": 6363,
  "list.": 6364,
  "effort.": 6365,
  "infringements": 6366,
  "disease,": 6367,
  "refrain": 6368,
  "awarded": 6369,
  "request.": 6370,
  "wars": 6371,
  "denmark,": 6372,
  "ship@@": 6373,
  "circulation": 6374,
  "sensitivity": 6375,
  "tion;": 6376,
  "tomorrow's": 6377,
  "alise": 6378,
  "verification": 6379,
  "inspired": 6380,
  "see.": 6381,
  "waste,": 6382,
  "strengthens": 6383,
  "licences": 6384,
  "pesticides": 6385,
  "attempted": 6386,
  "sen": 6387,
  "apologise": 6388,
  "understandable": 6389,
  "pa@@": 6390,
  "first.": 6391,
  "ties,": 6392,
  "plenty": 6393,
  "submitting": 6394,
  "independence.": 6395,
  "communities,": 6396,
  "ce?": 6397,
  "page": 6398,
  "idea.": 6399,
  "open,": 6400,
  "disabilities": 6401,
  "film": 6402,
  "changes,": 6403,
  "off.": 6404,
  "ness.": 6405,
  "resolved.": 6406,
  "vigilant": 6407,
  "consumption.": 6408,
  "spain.": 6409,
  "theme": 6410,
  "directives,": 6411,
  "lift": 6412,
  "ism.": 6413,
  "opt": 6414,
  "effects.": 6415,
  "bul@@": 6416,
  "fisheries.": 6417,
  "occupational": 6418,
  "admitted": 6419,
  "stri@@": 6420,
  "newly": 6421,
  "pending": 6422,
  "preferences": 6423,
  "indirectly": 6424,
  "deb@@": 6425,
  "assumed": 6426,
  "exercising": 6427,
  "cra@@": 6428,
  "proactive": 6429,
  "welcomed.": 6430,
  "tensions": 6431,
  "cheaper": 6432,
  "beings.": 6433,
  "anybody": 6434,
  "11,": 6435,
  "diversity.": 6436,
  "yesterday.": 6437,
  "distortion": 6438,
  "kong": 6439,
  "confront": 6440,
  "der.": 6441,
  "states’": 6442,
  "high.": 6443,
  "settle": 6444,
  "democratic,": 6445,
  "employ": 6446,
  "ls": 6447,
  "agree.": 6448,
  "family,": 6449,
  "bus": 6450,
  "fa@@": 6451,
  "legisl@@": 6452,
  "plenary.": 6453,
  "participated": 6454,
  "transportation": 6455,
  "asia,": 6456,
  "everything,": 6457,
  "doctors": 6458,
  "disadvantage": 6459,
  "warn": 6460,
  "peripheral": 6461,
  "derogations": 6462,
  "staff.": 6463,
  "votes.": 6464,
  "seriously,": 6465,
  "workforce": 6466,
  "formula": 6467,
  "tin@@": 6468,
  "entail": 6469,
  "2013": 6470,
  "supreme": 6471,
  "emergence": 6472,
  "location": 6473,
  "90%": 6474,
  "budge@@": 6475,
  "tension": 6476,
  "hitherto": 6477,
  "xenophobia": 6478,
  "newspaper": 6479,
  "oper@@": 6480,
  "clothing": 6481,
  "sure,": 6482,
  "bulgarian": 6483,
  "149": 6484,
  "attract": 6485,
  "lived": 6486,
  "foods": 6487,
  "alisation": 6488,
  "cells": 6489,
  "recognized": 6490,
  "small-scale": 6491,
  "diseases,": 6492,
  "delivering": 6493,
  "ance.": 6494,
  "unite": 6495,
  "é": 6496,
  "vehicles.": 6497,
  "exporting": 6498,
  "flag": 6499,
  "resumption": 6500,
  "start,": 6501,
  "youth,": 6502,
  "forces,": 6503,
  "part-session.": 6504,
  "1996.": 6505,
  "ages.": 6506,
  "ear@@": 6507,
  "sitting:": 6508,
  "tax.": 6509,
  "cfsp": 6510,
  "treating": 6511,
  "ton@@": 6512,
  "entrepreneurs": 6513,
  "charged": 6514,
  "prejudice": 6515,
  "academic": 6516,
  "ever,": 6517,
  "phare": 6518,
  "schulz": 6519,
  "eve": 6520,
  "draws": 6521,
  "st.": 6522,
  "h.": 6523,
  "swiftly": 6524,
  "financially": 6525,
  "survive": 6526,
  "exposure": 6527,
  "dignity.": 6528,
  "exceptionally": 6529,
  "fischler": 6530,
  "waiver": 6531,
  "entails": 6532,
  "insisted": 6533,
  "genocide": 6534,
  "presidencies": 6535,
  "ben@@": 6536,
  "camps": 6537,
  "chief": 6538,
  "speedy": 6539,
  "long,": 6540,
  "cypriot": 6541,
  "reconsider": 6542,
  "interpret": 6543,
  "tone": 6544,
  "12,": 6545,
  "latvia": 6546,
  "help,": 6547,
  "1992": 6548,
  "stipulates": 6549,
  "intolerable": 6550,
  "distributed.": 6551,
  "appoint": 6552,
  "inability": 6553,
  "discriminatory": 6554,
  "solana": 6555,
  "postponed": 6556,
  "furthermore": 6557,
  "worthwhile": 6558,
  "long-@@": 6559,
  "partially": 6560,
  "operates": 6561,
  "urgency.": 6562,
  "paris": 6563,
  "narrow": 6564,
  "sporting": 6565,
  "developed.": 6566,
  "hoc": 6567,
  "incomes": 6568,
  "protests": 6569,
  "achieve.": 6570,
  "advise": 6571,
  "reviewed": 6572,
  "chances": 6573,
  "structures.": 6574,
  "ways,": 6575,
  "foot": 6576,
  "debates.": 6577,
  "smooth": 6578,
  "objection": 6579,
  "migratory": 6580,
  "off@@": 6581,
  "y’s": 6582,
  "equitable": 6583,
  "welcome,": 6584,
  "taiwan": 6585,
  "seriousness": 6586,
  "complying": 6587,
  "opponents": 6588,
  "inevitable": 6589,
  "abide": 6590,
  "capacity,": 6591,
  "kingdom.": 6592,
  "marking": 6593,
  "deeper": 6594,
  "ator": 6595,
  "asia.": 6596,
  "aged": 6597,
  "protected.": 6598,
  "slovenian": 6599,
  "commitment,": 6600,
  "ease": 6601,
  "confined": 6602,
  "sion,": 6603,
  "earthquake": 6604,
  "transposed": 6605,
  "reinforcing": 6606,
  "april,": 6607,
  "meps,": 6608,
  "tacis": 6609,
  "ors,": 6610,
  "exemptions": 6611,
  "water@@": 6612,
  "2007-2013": 6613,
  "totalitarian": 6614,
  "dismantling": 6615,
  "identical": 6616,
  "outcome.": 6617,
  "treatment,": 6618,
  "as.": 6619,
  "fell": 6620,
  "benefits.": 6621,
  "some@@": 6622,
  "break@@": 6623,
  "motion.": 6624,
  "inherent": 6625,
  "assembly,": 6626,
  "missed": 6627,
  "crimin@@": 6628,
  "occasions.": 6629,
  "confine": 6630,
  "insofar": 6631,
  "quantitative": 6632,
  "conscience": 6633,
  "mandate.": 6634,
  "land@@": 6635,
  "contractual": 6636,
  "cloning": 6637,
  "democracies": 6638,
  "capacities": 6639,
  "threat.": 6640,
  "striking": 6641,
  "requesting": 6642,
  "diversification": 6643,
  "generally,": 6644,
  "freedoms,": 6645,
  "e'": 6646,
  "operation.": 6647,
  "scarcely": 6648,
  "l.": 6649,
  "committees.": 6650,
  "feelings": 6651,
  "earth": 6652,
  "trouble": 6653,
  "imbalances": 6654,
  "isolation": 6655,
  "250": 6656,
  "committees,": 6657,
  "2012": 6658,
  "balance,": 6659,
  "ch,": 6660,
  "software": 6661,
  "residents": 6662,
  "non-proliferation": 6663,
  "pr@@": 6664,
  "tibet": 6665,
  "autumn": 6666,
  "gaining": 6667,
  "recommends": 6668,
  "surprising": 6669,
  "breast": 6670,
  "facts.": 6671,
  "industries.": 6672,
  "ilo": 6673,
  "maintains": 6674,
  "conscious": 6675,
  "classification": 6676,
  "ans.": 6677,
  "cornerstone": 6678,
  "labour,": 6679,
  "sti@@": 6680,
  "75": 6681,
  "fleets": 6682,
  "components": 6683,
  "increase.": 6684,
  "tries": 6685,
  "demonstrations": 6686,
  "manufacture": 6687,
  "tax,": 6688,
  "deregulation": 6689,
  "goals,": 6690,
  "ged": 6691,
  "ge,": 6692,
  "ge.": 6693,
  "attitudes": 6694,
  "retail": 6695,
  "speak.": 6696,
  "kin@@": 6697,
  "extent.": 6698,
  "/99": 6699,
  "constituents": 6700,
  "benefiting": 6701,
  "all-@@": 6702,
  "atten@@": 6703,
  "assembly.": 6704,
  "inter-@@": 6705,
  "disaster,": 6706,
  "assumption": 6707,
  "measure,": 6708,
  "interest@@": 6709,
  "led,": 6710,
  "decentralised": 6711,
  "sky": 6712,
  "ity?": 6713,
  "controls.": 6714,
  "incomprehensible": 6715,
  "consumers'": 6716,
  "ists,": 6717,
  "penalty.": 6718,
  "suspect": 6719,
  "person@@": 6720,
  "relevance": 6721,
  "erika": 6722,
  "optimistic": 6723,
  "subsidies,": 6724,
  "motivated": 6725,
  "ide@@": 6726,
  "abolishing": 6727,
  "viability": 6728,
  "spreading": 6729,
  "visits": 6730,
  "fill": 6731,
  "pos@@": 6732,
  "rates.": 6733,
  "mobility.": 6734,
  "peoples.": 6735,
  "34": 6736,
  "ce;": 6737,
  "reason.": 6738,
  "negoti@@": 6739,
  "pure": 6740,
  "authors": 6741,
  "letters": 6742,
  "response,": 6743,
  "teachers": 6744,
  "day@@": 6745,
  "capitalist": 6746,
  "reasonably": 6747,
  "interoperability": 6748,
  "supporters": 6749,
  "poland.": 6750,
  "crucial.": 6751,
  "survey": 6752,
  "understands": 6753,
  "resort": 6754,
  "professionals": 6755,
  "plan@@": 6756,
  "mediterranean,": 6757,
  "accusations": 6758,
  "duly": 6759,
  "extradition": 6760,
  "south-east": 6761,
  "ant,": 6762,
  "cost.": 6763,
  "monopolies": 6764,
  "emphasising": 6765,
  "austerity": 6766,
  "late.": 6767,
  "vary": 6768,
  "re": 6769,
  "disasters,": 6770,
  "venture": 6771,
  "arisen": 6772,
  "az@@": 6773,
  "mechanism.": 6774,
  "guaranteed.": 6775,
  "undermines": 6776,
  "madrid": 6777,
  "37": 6778,
  "econom@@": 6779,
  "feasible": 6780,
  "documents,": 6781,
  "barely": 6782,
  "business@@": 6783,
  "time@@": 6784,
  "politics,": 6785,
  "practices,": 6786,
  "exclusion.": 6787,
  "anticipate": 6788,
  "assent": 6789,
  "proliferation": 6790,
  "envisage": 6791,
  "sou@@": 6792,
  "multiple": 6793,
  "tells": 6794,
  "units": 6795,
  "seats": 6796,
  "protectionist": 6797,
  "resume": 6798,
  "successes": 6799,
  "hence,": 6800,
  "career": 6801,
  "expects": 6802,
  "advis@@": 6803,
  "assessment,": 6804,
  "sanctions,": 6805,
  "books": 6806,
  "spare": 6807,
  "them?": 6808,
  "strongest": 6809,
  "rhetoric": 6810,
  "worker": 6811,
  "assessment.": 6812,
  "measured": 6813,
  "happens,": 6814,
  "institution,": 6815,
  "4.@@": 6816,
  "und@@": 6817,
  "squ@@": 6818,
  "overcoming": 6819,
  "contradictory": 6820,
  "replacement": 6821,
  "drugs,": 6822,
  "striving": 6823,
  "pushed": 6824,
  "discussed.": 6825,
  "end@@": 6826,
  "prohibition": 6827,
  "state@@": 6828,
  "sadly": 6829,
  "contributions.": 6830,
  "?@@": 6831,
  "dic@@": 6832,
  "fairer": 6833,
  "counting": 6834,
  "family.": 6835,
  "other@@": 6836,
  "workable": 6837,
  "chi@@": 6838,
  "secondly": 6839,
  "prosecution": 6840,
  "effectively,": 6841,
  "streets": 6842,
  "dr": 6843,
  "neighbours.": 6844,
  "japanese": 6845,
  "alism": 6846,
  "economies,": 6847,
  "promising": 6848,
  "ak": 6849,
  "traceability": 6850,
  "liberalization": 6851,
  "imf": 6852,
  "network,": 6853,
  "dominant": 6854,
  "barón": 6855,
  "phrase": 6856,
  "ngos,": 6857,
  "positive,": 6858,
  "cur@@": 6859,
  "tibetan": 6860,
  "gases": 6861,
  "e;": 6862,
  "administrations": 6863,
  "coun@@": 6864,
  "ves.": 6865,
  "wrote": 6866,
  "journey": 6867,
  "bil@@": 6868,
  "languages,": 6869,
  "g8": 6870,
  "europe-wide": 6871,
  "blair": 6872,
  "mainstreaming": 6873,
  "ideas.": 6874,
  "affected,": 6875,
  "yet.": 6876,
  "collected": 6877,
  "reform@@": 6878,
  "everywhere": 6879,
  "algeria": 6880,
  "excess": 6881,
  "uncertain": 6882,
  "specialist": 6883,
  "f,": 6884,
  "qualitative": 6885,
  "plans,": 6886,
  "payments.": 6887,
  "certification": 6888,
  "ter.": 6889,
  "affordable": 6890,
  "margin@@": 6891,
  "secured": 6892,
  "staff,": 6893,
  "ting.": 6894,
  "abroad": 6895,
  "decrease": 6896,
  "heard,": 6897,
  "mid@@": 6898,
  "know.": 6899,
  "impact.": 6900,
  "repressive": 6901,
  "disagreement": 6902,
  "earn": 6903,
  "processed": 6904,
  "pac@@": 6905,
  "in-@@": 6906,
  "past@@": 6907,
  "transparent.": 6908,
  "reputation": 6909,
  "ill@@": 6910,
  "tar@@": 6911,
  "ous@@": 6912,
  "sentenced": 6913,
  "sl@@": 6914,
  "od@@": 6915,
  "cofinancing": 6916,
  "customers": 6917,
  "laws,": 6918,
  "lomé": 6919,
  "figures,": 6920,
  "claiming": 6921,
  "movement.": 6922,
  "pu@@": 6923,
  "judges": 6924,
  "content,": 6925,
  "laws.": 6926,
  "stepping": 6927,
  "found.": 6928,
  "zone.": 6929,
  "utterly": 6930,
  "organ": 6931,
  "contents": 6932,
  "sive,": 6933,
  "pensioners": 6934,
  "ill": 6935,
  "permits": 6936,
  "conversion": 6937,
  "corruption,": 6938,
  "seas": 6939,
  "pull": 6940,
  "multinationals": 6941,
  "robust": 6942,
  "saying,": 6943,
  "navigation": 6944,
  "job,": 6945,
  "abortion": 6946,
  "appropriately": 6947,
  "unacceptable,": 6948,
  "scandal": 6949,
  "play.": 6950,
  "hypocrisy": 6951,
  "processes.": 6952,
  "christmas": 6953,
  "appe@@": 6954,
  "rehabilitation": 6955,
  "ters.": 6956,
  "consulting": 6957,
  "slowly": 6958,
  "february,": 6959,
  "coordination,": 6960,
  "confederal": 6961,
  "log@@": 6962,
  "dri@@": 6963,
  "ration@@": 6964,
  "demand.": 6965,
  "bolkestein": 6966,
  "prosperous": 6967,
  "societies.": 6968,
  "efficient,": 6969,
  "award": 6970,
  "correctly,": 6971,
  "worry": 6972,
  "protein": 6973,
  "progres@@": 6974,
  "taxation.": 6975,
  "1995,": 6976,
  "195@@": 6977,
  "inspectors": 6978,
  "tv": 6979,
  "80@@": 6980,
  "strengthened.": 6981,
  "tre@@": 6982,
  "imperialist": 6983,
  "scottish": 6984,
  "standardisation": 6985,
  "permanently": 6986,
  "correct.": 6987,
  "congo": 6988,
  "racist": 6989,
  "prestige": 6990,
  "carriers": 6991,
  "accession,": 6992,
  "burmese": 6993,
  "ors.": 6994,
  "100%": 6995,
  "caution": 6996,
  "competence.": 6997,
  "same,": 6998,
  "restoration": 6999,
  "abolished": 7000,
  "cautious": 7001,
  "imbalance": 7002,
  "mines": 7003,
  "press,": 7004,
  "stock@@": 7005,
  "uni@@": 7006,
  "sport,": 7007,
  "redundancies": 7008,
  "trafficking.": 7009,
  "expanding": 7010,
  "situations,": 7011,
  "serving": 7012,
  "pur@@": 7013,
  "electrical": 7014,
  "s',": 7015,
  "ali@@": 7016,
  "pluralism": 7017,
  "description": 7018,
  "professor": 7019,
  "slaughter": 7020,
  "bulgaria,": 7021,
  "al'": 7022,
  "occasion,": 7023,
  "collect": 7024,
  "experience.": 7025,
  "adjust": 7026,
  "subsidies.": 7027,
  "turns": 7028,
  "incredibly": 7029,
  "ging": 7030,
  "pollution,": 7031,
  "ages": 7032,
  "36@@": 7033,
  "failure.": 7034,
  "ch.": 7035,
  "competitive.": 7036,
  "ia.": 7037,
  "modernise": 7038,
  "transformation": 7039,
  "reply,": 7040,
  "operations.": 7041,
  "exempt": 7042,
  "high@@": 7043,
  "needless": 7044,
  "referendum.": 7045,
  "ity:": 7046,
  "then.": 7047,
  "effort,": 7048,
  "stocks.": 7049,
  "suspected": 7050,
  "decides": 7051,
  "price.": 7052,
  "supply,": 7053,
  "er-@@": 7054,
  "shaping": 7055,
  "taught": 7056,
  "colleagues.": 7057,
  "timor": 7058,
  "ingredients": 7059,
  "decommissioning": 7060,
  "gains": 7061,
  "signature": 7062,
  "transferring": 7063,
  "jacques": 7064,
  "purchasing": 7065,
  "ast@@": 7066,
  "shed": 7067,
  "recruitment": 7068,
  "taliban": 7069,
  "suggesting": 7070,
  "1990": 7071,
  "thematic": 7072,
  "explo@@": 7073,
  "sitting.": 7074,
  "bor@@": 7075,
  "agents": 7076,
  "guardian": 7077,
  "wild": 7078,
  "papers": 7079,
  "minutes,": 7080,
  "veto": 7081,
  "man.": 7082,
  "judgments": 7083,
  "officers": 7084,
  "speakers,": 7085,
  "tt@@": 7086,
  "ignoring": 7087,
  "plain": 7088,
  "depth": 7089,
  "fishing,": 7090,
  "overview": 7091,
  "teaching": 7092,
  "vigorously": 7093,
  "payments,": 7094,
  "duty-free": 7095,
  "sl": 7096,
  "simpler": 7097,
  "citizens’": 7098,
  "estonia": 7099,
  "ches": 7100,
  "troika": 7101,
  "known,": 7102,
  "38@@": 7103,
  "request,": 7104,
  "colonial": 7105,
  "sentences": 7106,
  "concerted": 7107,
  "derived": 7108,
  "'european": 7109,
  "unlikely": 7110,
  "korean": 7111,
  "ly-@@": 7112,
  "expectations.": 7113,
  "politicians,": 7114,
  "ber": 7115,
  "flying": 7116,
  "provisional": 7117,
  "accordingly": 7118,
  "eligibility": 7119,
  "table,": 7120,
  "rou@@": 7121,
  "splendid": 7122,
  "assurances": 7123,
  "part@@": 7124,
  "realities": 7125,
  "facto": 7126,
  "commitments,": 7127,
  "ground,": 7128,
  "deliberate": 7129,
  "700": 7130,
  "slovakia,": 7131,
  "precedence": 7132,
  "murdered": 7133,
  "daphne": 7134,
  "7.@@": 7135,
  "competing": 7136,
  "bananas": 7137,
  "55": 7138,
  "houses": 7139,
  "vis-à-vis": 7140,
  "un,": 7141,
  "responsibilities,": 7142,
  "increased.": 7143,
  "sheep": 7144,
  "footing": 7145,
  "formation": 7146,
  "tes.": 7147,
  "centr@@": 7148,
  "experts,": 7149,
  "site": 7150,
  "announce": 7151,
  "stra@@": 7152,
  "intensify": 7153,
  "iron": 7154,
  "aggressive": 7155,
  "love": 7156,
  "screening": 7157,
  "day-to-day": 7158,
  "readiness": 7159,
  "ombudsman's": 7160,
  "generations.": 7161,
  "on:": 7162,
  "animals,": 7163,
  "ics": 7164,
  "eleven": 7165,
  "inde@@": 7166,
  "ges": 7167,
  "by,": 7168,
  "risen": 7169,
  "correspond": 7170,
  "provisions,": 7171,
  "especially,": 7172,
  "applied,": 7173,
  "detail,": 7174,
  "ence": 7175,
  "structure,": 7176,
  "suppliers": 7177,
  "knows,": 7178,
  "ders.": 7179,
  "stimulating": 7180,
  "finished": 7181,
  "worse,": 7182,
  "mix": 7183,
  "purpose,": 7184,
  "decade": 7185,
  "happening.": 7186,
  "small,": 7187,
  "church": 7188,
  "duration": 7189,
  "immigrants,": 7190,
  "kind,": 7191,
  "rest,": 7192,
  "chernobyl": 7193,
  "occupying": 7194,
  "liberty": 7195,
  "tabled.": 7196,
  "196@@": 7197,
  "flexibility,": 7198,
  "whether,": 7199,
  "ris@@": 7200,
  "lithuania,": 7201,
  "ful,": 7202,
  "persons,": 7203,
  "distinguished": 7204,
  "afternoon.": 7205,
  "specify": 7206,
  "positions.": 7207,
  "prosperity.": 7208,
  "devise": 7209,
  "completing": 7210,
  "exercised": 7211,
  "ki@@": 7212,
  "profile": 7213,
  "counterfeiting": 7214,
  "sing@@": 7215,
  "depend@@": 7216,
  "tab@@": 7217,
  "sions": 7218,
  "bol@@": 7219,
  "emphatically": 7220,
  "opposition,": 7221,
  "cop@@": 7222,
  "geopolitical": 7223,
  "symbol@@": 7224,
  "coordination.": 7225,
  "recover": 7226,
  "exemplary": 7227,
  "salaries": 7228,
  "summary": 7229,
  "gre@@": 7230,
  "afternoon,": 7231,
  "romania.": 7232,
  "proving": 7233,
  "av@@": 7234,
  "run-up": 7235,
  "anticipated": 7236,
  "eradicate": 7237,
  "servic@@": 7238,
  "co": 7239,
  "portugal.": 7240,
  "chapters": 7241,
  "aspect,": 7242,
  "tune": 7243,
  "harsh": 7244,
  "york": 7245,
  "explaining": 7246,
  "discussions.": 7247,
  "fic@@": 7248,
  "memory": 7249,
  "coins": 7250,
  "structure.": 7251,
  "reunification": 7252,
  "next,": 7253,
  "incorporating": 7254,
  "thirty": 7255,
  "deliberations": 7256,
  "weapons.": 7257,
  "33": 7258,
  "co-operation": 7259,
  "discussions,": 7260,
  "system@@": 7261,
  "paramount": 7262,
  "obligatory": 7263,
  "alleviate": 7264,
  "ys": 7265,
  "banks,": 7266,
  "erasmus": 7267,
  "families,": 7268,
  "consolidating": 7269,
  "eradication": 7270,
  "seize": 7271,
  "tight": 7272,
  "eldr": 7273,
  "and/or": 7274,
  "introduced.": 7275,
  "urging": 7276,
  "protocol,": 7277,
  "established,": 7278,
  "disability": 7279,
  "admittedly,": 7280,
  "ators,": 7281,
  "propaganda": 7282,
  "dependency": 7283,
  "ice": 7284,
  "differently": 7285,
  "making.": 7286,
  "hours,": 7287,
  "blow": 7288,
  "besides": 7289,
  "120": 7290,
  "precarious": 7291,
  "corrections": 7292,
  "acknowledges": 7293,
  "either,": 7294,
  "nigeria": 7295,
  "energies": 7296,
  "mechanism,": 7297,
  "assuming": 7298,
  "cash": 7299,
  "ini": 7300,
  "department": 7301,
  "privilege": 7302,
  "conferences": 7303,
  "dar@@": 7304,
  "sport.": 7305,
  "ding,": 7306,
  "fortunately": 7307,
  "reached.": 7308,
  "gambling": 7309,
  "outbreak": 7310,
  "closely.": 7311,
  "pretty": 7312,
  "pressure.": 7313,
  "electorate": 7314,
  "ck@@": 7315,
  "virtue": 7316,
  "è@@": 7317,
  "denying": 7318,
  "alert": 7319,
  "settled": 7320,
  "advocating": 7321,
  "benefited": 7322,
  "stepped": 7323,
  "\".": 7324,
  "mad": 7325,
  "f.": 7326,
  "directorate-general": 7327,
  "remarks.": 7328,
  "green@@": 7329,
  "judiciary": 7330,
  "trained": 7331,
  "way@@": 7332,
  "13,": 7333,
  "diversity,": 7334,
  "ideas,": 7335,
  "mercosur": 7336,
  "indic@@": 7337,
  "discover": 7338,
  "upper": 7339,
  "tariffs": 7340,
  "vehicles,": 7341,
  "censure": 7342,
  "ently": 7343,
  "zones": 7344,
  "properly,": 7345,
  "challenging": 7346,
  "anxious": 7347,
  "allowances": 7348,
  "come,": 7349,
  "controls,": 7350,
  "hidden": 7351,
  "translate": 7352,
  "ite": 7353,
  "product,": 7354,
  "cultivation": 7355,
  "th,": 7356,
  "panel": 7357,
  "rule.": 7358,
  "b,": 7359,
  "oriented": 7360,
  "repeating": 7361,
  "any@@": 7362,
  "fur@@": 7363,
  "analysing": 7364,
  "europe@@": 7365,
  "perceived": 7366,
  "sustain": 7367,
  "chairman,": 7368,
  "taxation,": 7369,
  "comments,": 7370,
  "36": 7371,
  "dying": 7372,
  "free,": 7373,
  "reformed": 7374,
  "di": 7375,
  "countless": 7376,
  "frattini": 7377,
  "purposes,": 7378,
  "reserved": 7379,
  "poorly": 7380,
  "courses": 7381,
  "strasbourg,": 7382,
  "zed": 7383,
  "contribution,": 7384,
  "institution@@": 7385,
  "ity;": 7386,
  "likewise": 7387,
  "elsewhere,": 7388,
  "perpetrators": 7389,
  "credibility.": 7390,
  "referendums": 7391,
  "minimal": 7392,
  "asset": 7393,
  "not?": 7394,
  "corruption.": 7395,
  "ish@@": 7396,
  "unsatisfactory": 7397,
  "structures,": 7398,
  "adds": 7399,
  "eurozone": 7400,
  "consequences,": 7401,
  "flood": 7402,
  "pillar.": 7403,
  "roles": 7404,
  "station": 7405,
  "scale,": 7406,
  "session.": 7407,
  "43": 7408,
  "instances": 7409,
  "frontier": 7410,
  "potential.": 7411,
  "enormously": 7412,
  "worldwide.": 7413,
  "well-being": 7414,
  "activists": 7415,
  "vari@@": 7416,
  "art": 7417,
  "deficiencies": 7418,
  "crossing": 7419,
  "forming": 7420,
  "records": 7421,
  "11.@@": 7422,
  "bold": 7423,
  "mobility,": 7424,
  "urgency,": 7425,
  "acts.": 7426,
  "ed?": 7427,
  "humane": 7428,
  "reduces": 7429,
  "new@@": 7430,
  "improves": 7431,
  "employees.": 7432,
  "conver@@": 7433,
  "hearings": 7434,
  "intervention.": 7435,
  "working.": 7436,
  "evolution": 7437,
  "transported": 7438,
  "prevention.": 7439,
  "comparative": 7440,
  "carefully.": 7441,
  "limitations": 7442,
  "sorts": 7443,
  "somebody": 7444,
  "monti": 7445,
  "camp": 7446,
  "ze@@": 7447,
  "passive": 7448,
  "vaccination": 7449,
  "relocation": 7450,
  "scandalous": 7451,
  "st,": 7452,
  "transaction": 7453,
  "hope.": 7454,
  "tribunal": 7455,
  "recommendations.": 7456,
  "origin@@": 7457,
  "excluding": 7458,
  "accepted,": 7459,
  "mad@@": 7460,
  "15,": 7461,
  "predic@@": 7462,
  "damage.": 7463,
  "/2006": 7464,
  "like.": 7465,
  "a:": 7466,
  "board,": 7467,
  "selected": 7468,
  "demands.": 7469,
  "display": 7470,
  "forefront": 7471,
  "countries?": 7472,
  "sw@@": 7473,
  "measuring": 7474,
  "weapon": 7475,
  "resist": 7476,
  "power@@": 7477,
  "weaker": 7478,
  "800": 7479,
  "1993": 7480,
  "deployed": 7481,
  "committing": 7482,
  "fed": 7483,
  "reiterated": 7484,
  "league": 7485,
  "mid-@@": 7486,
  "deployment": 7487,
  "pacific": 7488,
  "continent,": 7489,
  "warming": 7490,
  "roll-call": 7491,
  "low@@": 7492,
  "opted": 7493,
  "smart": 7494,
  "kill": 7495,
  "ary.": 7496,
  "ize": 7497,
  "repair": 7498,
  "non@@": 7499,
  "april.": 7500,
  "independence,": 7501,
  "carries": 7502,
  "wa@@": 7503,
  "frontiers": 7504,
  "internally": 7505,
  "34@@": 7506,
  "generating": 7507,
  "ministry": 7508,
  "petition": 7509,
  "prominent": 7510,
  "weakness": 7511,
  "incredible": 7512,
  "securities": 7513,
  "rejects": 7514,
  "fund@@": 7515,
  "obje@@": 7516,
  "pride": 7517,
  "advised": 7518,
  "colle@@": 7519,
  "challenge,": 7520,
  "substance.": 7521,
  "consensus.": 7522,
  "lagging": 7523,
  "october.": 7524,
  "trafficking,": 7525,
  "watching": 7526,
  "open.": 7527,
  "acute": 7528,
  "indicating": 7529,
  "home,": 7530,
  "environment@@": 7531,
  "violated": 7532,
  "2012.": 7533,
  "member.": 7534,
  "waters.": 7535,
  "substitute": 7536,
  "somewhere": 7537,
  "citizen.": 7538,
  "approved.": 7539,
  "gothenburg": 7540,
  "supported.": 7541,
  "socrates": 7542,
  "ct": 7543,
  "creation.": 7544,
  "sufficient.": 7545,
  "orientation": 7546,
  "included.": 7547,
  "japan,": 7548,
  "did,": 7549,
  "regrettably,": 7550,
  "imposition": 7551,
  "goodwill": 7552,
  "govern": 7553,
  "v,": 7554,
  "conflicts.": 7555,
  "ke": 7556,
  "medicine": 7557,
  "kar@@": 7558,
  "following:": 7559,
  "prostitution": 7560,
  "engaging": 7561,
  "entities": 7562,
  "wil@@": 7563,
  "vin@@": 7564,
  "authoritarian": 7565,
  "neutral": 7566,
  "solana,": 7567,
  "taxes,": 7568,
  "created,": 7569,
  "suited": 7570,
  "vic@@": 7571,
  "departure": 7572,
  "cri@@": 7573,
  "ess,": 7574,
  "-and-@@": 7575,
  "identity.": 7576,
  "í@@": 7577,
  "ned": 7578,
  "rate.": 7579,
  "rose": 7580,
  "centralised": 7581,
  "dra@@": 7582,
  "my@@": 7583,
  "observer": 7584,
  "approved,": 7585,
  "indonesia": 7586,
  "7%": 7587,
  "considered.": 7588,
  "alism.": 7589,
  "efficient.": 7590,
  "no-one": 7591,
  "enters": 7592,
  "list,": 7593,
  "non-discrimination": 7594,
  "ce'": 7595,
  "prevail": 7596,
  "med": 7597,
  "january.": 7598,
  "benefit.": 7599,
  "wood": 7600,
  "favour,": 7601,
  "targets,": 7602,
  "ku@@": 7603,
  "premature": 7604,
  "c4-0@@": 7605,
  "g,": 7606,
  "saved": 7607,
  "consideration,": 7608,
  "works.": 7609,
  "rates,": 7610,
  "gdp.": 7611,
  "lawyers": 7612,
  "washington": 7613,
  "reflecting": 7614,
  "encountered": 7615,
  "b.": 7616,
  "manoeuvre": 7617,
  "ises": 7618,
  "different,": 7619,
  "gm": 7620,
  "john": 7621,
  "checked": 7622,
  "harder": 7623,
  "pra@@": 7624,
  "blue": 7625,
  "38": 7626,
  "readmission": 7627,
  "divisions": 7628,
  "designated": 7629,
  "resolutions.": 7630,
  "haiti": 7631,
  "unification": 7632,
  "supposedly": 7633,
  "15%": 7634,
  "oil,": 7635,
  "keeps": 7636,
  "caribbean": 7637,
  "ster@@": 7638,
  "georgia,": 7639,
  "july.": 7640,
  "pieces": 7641,
  "illustrates": 7642,
  "newspapers": 7643,
  "mugabe": 7644,
  "asean": 7645,
  "independently": 7646,
  "truth,": 7647,
  "contracting": 7648,
  "allegations": 7649,
  "inadequate.": 7650,
  "notification": 7651,
  "fall@@": 7652,
  "silent": 7653,
  "ish": 7654,
  "gree@@": 7655,
  "income.": 7656,
  "clarifying": 7657,
  "hours.": 7658,
  "stipulated": 7659,
  "territory,": 7660,
  "diplomacy": 7661,
  "radically": 7662,
  "impressive": 7663,
  "tru@@": 7664,
  "cfp": 7665,
  "nation,": 7666,
  "visiting": 7667,
  "sar@@": 7668,
  "bid": 7669,
  "departments": 7670,
  "deputy": 7671,
  "prevailing": 7672,
  "-year": 7673,
  "constitu@@": 7674,
  "persons.": 7675,
  "bureaucracy.": 7676,
  "respected,": 7677,
  "denounce": 7678,
  "disappointing": 7679,
  "ade": 7680,
  "concentrating": 7681,
  "undermined": 7682,
  "ist@@": 7683,
  "forecasts": 7684,
  "protective": 7685,
  "vice-president,": 7686,
  "pain@@": 7687,
  "financing.": 7688,
  "commerce": 7689,
  "ros@@": 7690,
  "calm": 7691,
  "apply.": 7692,
  "hussein": 7693,
  "labour.": 7694,
  "desperate": 7695,
  "retention": 7696,
  "gl@@": 7697,
  "black@@": 7698,
  "vessel": 7699,
  "ological": 7700,
  "refuses": 7701,
  "ously.": 7702,
  "attending": 7703,
  "hopefully,": 7704,
  "extends": 7705,
  "sign@@": 7706,
  "mandate,": 7707,
  "makers": 7708,
  "reviewing": 7709,
  "mothers": 7710,
  "liberalisation,": 7711,
  "offence": 7712,
  "representatives,": 7713,
  "frankly": 7714,
  "shipbuilding": 7715,
  "fun@@": 7716,
  "attain": 7717,
  "voting.": 7718,
  "maintained.": 7719,
  "swiss": 7720,
  "pnr": 7721,
  "crop": 7722,
  "sir": 7723,
  "boo@@": 7724,
  "favoured": 7725,
  "beginning,": 7726,
  "fostering": 7727,
  "protects": 7728,
  "israelis": 7729,
  "ric@@": 7730,
  "reveals": 7731,
  "allies": 7732,
  "organs": 7733,
  "migration,": 7734,
  "id": 7735,
  "len@@": 7736,
  "tasks.": 7737,
  "five-year": 7738,
  "ple@@": 7739,
  "codes": 7740,
  "medicines.": 7741,
  "demand,": 7742,
  "suspicion": 7743,
  "equally,": 7744,
  "lam@@": 7745,
  "um,": 7746,
  "conclusions,": 7747,
  "sm@@": 7748,
  "king.": 7749,
  "additives": 7750,
  "ction.": 7751,
  "medium-term": 7752,
  "stressing": 7753,
  "mag@@": 7754,
  "behave": 7755,
  "44": 7756,
  "5.@@": 7757,
  "cards": 7758,
  "counter-@@": 7759,
  "revising": 7760,
  "set.": 7761,
  "shameful": 7762,
  "review.": 7763,
  "ction,": 7764,
  "tighten": 7765,
  "urges": 7766,
  "med@@": 7767,
  "shel@@": 7768,
  "luxembourg,": 7769,
  "distant": 7770,
  "es’": 7771,
  "struggling": 7772,
  "insecurity": 7773,
  "wal@@": 7774,
  "cooper@@": 7775,
  "scheme.": 7776,
  "stag@@": 7777,
  "explains": 7778,
  "ain@@": 7779,
  "constitution@@": 7780,
  "minors": 7781,
  "ted?": 7782,
  "caucasus": 7783,
  "hun@@": 7784,
  "decades.": 7785,
  "simultaneously": 7786,
  "ously,": 7787,
  "scenario": 7788,
  "ca": 7789,
  "partner.": 7790,
  "pressures": 7791,
  "farmers'": 7792,
  "debates,": 7793,
  "vigorous": 7794,
  "expression,": 7795,
  "chair@@": 7796,
  "rein@@": 7797,
  "hard@@": 7798,
  "plants.": 7799,
  "shut": 7800,
  "techniques": 7801,
  "theory": 7802,
  "ved.": 7803,
  "substances,": 7804,
  "cts": 7805,
  "reminds": 7806,
  "campaign.": 7807,
  "grand": 7808,
  "persistent": 7809,
  "ders,": 7810,
  "ashton": 7811,
  "fat@@": 7812,
  "valu@@": 7813,
  "endeavours": 7814,
  "kinnock": 7815,
  "dubious": 7816,
  "part-time": 7817,
  "reaffirm": 7818,
  "12.@@": 7819,
  "sc@@": 7820,
  "rarely": 7821,
  "overseas": 7822,
  "database": 7823,
  "benefits,": 7824,
  "enti@@": 7825,
  "darfur": 7826,
  "old,": 7827,
  "lobby": 7828,
  "calculated": 7829,
  "amsterdam.": 7830,
  "yield": 7831,
  "algerian": 7832,
  "sme": 7833,
  "modification": 7834,
  "martin": 7835,
  "defines": 7836,
  "readily": 7837,
  "socialists,": 7838,
  "monitoring,": 7839,
  "post@@": 7840,
  "limited.": 7841,
  "polluting": 7842,
  "correct,": 7843,
  "prohibit": 7844,
  "admission": 7845,
  "accelerate": 7846,
  "beings,": 7847,
  "9%": 7848,
  "uranium": 7849,
  "sharp": 7850,
  "ling.": 7851,
  "back,": 7852,
  "studied": 7853,
  "checking": 7854,
  "meetings.": 7855,
  "ash@@": 7856,
  "insisting": 7857,
  "feder@@": 7858,
  "vegetable": 7859,
  "condolences": 7860,
  "delay,": 7861,
  "ridiculous": 7862,
  "indicative": 7863,
  "complain": 7864,
  "improvement.": 7865,
  "tabled,": 7866,
  "developments,": 7867,
  "legislate": 7868,
  "capita": 7869,
  "confused": 7870,
  "'a": 7871,
  "ians": 7872,
  "'we": 7873,
  "classified": 7874,
  "death.": 7875,
  "discharge.": 7876,
  "charging": 7877,
  "affair": 7878,
  "ved": 7879,
  "201@@": 7880,
  "loo@@": 7881,
  "pes": 7882,
  "rest@@": 7883,
  "bs": 7884,
  "materials.": 7885,
  "word.": 7886,
  "migrant": 7887,
  "exists.": 7888,
  "sion@@": 7889,
  "smo@@": 7890,
  "judgement": 7891,
  "gentlemen.": 7892,
  "aries": 7893,
  "influenced": 7894,
  "switch": 7895,
  "adult": 7896,
  "š@@": 7897,
  "hospital": 7898,
  "39@@": 7899,
  "ability,": 7900,
  "distort": 7901,
  "21@@": 7902,
  "less@@": 7903,
  "behaviour.": 7904,
  "ces.": 7905,
  "ka": 7906,
  "mak@@": 7907,
  "’@@": 7908,
  "investigating": 7909,
  "thinking,": 7910,
  "disarmament": 7911,
  "ne": 7912,
  "supportive": 7913,
  "moscow": 7914,
  "peacekeeping": 7915,
  "do?": 7916,
  "opposition.": 7917,
  "/96": 7918,
  "perpetrated": 7919,
  "tax@@": 7920,
  "innov@@": 7921,
  "occurring": 7922,
  "balancing": 7923,
  "ir": 7924,
  "anything,": 7925,
  "already,": 7926,
  "forgetting": 7927,
  "saudi": 7928,
  "many,": 7929,
  "pit@@": 7930,
  "explore": 7931,
  "evidently": 7932,
  "ses,": 7933,
  "over,": 7934,
  "inter": 7935,
  "impossible.": 7936,
  "full.": 7937,
  "traditionally": 7938,
  "republic.": 7939,
  "boats": 7940,
  "mission.": 7941,
  "hinder": 7942,
  "from,": 7943,
  "ling,": 7944,
  "a’s": 7945,
  "starts": 7946,
  "regain": 7947,
  "accept.": 7948,
  "injured": 7949,
  "approaching": 7950,
  "zz@@": 7951,
  "ity'": 7952,
  "voiced": 7953,
  "70@@": 7954,
  "fair,": 7955,
  "punished": 7956,
  "punish": 7957,
  "hygiene": 7958,
  "ses@@": 7959,
  "exports.": 7960,
  "hen@@": 7961,
  "unambiguous": 7962,
  "considerations.": 7963,
  "happened,": 7964,
  "weekend": 7965,
  "illustrate": 7966,
  "currently,": 7967,
  "reactors": 7968,
  "equ@@": 7969,
  "airspace": 7970,
  "realize": 7971,
  "minimise": 7972,
  "analysed": 7973,
  "reveal": 7974,
  "favours": 7975,
  "arriving": 7976,
  "country’s": 7977,
  "three-@@": 7978,
  "allocating": 7979,
  "reacted": 7980,
  "functional": 7981,
  "reliability": 7982,
  "nic@@": 7983,
  "pe": 7984,
  "estimate": 7985,
  "boundaries": 7986,
  "immigrants.": 7987,
  "trust.": 7988,
  "iii": 7989,
  "deal.": 7990,
  "climate,": 7991,
  "20,": 7992,
  "take,": 7993,
  "efficiently.": 7994,
  "uncontrolled": 7995,
  "proceeding": 7996,
  "background,": 7997,
  "engine": 7998,
  "g.": 7999,
  "la,": 8000,
  "edf": 8001,
  "ages,": 8002,
  "groundwater": 8003,
  "usa.": 8004,
  "planet": 8005,
  "tied": 8006,
  "teams": 8007,
  "ind/dem": 8008,
  "child@@": 8009,
  "sitting,": 8010,
  "?'": 8011,
  "declaration,": 8012,
  "company,": 8013,
  "habit@@": 8014,
  "mechanisms.": 8015,
  "catches": 8016,
  "ved,": 8017,
  "guard": 8018,
  "ay@@": 8019,
  "flexibility.": 8020,
  "decades,": 8021,
  "successful,": 8022,
  "violate": 8023,
  "surface": 8024,
  "minister.": 8025,
  "side@@": 8026,
  "deal@@": 8027,
  "guinea": 8028,
  "intervention,": 8029,
  "worries": 8030,
  "debts": 8031,
  "9.@@": 8032,
  "ana": 8033,
  "method,": 8034,
  "macro-economic": 8035,
  "contaminated": 8036,
  "figures.": 8037,
  "str@@": 8038,
  "75%": 8039,
  "zing": 8040,
  "fle@@": 8041,
  "given.": 8042,
  "follow.": 8043,
  "qui@@": 8044,
  "cited": 8045,
  "option.": 8046,
  "eu-wide": 8047,
  "remember,": 8048,
  "light.": 8049,
  "auditors,": 8050,
  "med.": 8051,
  "overlook": 8052,
  "anim@@": 8053,
  "cting": 8054,
  "populated": 8055,
  "recently.": 8056,
  "stor@@": 8057,
  "organisms": 8058,
  "slight": 8059,
  "eurojust": 8060,
  "weather": 8061,
  "tically": 8062,
  "assert": 8063,
  "adjourned": 8064,
  "42": 8065,
  "currencies": 8066,
  "broad@@": 8067,
  "fields.": 8068,
  "feasibility": 8069,
  "citizen,": 8070,
  "appreciated": 8071,
  "serbia,": 8072,
  "commission@@": 8073,
  "installations": 8074,
  "boosting": 8075,
  "disturbing": 8076,
  "defe@@": 8077,
  "attacked": 8078,
  "seed": 8079,
  "underestimate": 8080,
  "lost.": 8081,
  "ecr": 8082,
  "understand.": 8083,
  "decre@@": 8084,
  "validity": 8085,
  "accord": 8086,
  "bat@@": 8087,
  "confirmation": 8088,
  "ancient": 8089,
  "unequal": 8090,
  "risks,": 8091,
  "arrival": 8092,
  "operators,": 8093,
  "robert": 8094,
  "competitive,": 8095,
  "credits": 8096,
  "with@@": 8097,
  "thing:": 8098,
  "celebrate": 8099,
  "coverage": 8100,
  "cted.": 8101,
  "unequivocal": 8102,
  "copenhagen.": 8103,
  "obligations,": 8104,
  "serious,": 8105,
  "palacio": 8106,
  "been,": 8107,
  "store": 8108,
  "citizenship.": 8109,
  "ideology": 8110,
  "alist": 8111,
  "continu@@": 8112,
  "johannesburg": 8113,
  "harbour": 8114,
  "alism,": 8115,
  "long-standing": 8116,
  "bans": 8117,
  "by-@@": 8118,
  "ski": 8119,
  "sy@@": 8120,
  "pillar,": 8121,
  "proceedings.": 8122,
  "rul@@": 8123,
  "signatures": 8124,
  "putin": 8125,
  "sor@@": 8126,
  "ant.": 8127,
  "swoboda": 8128,
  "d's": 8129,
  "realisation": 8130,
  "sive": 8131,
  "ure": 8132,
  "belarusian": 8133,
  "pol@@": 8134,
  "wrong,": 8135,
  "beautiful": 8136,
  "norway": 8137,
  "bg": 8138,
  "gas,": 8139,
  "sudanese": 8140,
  "non-eu": 8141,
  "ethics": 8142,
  "leaders,": 8143,
  "acp-eu": 8144,
  "1.5": 8145,
  "gor@@": 8146,
  "pointless": 8147,
  "rigid": 8148,
  "enjoys": 8149,
  "preferable": 8150,
  "industries,": 8151,
  "6.@@": 8152,
  "dollar": 8153,
  "bulk": 8154,
  "ised.": 8155,
  "atomic": 8156,
  "mic@@": 8157,
  "-free": 8158,
  "unusual": 8159,
  "operators.": 8160,
  "rightly,": 8161,
  "appeals": 8162,
  "ver": 8163,
  "deser@@": 8164,
  "trials": 8165,
  "on-@@": 8166,
  "civilised": 8167,
  "consumption,": 8168,
  "ig@@": 8169,
  "passengers.": 8170,
  "instru@@": 8171,
  "earliest": 8172,
  "lesser": 8173,
  "coexistence": 8174,
  "neighbours,": 8175,
  "barrier": 8176,
  "rebuild": 8177,
  "diver@@": 8178,
  "embark": 8179,
  "methods,": 8180,
  "abroad.": 8181,
  "treat@@": 8182,
  "salary": 8183,
  "resident": 8184,
  "reaches": 8185,
  "del@@": 8186,
  "weakening": 8187,
  "retained": 8188,
  "review,": 8189,
  "ports.": 8190,
  "ever.": 8191,
  "ic.": 8192,
  "visibility": 8193,
  "organis@@": 8194,
  "ozone": 8195,
  "employees,": 8196,
  "conceal": 8197,
  "roadmap": 8198,
  "us?": 8199,
  "mann,": 8200,
  "civilisation": 8201,
  "increase,": 8202,
  "included,": 8203,
  "redress": 8204,
  "exported": 8205,
  "toys": 8206,
  "street": 8207,
  "limitation": 8208,
  "consensus,": 8209,
  "hatred": 8210,
  "performing": 8211,
  "timing": 8212,
  "permission": 8213,
  "known.": 8214,
  "factors,": 8215,
  "soci@@": 8216,
  "justi@@": 8217,
  "god": 8218,
  "cent@@": 8219,
  "intercultural": 8220,
  "defen@@": 8221,
  "iceland": 8222,
  "arguing": 8223,
  "delegation,": 8224,
  "reac@@": 8225,
  "modern@@": 8226,
  "continue,": 8227,
  "ratio": 8228,
  "dimensions": 8229,
  "aforementioned": 8230,
  "8.@@": 8231,
  "ban.": 8232,
  "equipment.": 8233,
  "wisdom": 8234,
  "motor@@": 8235,
  "displayed": 8236,
  "liable": 8237,
  "com": 8238,
  "catastrophic": 8239,
  "stabilise": 8240,
  "begins": 8241,
  "organisational": 8242,
  "neglect": 8243,
  "histor@@": 8244,
  "jun@@": 8245,
  "there@@": 8246,
  "dramatically": 8247,
  "status,": 8248,
  "y!": 8249,
  "duties.": 8250,
  "fifty": 8251,
  "condemns": 8252,
  "discriminated": 8253,
  "users.": 8254,
  "son": 8255,
  "11.30": 8256,
  "from.": 8257,
  "parameters": 8258,
  "recession": 8259,
  "côte": 8260,
  "exploiting": 8261,
  "diplom@@": 8262,
  "commen@@": 8263,
  "china's": 8264,
  "compliment": 8265,
  "creation,": 8266,
  "please,": 8267,
  "der,": 8268,
  "holders": 8269,
  "desperately": 8270,
  "choosing": 8271,
  "including,": 8272,
  "replied": 8273,
  "poultry": 8274,
  "spo@@": 8275,
  "statutory": 8276,
  "damages": 8277,
  "asylum,": 8278,
  "aris@@": 8279,
  "quoted": 8280,
  "proportionate": 8281,
  "gro@@": 8282,
  "ineffective": 8283,
  "pric@@": 8284,
  "knowledge.": 8285,
  "x,": 8286,
  "up-to-date": 8287,
  "applicants": 8288,
  "expanded": 8289,
  "questioning": 8290,
  "broadband": 8291,
  "innovations": 8292,
  "evaluated": 8293,
  "nation.": 8294,
  "incorporation": 8295,
  "male": 8296,
  "box": 8297,
  "stone": 8298,
  "seen,": 8299,
  "mistake.": 8300,
  "question@@": 8301,
  "ly:": 8302,
  "yugoslavia.": 8303,
  "somehow": 8304,
  "mouth": 8305,
  "stream": 8306,
  "hur@@": 8307,
  "gri@@": 8308,
  "enc@@": 8309,
  "ambassador": 8310,
  "cer@@": 8311,
  "orders": 8312,
  "amnesty": 8313,
  "can.": 8314,
  "corrupt": 8315,
  "alization": 8316,
  "simply,": 8317,
  "cities.": 8318,
  "noti@@": 8319,
  "ahead,": 8320,
  "consumer,": 8321,
  "recovery.": 8322,
  "formul@@": 8323,
  "josé": 8324,
  "once,": 8325,
  "acceptable,": 8326,
  "rigour": 8327,
  "conflicting": 8328,
  "met,": 8329,
  "nowhere": 8330,
  "israel's": 8331,
  "entrusted": 8332,
  "auditors'": 8333,
  "laundering": 8334,
  "peoples,": 8335,
  "quotas.": 8336,
  "preconditions": 8337,
  "mac@@": 8338,
  "adop@@": 8339,
  "barnier": 8340,
  "combining": 8341,
  "call@@": 8342,
  "tunnel": 8343,
  "union@@": 8344,
  "similarly": 8345,
  "dissemination": 8346,
  "outset,": 8347,
  "she@@": 8348,
  "pressure,": 8349,
  "8/@@": 8350,
  "compatibility": 8351,
  "disappear": 8352,
  "pakistan,": 8353,
  "sorry,": 8354,
  "aquaculture": 8355,
  "sovereignty.": 8356,
  "ative,": 8357,
  "eco@@": 8358,
  "dealings": 8359,
  "islands,": 8360,
  "bought": 8361,
  "debt.": 8362,
  "dangerous.": 8363,
  "pricing": 8364,
  "ner,": 8365,
  "synergy": 8366,
  "disposal.": 8367,
  "red@@": 8368,
  "father": 8369,
  "upholding": 8370,
  "ess@@": 8371,
  "90@@": 8372,
  "serious.": 8373,
  "9/@@": 8374,
  "tam@@": 8375,
  "25,": 8376,
  "quest": 8377,
  "11@@": 8378,
  "group@@": 8379,
  "prohibited": 8380,
  "suu": 8381,
  "canary": 8382,
  "south.": 8383,
  "exchanging": 8384,
  "truth.": 8385,
  "lorries": 8386,
  "machinery": 8387,
  "capabilities": 8388,
  "cul@@": 8389,
  "cost@@": 8390,
  "collecting": 8391,
  "it;": 8392,
  "00": 8393,
  "vers": 8394,
  "cuba.": 8395,
  "employ@@": 8396,
  "approached": 8397,
  "single-@@": 8398,
  "fore@@": 8399,
  "add,": 8400,
  "gather": 8401,
  "generalised": 8402,
  "consist": 8403,
  "go,": 8404,
  "domain": 8405,
  "moroccan": 8406,
  "resolutions,": 8407,
  "ency": 8408,
  "delete": 8409,
  "promptly": 8410,
  "european@@": 8411,
  "journalist": 8412,
  "croatia,": 8413,
  "taxes.": 8414,
  "targeting": 8415,
  "breeding": 8416,
  "reciprocal": 8417,
  "week's": 8418,
  "relying": 8419,
  "coup": 8420,
  "sceptical": 8421,
  "warned": 8422,
  "driver": 8423,
  "privileges": 8424,
  "managers": 8425,
  "skilled": 8426,
  "difference.": 8427,
  "e's": 8428,
  "incorrect": 8429,
  "il": 8430,
  "consum@@": 8431,
  "damaged": 8432,
  "imprisoned": 8433,
  "unclear": 8434,
  "women'": 8435,
  "criticism.": 8436,
  "base.": 8437,
  "les,": 8438,
  "kilometres": 8439,
  "south,": 8440,
  "alliance,": 8441,
  "grasp": 8442,
  "sele@@": 8443,
  "hands.": 8444,
  "confidence,": 8445,
  "hope@@": 8446,
  "weapons,": 8447,
  "press.": 8448,
  "2020,": 8449,
  "indonesian": 8450,
  "tho@@": 8451,
  "electric": 8452,
  "farm@@": 8453,
  "46": 8454,
  "hel@@": 8455,
  "approval.": 8456,
  "unilaterally": 8457,
  "top@@": 8458,
  "modernising": 8459,
  "connections": 8460,
  "ou,": 8461,
  "ful.": 8462,
  "minim@@": 8463,
  "small-": 8464,
  "41": 8465,
  "answers.": 8466,
  "headed": 8467,
  "forwarded": 8468,
  "workplace": 8469,
  "eu-russia": 8470,
  "dignity,": 8471,
  "weakened": 8472,
  "selective": 8473,
  "foot-and-mouth": 8474,
  "defence.": 8475,
  "profoundly": 8476,
  "unrealistic": 8477,
  "representatives.": 8478,
  "through,": 8479,
  "ment:": 8480,
  "virtual": 8481,
  "med,": 8482,
  "excellence": 8483,
  "against,": 8484,
  "7/@@": 8485,
  "alzheimer's": 8486,
  "longer.": 8487,
  "disciplinary": 8488,
  "incurred": 8489,
  "comment.": 8490,
  "climate.": 8491,
  "suicide": 8492,
  "employee": 8493,
  "margins": 8494,
  "contracts.": 8495,
  "avoided.": 8496,
  "introduced,": 8497,
  "courts.": 8498,
  "flags": 8499,
  "trialogue": 8500,
  "lobbying": 8501,
  "by@@": 8502,
  "sulphur": 8503,
  "sweden.": 8504,
  "migration.": 8505,
  "disadvantages": 8506,
  "prisons": 8507,
  "method.": 8508,
  "aung": 8509,
  "memorandum": 8510,
  "frank": 8511,
  "absent": 8512,
  "ó@@": 8513,
  "q@@": 8514,
  "destination": 8515,
  "circle": 8516,
  "delegated": 8517,
  "copy": 8518,
  "dreadful": 8519,
  "grips": 8520,
  "nationality": 8521,
  "harassment": 8522,
  "lla": 8523,
  "scourge": 8524,
  "rapporteurs.": 8525,
  "tly": 8526,
  "cap.": 8527,
  "continuously": 8528,
  "contracts,": 8529,
  "mer": 8530,
  "market@@": 8531,
  "nice,": 8532,
  "remembered": 8533,
  "ally-@@": 8534,
  "misuse": 8535,
  "dro@@": 8536,
  "ency.": 8537,
  "tunisian": 8538,
  "allowance": 8539,
  "honestly": 8540,
  "phenomena": 8541,
  "based.": 8542,
  "renew": 8543,
  "exclusion,": 8544,
  "likewise,": 8545,
  "referendum,": 8546,
  "cow": 8547,
  "enforcing": 8548,
  "fairness": 8549,
  "satisfactory.": 8550,
  "islam": 8551,
  "hon@@": 8552,
  "foreseeable": 8553,
  "safe@@": 8554,
  "passport": 8555,
  "legislators": 8556,
  "inf@@": 8557,
  "lat@@": 8558,
  "shocking": 8559,
  "adopts": 8560,
  "unjustified": 8561,
  "ctions": 8562,
  "regrets": 8563,
  "perception": 8564,
  "school@@": 8565,
  "c6-0@@": 8566,
  "sen,": 8567,
  "heritage.": 8568,
  "proportionality": 8569,
  "tuesday": 8570,
  "growers": 8571,
  "statute.": 8572,
  "ly@@": 8573,
  "night,": 8574,
  "free@@": 8575,
  "coordinator": 8576,
  "14,": 8577,
  "automotive": 8578,
  "voice.": 8579,
  "performed": 8580,
  "unreasonable": 8581,
  "detained": 8582,
  "pave": 8583,
  "postponement": 8584,
  "individu@@": 8585,
  "user": 8586,
  "ban,": 8587,
  "mergers": 8588,
  "facilitation": 8589,
  "road.": 8590,
  "lowering": 8591,
  "briefly,": 8592,
  "border.": 8593,
  "today'": 8594,
  "soon,": 8595,
  "younger": 8596,
  "off,": 8597,
  "regulators": 8598,
  "penalty,": 8599,
  "ori@@": 8600,
  "nobel": 8601,
  "foot@@": 8602,
  "immigrant": 8603,
  "principally": 8604,
  "devices": 8605,
  "welfare.": 8606,
  "fr@@": 8607,
  "raised,": 8608,
  "aim,": 8609,
  "time-@@": 8610,
  "herself": 8611,
  "modify": 8612,
  "cam@@": 8613,
  "incineration": 8614,
  "specialised": 8615,
  "such.": 8616,
  "49": 8617,
  "radiation": 8618,
  "her.": 8619,
  "assigned": 8620,
  "corresponds": 8621,
  "ed;": 8622,
  "auspices": 8623,
  "hypocritical": 8624,
  "rio": 8625,
  "neighbour": 8626,
  "summits": 8627,
  "operation,": 8628,
  "tun@@": 8629,
  "disappearance": 8630,
  "timber": 8631,
  "interaction": 8632,
  "cted,": 8633,
  "ion@@": 8634,
  "ü@@": 8635,
  "round,": 8636,
  "exten@@": 8637,
  "schools,": 8638,
  "des,": 8639,
  "interpre@@": 8640,
  "cell": 8641,
  "cite": 8642,
  "basically,": 8643,
  "aw@@": 8644,
  "ignored.": 8645,
  "straightforward": 8646,
  "justifies": 8647,
  "beginning.": 8648,
  "contradictions": 8649,
  "large,": 8650,
  "care@@": 8651,
  "fied": 8652,
  "tac@@": 8653,
  "election.": 8654,
  "ina": 8655,
  "ade@@": 8656,
  "sco@@": 8657,
  "schedule": 8658,
  "cuba,": 8659,
  "wasted": 8660,
  "shocked": 8661,
  "antibiotics": 8662,
  "cars,": 8663,
  "abuse.": 8664,
  "grounds.": 8665,
  "feeding": 8666,
  "everything.": 8667,
  "delaying": 8668,
  "warnings": 8669,
  "39": 8670,
  "citizen@@": 8671,
  "practic@@": 8672,
  "choice,": 8673,
  "word,": 8674,
  "access,": 8675,
  "fathers": 8676,
  "updating": 8677,
  "low.": 8678,
  "zation": 8679,
  "i's": 8680,
  "verify": 8681,
  "temptation": 8682,
  "substance,": 8683,
  "chaired": 8684,
  "65": 8685,
  "third,": 8686,
  "ther@@": 8687,
  "lar@@": 8688,
  "azerbaijan": 8689,
  "ker": 8690,
  "exceeded": 8691,
  "respects,": 8692,
  "two-thirds": 8693,
  "yl@@": 8694,
  "profession": 8695,
  "factors.": 8696,
  "un.": 8697,
  "replies": 8698,
  "crew": 8699,
  "fines": 8700,
  "—": 8701,
  "counterfeit": 8702,
  "cap,": 8703,
  "extraordinarily": 8704,
  "studying": 8705,
  "it:": 8706,
  "stimulus": 8707,
  "student": 8708,
  "conformity": 8709,
  "brave": 8710,
  "inform@@": 8711,
  "study,": 8712,
  "prudent": 8713,
  "nowadays": 8714,
  "balanced,": 8715,
  "frameworks": 8716,
  "inv@@": 8717,
  "supporter": 8718,
  "self-determination": 8719,
  "competitors": 8720,
  "creativity": 8721,
  "backs": 8722,
  "pack@@": 8723,
  "based,": 8724,
  "play@@": 8725,
  "florence": 8726,
  "ga": 8727,
  "re?": 8728,
  "alisation.": 8729,
  "sil@@": 8730,
  "adhered": 8731,
  "last.": 8732,
  "close,": 8733,
  "defenders": 8734,
  "nato,": 8735,
  "lobbyists": 8736,
  "sides,": 8737,
  "calculation": 8738,
  "fragmentation": 8739,
  "influence.": 8740,
  "mission,": 8741,
  "nat@@": 8742,
  "ex-@@": 8743,
  "spirit,": 8744,
  "sacrifice": 8745,
  "accorded": 8746,
  "updated": 8747,
  "david": 8748,
  "beneficiary": 8749,
  "relaunch": 8750,
  "penal": 8751,
  "forest@@": 8752,
  "examples.": 8753,
  "music": 8754,
  "humanity.": 8755,
  "least.": 8756,
  "2011,": 8757,
  "world’s": 8758,
  "ative.": 8759,
  "statistics,": 8760,
  "prosperity,": 8761,
  "pin@@": 8762,
  "road,": 8763,
  "mechanisms,": 8764,
  "blatant": 8765,
  "wo@@": 8766,
  "aspect.": 8767,
  "changed,": 8768,
  "easy.": 8769,
  "loan": 8770,
  "immediately,": 8771,
  "crises.": 8772,
  "‘the": 8773,
  "congratulated": 8774,
  "estonia,": 8775,
  "weakest": 8776,
  "responds": 8777,
  "burma.": 8778,
  "tro@@": 8779,
  "distinct": 8780,
  "y'.": 8781,
  "diesel": 8782,
  "plants,": 8783,
  "fication,": 8784,
  "dalai": 8785,
  "dozens": 8786,
  "ä@@": 8787,
  "exists,": 8788,
  "heat": 8789,
  "cont@@": 8790,
  "frustration": 8791,
  "ham@@": 8792,
  "dark": 8793,
  "dur@@": 8794,
  "port@@": 8795,
  "al:": 8796,
  "potential,": 8797,
  "company.": 8798,
  "votes,": 8799,
  "respon@@": 8800,
  "foreseen": 8801,
  "iting": 8802,
  "eg@@": 8803,
  "unconditional": 8804,
  "virus": 8805,
  "pack": 8806,
  "continental": 8807,
  "sa": 8808,
  "andre@@": 8809,
  "analysis.": 8810,
  "presidents,": 8811,
  "fees": 8812,
  "rati@@": 8813,
  "k-@@": 8814,
  "light,": 8815,
  "cars.": 8816,
  "stopping": 8817,
  "no.": 8818,
  "job@@": 8819,
  "something.": 8820,
  "undemocratic": 8821,
  "expectation": 8822,
  "fri@@": 8823,
  "india.": 8824,
  "transform": 8825,
  "right-wing": 8826,
  "individuals,": 8827,
  "rapporteur’s": 8828,
  "government@@": 8829,
  "democratic.": 8830,
  "policy?": 8831,
  "amounting": 8832,
  "dy@@": 8833,
  "meetings,": 8834,
  "poettering": 8835,
  "fied.": 8836,
  "ele@@": 8837,
  "arrangements.": 8838,
  "servants": 8839,
  "heard.": 8840,
  "fly": 8841,
  "defence,": 8842,
  "gas.": 8843,
  "cro@@": 8844,
  "function.": 8845,
  "michel": 8846,
  "mus@@": 8847,
  "ators.": 8848,
  "basel": 8849,
  "escalation": 8850,
  "lithuanian": 8851,
  "cia": 8852,
  "endorses": 8853,
  "opinions.": 8854,
  "subscribe": 8855,
  "accessibility": 8856,
  "neglected": 8857,
  "path.": 8858,
  "besides,": 8859,
  "varies": 8860,
  "brief.": 8861,
  "high,": 8862,
  "supplying": 8863,
  "tends": 8864,
  "curb": 8865,
  "long@@": 8866,
  "worsening": 8867,
  "2013,": 8868,
  "shortly.": 8869,
  "jam@@": 8870,
  "late,": 8871,
  "images": 8872,
  "concur": 8873,
  "fied,": 8874,
  "asi@@": 8875,
  "had,": 8876,
  "inspiration": 8877,
  "message.": 8878,
  "anything.": 8879,
  "clearly.": 8880,
  "britain,": 8881,
  "administr@@": 8882,
  "ff@@": 8883,
  "conne@@": 8884,
  "insists": 8885,
  "evil": 8886,
  "ious": 8887,
  "posting": 8888,
  "operations,": 8889,
  "although,": 8890,
  "limits.": 8891,
  "ator@@": 8892,
  "netherlands.": 8893,
  "fulfilment": 8894,
  "sof@@": 8895,
  "frame": 8896,
  "exclu@@": 8897,
  "honoured": 8898,
  "friends,": 8899,
  "imposes": 8900,
  "aver@@": 8901,
  "name.": 8902,
  "liberalisation.": 8903,
  "mean,": 8904,
  "traffic.": 8905,
  "imminent": 8906,
  "safe,": 8907,
  "guantánamo": 8908,
  "did.": 8909,
  "duplication": 8910,
  "objectively": 8911,
  "nato.": 8912,
  "ins": 8913,
  "oppression": 8914,
  "offensive": 8915,
  "000.": 8916,
  "cruel": 8917,
  "strategies.": 8918,
  "nothing,": 8919,
  "ses.": 8920,
  "underpin": 8921,
  "temporarily": 8922,
  "100@@": 8923,
  "ise,": 8924,
  "fy": 8925,
  "occurs": 8926,
  "aging": 8927,
  "o's": 8928,
  "wrong@@": 8929,
  "georgia.": 8930,
  "quotas,": 8931,
  "endanger": 8932,
  "auditors.": 8933,
  "cotton": 8934,
  "air.": 8935,
  "resolutely": 8936,
  "always,": 8937,
  "defeat": 8938,
  "elements.": 8939,
  "declaration.": 8940,
  "japan.": 8941,
  "agreed.": 8942,
  "tenth": 8943,
  "full,": 8944,
  "valued": 8945,
  "milestone": 8946,
  "square": 8947,
  "d'@@": 8948,
  "generic": 8949,
  "crimes.": 8950,
  "russians": 8951,
  "here:": 8952,
  "sudden": 8953,
  "style": 8954,
  "formulation": 8955,
  "federalist": 8956,
  "varied": 8957,
  "gathering": 8958,
  "20th": 8959,
  "influx": 8960,
  "sierra": 8961,
  "americ@@": 8962,
  "ced": 8963,
  "slightest": 8964,
  "thessaloniki": 8965,
  "reinforcement": 8966,
  "subscri@@": 8967,
  "materials,": 8968,
  "intent": 8969,
  "join@@": 8970,
  "accidents.": 8971,
  "publishing": 8972,
  "observing": 8973,
  "chain.": 8974,
  "kil@@": 8975,
  "reciprocity": 8976,
  "oil.": 8977,
  "asylum.": 8978,
  "inten@@": 8979,
  "contrast,": 8980,
  "professions": 8981,
  "undertook": 8982,
  "harmonious": 8983,
  "campaign,": 8984,
  "behind.": 8985,
  "manufactured": 8986,
  "incumbent": 8987,
  "goal,": 8988,
  "toll": 8989,
  "impunity": 8990,
  "gesture": 8991,
  "pensions.": 8992,
  "observance": 8993,
  "importing": 8994,
  "ed:": 8995,
  "discussed,": 8996,
  "labels": 8997,
  "ished": 8998,
  "lit@@": 8999,
  "politic@@": 9000,
  "acknowledging": 9001,
  "construct": 9002,
  "one:": 9003,
  "indeed.": 9004,
  "muslims": 9005,
  "let@@": 9006,
  "costa": 9007,
  "tered": 9008,
  "accompl@@": 9009,
  "imply": 9010,
  "completed.": 9011,
  "ched": 9012,
  "application.": 9013,
  "ps,": 9014,
  "invasion": 9015,
  "brazil,": 9016,
  "investigated": 9017,
  "eat": 9018,
  "summar@@": 9019,
  "agreed,": 9020,
  "plea": 9021,
  "withdrawing": 9022,
  "ck": 9023,
  "patience": 9024,
  "scheme,": 9025,
  "prosecutor": 9026,
  "ref@@": 9027,
  "accede": 9028,
  "sive.": 9029,
  "operated": 9030,
  "conflicts,": 9031,
  "colombia": 9032,
  "istic": 9033,
  "bank@@": 9034,
  "crucial,": 9035,
  "poor.": 9036,
  "fashion": 9037,
  "premium": 9038,
  "set-aside": 9039,
  "membership,": 9040,
  "es'.": 9041,
  "ly?": 9042,
  "render": 9043,
  "stabilising": 9044,
  "ours.": 9045,
  "racism,": 9046,
  "inhumane": 9047,
  "recipient": 9048,
  "aggression": 9049,
  "wit@@": 9050,
  "spending.": 9051,
  "ct,": 9052,
  "farming.": 9053,
  "wing": 9054,
  "vested": 9055,
  "track.": 9056,
  "methodology": 9057,
  "aim.": 9058,
  "crow@@": 9059,
  "ombudsman,": 9060,
  "educated": 9061,
  "ini.": 9062,
  "dream@@": 9063,
  "six@@": 9064,
  "shop": 9065,
  "income,": 9066,
  "president@@": 9067,
  "varying": 9068,
  "tering": 9069,
  "ty,": 9070,
  "smuggling": 9071,
  "duty,": 9072,
  "contempt": 9073,
  "ess.": 9074,
  "impact,": 9075,
  "95": 9076,
  "equip": 9077,
  "upheld": 9078,
  "breakdown": 9079,
  "away,": 9080,
  "pornography": 9081,
  "korea,": 9082,
  "thirds": 9083,
  "ces": 9084,
  "comments?": 9085,
  "ced.": 9086,
  "restored": 9087,
  "odds": 9088,
  "tom@@": 9089,
  "unresolved": 9090,
  "chechnya.": 9091,
  "serbs": 9092,
  "individuals.": 9093,
  "improved,": 9094,
  "ombudsman.": 9095,
  "reminder": 9096,
  "correctly.": 9097,
  "sustainability.": 9098,
  "turkey’s": 9099,
  "shorter": 9100,
  "celebrating": 9101,
  "fre@@": 9102,
  "assisted": 9103,
  "ment'": 9104,
  "legality": 9105,
  "teach": 9106,
  "investments,": 9107,
  "definition,": 9108,
  "shot": 9109,
  "resolutions:": 9110,
  "logically": 9111,
  "financing,": 9112,
  "d!": 9113,
  "house@@": 9114,
  "infected": 9115,
  "agency's": 9116,
  "accommodate": 9117,
  "view@@": 9118,
  "headquarters": 9119,
  "biodiversity.": 9120,
  "son.": 9121,
  "termed": 9122,
  "ia's": 9123,
  "–@@": 9124,
  "leap": 9125,
  "instructions": 9126,
  "medina": 9127,
  "produced.": 9128,
  "dness": 9129,
  "simple,": 9130,
  "dividing": 9131,
  "significance.": 9132,
  "copenhagen,": 9133,
  "speakers.": 9134,
  "submission": 9135,
  "18,": 9136,
  "synergies": 9137,
  "reluctant": 9138,
  "jean": 9139,
  "gentlemen": 9140,
  "thought,": 9141,
  "flooding": 9142,
  "banks.": 9143,
  "hesit@@": 9144,
  "vietnam": 9145,
  "planning,": 9146,
  "everyone's": 9147,
  "pay.": 9148,
  "parti@@": 9149,
  "liberalising": 9150,
  "failures": 9151,
  "redistribution": 9152,
  "conclu@@": 9153,
  "complex,": 9154,
  "usual,": 9155,
  "though@@": 9156,
  "coast@@": 9157,
  "au": 9158,
  "frequency": 9159,
  "speculative": 9160,
  "transactions.": 9161,
  "alisation,": 9162,
  "reminding": 9163,
  "cost-@@": 9164,
  "diagnosis": 9165,
  "eu-us": 9166,
  "macedonia,": 9167,
  "officials,": 9168,
  "solar": 9169,
  "herzegovina": 9170,
  "talks.": 9171,
  "access.": 9172,
  "comm@@": 9173,
  "fischler,": 9174,
  "open@@": 9175,
  "accus@@": 9176,
  "spent.": 9177,
  "recommendations,": 9178,
  "ii,": 9179,
  "neoliberal": 9180,
  "blocks": 9181,
  "clause,": 9182,
  "domin@@": 9183,
  "pledge": 9184,
  "religion,": 9185,
  "extremist": 9186,
  "positions,": 9187,
  "phase,": 9188,
  "finger": 9189,
  "impacts": 9190,
  "confidentiality": 9191,
  "endless": 9192,
  "literally": 9193,
  "connection.": 9194,
  "safe.": 9195,
  "grey": 9196,
  "website": 9197,
  "free.": 9198,
  "roman@@": 9199,
  "bomb": 9200,
  "ad,": 9201,
  "much-needed": 9202,
  "forgive": 9203,
  "fies": 9204,
  "equipment,": 9205,
  "ine@@": 9206,
  "disrup@@": 9207,
  "accelerated": 9208,
  "simple.": 9209,
  "parental": 9210,
  "european.": 9211,
  "discrepancies": 9212,
  "future?": 9213,
  "particip@@": 9214,
  "tim@@": 9215,
  "thursday.": 9216,
  "alarm": 9217,
  "destructive": 9218,
  "already.": 9219,
  "precious": 9220,
  "uk.": 9221,
  "ma": 9222,
  "complies": 9223,
  "harmony": 9224,
  "iti@@": 9225,
  "compensation.": 9226,
  "sector@@": 9227,
  "calendar": 9228,
  "ang@@": 9229,
  "safeguarded": 9230,
  "gdp,": 9231,
  "centuries": 9232,
  "insistence": 9233,
  "appropriations.": 9234,
  "building.": 9235,
  "price,": 9236,
  "adults": 9237,
  "2015.": 9238,
  "gs": 9239,
  "harmonisation,": 9240,
  "piracy": 9241,
  "tourists": 9242,
  "ines": 9243,
  "ff": 9244,
  "1992,": 9245,
  "derive": 9246,
  "air,": 9247,
  "fusion": 9248,
  "embryos": 9249,
  "succeed.": 9250,
  "mou@@": 9251,
  "childcare": 9252,
  "trains": 9253,
  "four@@": 9254,
  "zu": 9255,
  "watson": 9256,
  "king,": 9257,
  "ford": 9258,
  "‘no’": 9259,
  "flu@@": 9260,
  "describes": 9261,
  "investments.": 9262,
  "legacy": 9263,
  "differs": 9264,
  "luck": 9265,
  "lebanese": 9266,
  "lic@@": 9267,
  "mol@@": 9268,
  "prioritise": 9269,
  "reached,": 9270,
  "+@@": 9271,
  ",@@": 9272,
  "shock": 9273,
  "persist": 9274,
  "pon@@": 9275,
  "licensing": 9276,
  "sessions": 9277,
  "epp": 9278,
  "ct.": 9279,
  "preventative": 9280,
  "el,": 9281,
  "cli@@": 9282,
  "short@@": 9283,
  "police,": 9284,
  "transpose": 9285,
  "canadian": 9286,
  "ceilings": 9287,
  "freezing": 9288,
  "tightening": 9289,
  "pain": 9290,
  "ities": 9291,
  "ports,": 9292,
  "ball": 9293,
  "expression.": 9294,
  "berg": 9295,
  "touches": 9296,
  "ment;": 9297,
  "monitoring.": 9298,
  "ranging": 9299,
  "views,": 9300,
  "that:": 9301,
  "broaden": 9302,
  "fortunate": 9303,
  "useful,": 9304,
  "commissioners.": 9305,
  "honest,": 9306,
  "fits": 9307,
  "lending": 9308,
  "ambitious,": 9309,
  "theoretical": 9310,
  "les@@": 9311,
  "notified": 9312,
  "rooted": 9313,
  "birds": 9314,
  "changeover": 9315,
  "grow@@": 9316,
  "fulfilled.": 9317,
  "colon@@": 9318,
  "exacerbated": 9319,
  "cambodia": 9320,
  "quarters": 9321,
  "nice.": 9322,
  "governmental": 9323,
  "congestion": 9324,
  "rape": 9325,
  "province": 9326,
  "person,": 9327,
  "donation": 9328,
  "rolling": 9329,
  "sounds": 9330,
  "defined.": 9331,
  "elements,": 9332,
  "plenary,": 9333,
  "territories.": 9334,
  "confirming": 9335,
  "ns": 9336,
  "penalise": 9337,
  "optimum": 9338,
  "prompted": 9339,
  "limited,": 9340,
  "ess": 9341,
  "viol@@": 9342,
  "fish,": 9343,
  "blin@@": 9344,
  "lukashenko": 9345,
  "bran@@": 9346,
  "new.": 9347,
  "stand,": 9348,
  "cost,": 9349,
  "destruction.": 9350,
  "fear,": 9351,
  "rap@@": 9352,
  "les.": 9353,
  "ial": 9354,
  "wondering": 9355,
  "pages": 9356,
  "useful.": 9357,
  "10.": 9358,
  "nabucco": 9359,
  "practise": 9360,
  "abandoning": 9361,
  "originating": 9362,
  "opposite.": 9363,
  "politically,": 9364,
  "speeding": 9365,
  "sustainable,": 9366,
  "prote@@": 9367,
  "authorise": 9368,
  "sing.": 9369,
  "imports.": 9370,
  "/2005": 9371,
  "provided.": 9372,
  "pp@@": 9373,
  "vaccin@@": 9374,
  "species.": 9375,
  "utilisation": 9376,
  "ms,": 9377,
  "provi@@": 9378,
  "ats,": 9379,
  "2/@@": 9380,
  "supplemented": 9381,
  "commission:": 9382,
  "instance.": 9383,
  "associate": 9384,
  "separately": 9385,
  "16,": 9386,
  "factories": 9387,
  "x.": 9388,
  "1991": 9389,
  "1995.": 9390,
  "enemy": 9391,
  "considerations,": 9392,
  "fifthly,": 9393,
  "wines": 9394,
  "reimbursement": 9395,
  "protection@@": 9396,
  "facts,": 9397,
  "corbett": 9398,
  "advoc@@": 9399,
  "increased,": 9400,
  "injustice": 9401,
  "example:": 9402,
  "themes": 9403,
  "fuels.": 9404,
  "border@@": 9405,
  "patri@@": 9406,
  "thinking.": 9407,
  "vital.": 9408,
  "egyptian": 9409,
  "mobilising": 9410,
  "factory": 9411,
  "ists.": 9412,
  "justified,": 9413,
  "depleted": 9414,
  "offic@@": 9415,
  "factor.": 9416,
  "mediation": 9417,
  "are:": 9418,
  "mir@@": 9419,
  "eng@@": 9420,
  "bloody": 9421,
  "ö@@": 9422,
  "questionable": 9423,
  "capability": 9424,
  "syrian": 9425,
  "insul@@": 9426,
  "vicious": 9427,
  "graefe": 9428,
  "sometimes,": 9429,
  "ment?": 9430,
  "doubtless": 9431,
  "change@@": 9432,
  "acy,": 9433,
  "border,": 9434,
  "monday,": 9435,
  "mai@@": 9436,
  "46@@": 9437,
  "17,": 9438,
  "exercise.": 9439,
  "ans@@": 9440,
  "noting": 9441,
  "ish.": 9442,
  "jarzembowski": 9443,
  "fishermen,": 9444,
  "labelling,": 9445,
  "deficit.": 9446,
  "crimes,": 9447,
  "gathered": 9448,
  "yugoslavia,": 9449,
  "gmo": 9450,
  "bureaucracy,": 9451,
  "fields,": 9452,
  "debt,": 9453,
  "independent,": 9454,
  "its.": 9455,
  "of@@": 9456,
  "forum,": 9457,
  "intensi@@": 9458,
  "politician": 9459,
  "de-@@": 9460,
  "moments": 9461,
  "unwilling": 9462,
  "indicator": 9463,
  "executions": 9464,
  "ator.": 9465,
  "canada,": 9466,
  "inclined": 9467,
  "impressed": 9468,
  "ency,": 9469,
  "hum@@": 9470,
  "tantamount": 9471,
  "disappeared": 9472,
  "fatal": 9473,
  "publicity": 9474,
  "easy,": 9475,
  "russi@@": 9476,
  "worth@@": 9477,
  "genital": 9478,
  "tele@@": 9479,
  "preceded": 9480,
  "patients'": 9481,
  "misunderstanding": 9482,
  "retaining": 9483,
  "accept,": 9484,
  "sts": 9485,
  "croatian": 9486,
  "oblige": 9487,
  "verheugen,": 9488,
  "named": 9489,
  "offen@@": 9490,
  "undergoing": 9491,
  "liberalise": 9492,
  "heating": 9493,
  "appearance": 9494,
  "ctions,": 9495,
  "levy": 9496,
  "undesirable": 9497,
  "arm@@": 9498,
  "ash": 9499,
  "decisively": 9500,
  "qualify": 9501,
  "ries": 9502,
  "packages": 9503,
  "clause.": 9504,
  "unknown": 9505,
  "biometric": 9506,
  "medicines,": 9507,
  "countryside": 9508,
  "outlook": 9509,
  "harmonisation.": 9510,
  "forward-looking": 9511,
  "hesitate": 9512,
  "conform": 9513,
  "perspectives.": 9514,
  "draw@@": 9515,
  "2.5": 9516,
  "nationalist": 9517,
  "imprisonment": 9518,
  "effectiveness.": 9519,
  "labelling.": 9520,
  "scepticism": 9521,
  "consultation,": 9522,
  "project@@": 9523,
  "latvia,": 9524,
  "sick": 9525,
  "honesty": 9526,
  "threat,": 9527,
  "ities,": 9528,
  "deadlock": 9529,
  "freeze": 9530,
  "characteristic": 9531,
  "tic,": 9532,
  "novel": 9533,
  "inconsistent": 9534,
  "remo@@": 9535,
  "mortality": 9536,
  "cardiff": 9537,
  "ctive": 9538,
  "ned.": 9539,
  "etc.,": 9540,
  "deepen": 9541,
  "nationalism": 9542,
  "partner,": 9543,
  "possession": 9544,
  "bak@@": 9545,
  "roun@@": 9546,
  "pic@@": 9547,
  "rice": 9548,
  "ours,": 9549,
  "very,": 9550,
  "understanding.": 9551,
  "georgian": 9552,
  "alistic": 9553,
  "week@@": 9554,
  "given,": 9555,
  "biomass": 9556,
  "anti-discrimination": 9557,
  "ars": 9558,
  "rethink": 9559,
  "session,": 9560,
  "develop.": 9561,
  "endeavouring": 9562,
  "notwithstanding": 9563,
  "exception.": 9564,
  "studies,": 9565,
  "an-@@": 9566,
  "confuse": 9567,
  "staying": 9568,
  "gsp": 9569,
  "criticising": 9570,
  "london,": 9571,
  "liikanen": 9572,
  "optimism": 9573,
  "well@@": 9574,
  "ken@@": 9575,
  "pakistan.": 9576,
  "cohesive": 9577,
  "zone,": 9578,
  "persecuted": 9579,
  "yed": 9580,
  "est,": 9581,
  "developed,": 9582,
  "door@@": 9583,
  "february.": 9584,
  "korea.": 9585,
  "dly,": 9586,
  "half-@@": 9587,
  "pil@@": 9588,
  "ath@@": 9589,
  "collectively": 9590,
  "51": 9591,
  "bir@@": 9592,
  "um.": 9593,
  "voting,": 9594,
  "breakthrough": 9595,
  "working,": 9596,
  "criticism,": 9597,
  "consultative": 9598,
  "facilities.": 9599,
  "encounter": 9600,
  "trial.": 9601,
  "something,": 9602,
  "ms.": 9603,
  "native": 9604,
  "summer.": 9605,
  "ths": 9606,
  "loading": 9607,
  "tak@@": 9608,
  "extremists": 9609,
  "acts,": 9610,
  "you:": 9611,
  "que@@": 9612,
  "finances.": 9613,
  "best.": 9614,
  "ine,": 9615,
  "lor@@": 9616,
  "whatsoever.": 9617,
  "decentr@@": 9618,
  "reconciling": 9619,
  "ordered": 9620,
  "conceived": 9621,
  "altogether": 9622,
  "ask,": 9623,
  "tic.": 9624,
  "tions:": 9625,
  "house's": 9626,
  "/2004": 9627,
  "lanka": 9628,
  "closest": 9629,
  "users,": 9630,
  "phased": 9631,
  "climatic": 9632,
  "summer,": 9633,
  "clearing": 9634,
  "gbp": 9635,
  "legislator": 9636,
  "cities,": 9637,
  "sam@@": 9638,
  "steady": 9639,
  "bow@@": 9640,
  "unequivocally": 9641,
  "bad@@": 9642,
  "sanction": 9643,
  "attacking": 9644,
  "engineering": 9645,
  "tougher": 9646,
  "glass": 9647,
  "aring": 9648,
  "whoever": 9649,
  "disgraceful": 9650,
  "arrests": 9651,
  "ko": 9652,
  "strain": 9653,
  "specifications": 9654,
  "obvious.": 9655,
  "petitions,": 9656,
  "intensity": 9657,
  "competence,": 9658,
  "cologne": 9659,
  "republic@@": 9660,
  "rebuilding": 9661,
  "controversy": 9662,
  "introductory": 9663,
  "science,": 9664,
  "refunds": 9665,
  "52": 9666,
  "coach": 9667,
  "reduced,": 9668,
  "atory": 9669,
  "hy@@": 9670,
  "buildings,": 9671,
  "trac@@": 9672,
  "observatory": 9673,
  "brain": 9674,
  "hed.": 9675,
  "cultural,": 9676,
  "ay": 9677,
  "gladly": 9678,
  "85": 9679,
  "neo-@@": 9680,
  "tics,": 9681,
  "recommending": 9682,
  "verdict": 9683,
  "zimbabwe.": 9684,
  "prison.": 9685,
  "persuaded": 9686,
  "found,": 9687,
  "islam@@": 9688,
  "torture,": 9689,
  "arm": 9690,
  "enthusiastic": 9691,
  "deal,": 9692,
  "being.": 9693,
  "vely.": 9694,
  "intermediate": 9695,
  "learning,": 9696,
  "tuberculosis": 9697,
  "specific,": 9698,
  "dignified": 9699,
  "consultation.": 9700,
  "ances": 9701,
  "farming,": 9702,
  "window": 9703,
  "1/@@": 9704,
  "tragedy.": 9705,
  "secular": 9706,
  "overly": 9707,
  "catholic": 9708,
  "product@@": 9709,
  "event.": 9710,
  "resettlement": 9711,
  "destined": 9712,
  "abused": 9713,
  "remain,": 9714,
  "experiments": 9715,
  "factual": 9716,
  "optional": 9717,
  "documentation": 9718,
  "widening": 9719,
  "our@@": 9720,
  "disadvant@@": 9721,
  "cleaner": 9722,
  "entity": 9723,
  "floor,": 9724,
  "remarks,": 9725,
  "classes": 9726,
  "equity": 9727,
  "certainty.": 9728,
  "er'": 9729,
  "centres,": 9730,
  "conferred": 9731,
  "property.": 9732,
  "supported,": 9733,
  "poor,": 9734,
  "ratifying": 9735,
  "local,": 9736,
  "cns": 9737,
  "common,": 9738,
  "europe:": 9739,
  "differences.": 9740,
  "ver.": 9741,
  "insight": 9742,
  "ful@@": 9743,
  "racial": 9744,
  "tragedies": 9745,
  "cru@@": 9746,
  "ever-@@": 9747,
  "entrepreneurship": 9748,
  "regrettably": 9749,
  "individually": 9750,
  "comment,": 9751,
  "resolute": 9752,
  "ations:": 9753,
  "politicians.": 9754,
  "ations?": 9755,
  "traffic,": 9756,
  "attacks.": 9757,
  "pat@@": 9758,
  "illicit": 9759,
  ",000": 9760,
  "best,": 9761,
  "re:": 9762,
  "ma,": 9763,
  "cycl@@": 9764,
  "statute,": 9765,
  "bank's": 9766,
  "only,": 9767,
  "rests": 9768,
  "landfill": 9769,
  "scene": 9770,
  "removed.": 9771,
  "age@@": 9772,
  "passage": 9773,
  "alive": 9774,
  "u,": 9775,
  "holiday": 9776,
  "constructively": 9777,
  "capit@@": 9778,
  "lawyer": 9779,
  "arise.": 9780,
  "exceeds": 9781,
  "stat@@": 9782,
  "identity,": 9783,
  "contradict": 9784,
  "stress,": 9785,
  "pledged": 9786,
  "deprive": 9787,
  "here?": 9788,
  "chaos": 9789,
  "stake,": 9790,
  "ants.": 9791,
  "ard@@": 9792,
  "unaware": 9793,
  "negotiators": 9794,
  "stocks,": 9795,
  "ee@@": 9796,
  "che": 9797,
  "ñ@@": 9798,
  "sunday": 9799,
  "kill@@": 9800,
  "responsibly": 9801,
  "steps.": 9802,
  "seeds": 9803,
  "discretion": 9804,
  "municipal": 9805,
  "inviting": 9806,
  "passengers,": 9807,
  "lun@@": 9808,
  "progressively": 9809,
  "know-how": 9810,
  "embrace": 9811,
  "correction": 9812,
  "ator,": 9813,
  "atrocities": 9814,
  "steering": 9815,
  "particularly,": 9816,
  "farmer": 9817,
  "informed.": 9818,
  "som@@": 9819,
  "constru@@": 9820,
  "democrats.": 9821,
  "guarantees.": 9822,
  "chad": 9823,
  "occasion.": 9824,
  "quartet": 9825,
  "parliament:": 9826,
  "alternatives.": 9827,
  "sy": 9828,
  "participation.": 9829,
  "ict": 9830,
  "ship.": 9831,
  "develop@@": 9832,
  "aids,": 9833,
  "ding.": 9834,
  "automobile": 9835,
  "ski,": 9836,
  "also.": 9837,
  "fitting": 9838,
  "designation": 9839,
  "drastically": 9840,
  "stric@@": 9841,
  "upcoming": 9842,
  "embryonic": 9843,
  "arose": 9844,
  "counterparts": 9845,
  "europol,": 9846,
  "dropped": 9847,
  "hostage": 9848,
  "active,": 9849,
  "coordin@@": 9850,
  "labelled": 9851,
  "building,": 9852,
  "part-session,": 9853,
  "percent": 9854,
  "fan@@": 9855,
  "me:": 9856,
  "unions,": 9857,
  "decided,": 9858,
  "train@@": 9859,
  "most.": 9860,
  "predict": 9861,
  "illustrated": 9862,
  "students,": 9863,
  "bali": 9864,
  "illness": 9865,
  "ton": 9866,
  "one-sided": 9867,
  "schemes.": 9868,
  "assu@@": 9869,
  "subsidised": 9870,
  "dynamism": 9871,
  "ballot": 9872,
  "belgrade": 9873,
  "acceding": 9874,
  "plight": 9875,
  "make,": 9876,
  "sla@@": 9877,
  "trips": 9878,
  "england": 9879,
  "jewish": 9880,
  "unreservedly": 9881,
  "bombing": 9882,
  "charter,": 9883,
  "winner": 9884,
  "contemporary": 9885,
  "short-@@": 9886,
  "charter.": 9887,
  "waters,": 9888,
  "two.": 9889,
  "societies,": 9890,
  "tex@@": 9891,
  "vaccines": 9892,
  "posi@@": 9893,
  "chocolate": 9894,
  "meal": 9895,
  "supervision.": 9896,
  "feel,": 9897,
  "\"the": 9898,
  "47": 9899,
  "gain@@": 9900,
  "egypt,": 9901,
  "km": 9902,
  "heritage,": 9903,
  "live.": 9904,
  "failed.": 9905,
  "closely,": 9906,
  "dered": 9907,
  "arrangements,": 9908,
  "chechen": 9909,
  "ically,": 9910,
  "envisages": 9911,
  "15.": 9912,
  "communautaire": 9913,
  "!'": 9914,
  "pres@@": 9915,
  "compensatory": 9916,
  "thanks,": 9917,
  "letting": 9918,
  "refle@@": 9919,
  "exerted": 9920,
  "legitim@@": 9921,
  "def@@": 9922,
  "pregnant": 9923,
  "prerogatives": 9924,
  "violates": 9925,
  "agree@@": 9926,
  "inspire": 9927,
  "que": 9928,
  "restraint": 9929,
  "opt-out": 9930,
  "kal@@": 9931,
  "incidence": 9932,
  "ries,": 9933,
  "convicted": 9934,
  "two,": 9935,
  "quote,": 9936,
  "mel@@": 9937,
  "importantly": 9938,
  "facilit@@": 9939,
  "household": 9940,
  "afric@@": 9941,
  "hot": 9942,
  "rejected,": 9943,
  "expressions": 9944,
  "engines": 9945,
  "absorption": 9946,
  "state's": 9947,
  "pro-european": 9948,
  "undergo": 9949,
  "atively": 9950,
  "5.30": 9951,
  "one-minute": 9952,
  "impossible,": 9953,
  "nor@@": 9954,
  "heartfelt": 9955,
  "offset": 9956,
  "rob@@": 9957,
  "alised,": 9958,
  "meps.": 9959,
  "states:": 9960,
  "wealthy": 9961,
  "e!": 9962,
  "metres": 9963,
  "sli@@": 9964,
  "her,": 9965,
  "anti-dumping": 9966,
  "regret,": 9967,
  "tor": 9968,
  "ked,": 9969,
  "sions,": 9970,
  "rectify": 9971,
  "journalists,": 9972,
  "jeopardising": 9973,
  "union:": 9974,
  "grass-roots": 9975,
  "modifications": 9976,
  "tender": 9977,
  "friend@@": 9978,
  "decoupling": 9979,
  "essence,": 9980,
  "roads.": 9981,
  "vit@@": 9982,
  "may@@": 9983,
  "king@@": 9984,
  "schemes,": 9985,
  "serbia.": 9986,
  "reg@@": 9987,
  "neutrality": 9988,
  "where@@": 9989,
  "economics": 9990,
  "separ@@": 9991,
  "synthetic": 9992,
  "living.": 9993,
  "kofi": 9994,
  "ensure,": 9995,
  "grassroots": 9996,
  "gy@@": 9997,
  "resolved,": 9998,
  "hospitals": 9999,
  "revenues": 10000,
  "court's": 10001,
  "ascertain": 10002,
  "agreement@@": 10003,
  "gran@@": 10004,
  "ps.": 10005,
  "follows.": 10006,
  "discharge,": 10007,
  "clear@@": 10008,
  "exhaustive": 10009,
  "ppe@@": 10010,
  "indi@@": 10011,
  "average,": 10012,
  "advertising.": 10013,
  "accounts.": 10014,
  "thought.": 10015,
  "a4-00@@": 10016,
  "burning": 10017,
  "hard-@@": 10018,
  "purcha@@": 10019,
  "drought": 10020,
  "martin@@": 10021,
  "welfare,": 10022,
  "solu@@": 10023,
  "composed": 10024,
  "trust,": 10025,
  "liberalised": 10026,
  "member's": 10027,
  "presented.": 10028,
  "ation's": 10029,
  "french,": 10030,
  "therapeutic": 10031,
  "cle@@": 10032,
  "ence.": 10033,
  "communism": 10034,
  "prepared,": 10035,
  "now?": 10036,
  "referral": 10037,
  "contributions,": 10038,
  "preferably": 10039,
  "annually": 10040,
  "tempted": 10041,
  "chairmen": 10042,
  "supplies.": 10043,
  "19,": 10044,
  "accidents,": 10045,
  "interpretations": 10046,
  "deci@@": 10047,
  "club": 10048,
  "endorsement": 10049,
  "barbaric": 10050,
  "nar@@": 10051,
  "left-wing": 10052,
  "postponing": 10053,
  "suffers": 10054,
  "accompany": 10055,
  "dé@@": 10056,
  "pretend": 10057,
  "rush": 10058,
  "pa": 10059,
  "villages": 10060,
  "good@@": 10061,
  "reads": 10062,
  "ever-increasing": 10063,
  "effects,": 10064,
  "share.": 10065,
  "communit@@": 10066,
  "complicated.": 10067,
  "works,": 10068,
  "ction@@": 10069,
  "arri@@": 10070,
  "fail@@": 10071,
  "ining": 10072,
  "possess": 10073,
  "accurately": 10074,
  "airports.": 10075,
  "health@@": 10076,
  "à": 10077,
  "conducive": 10078,
  "specialists": 10079,
  "disposal,": 10080,
  "upon.": 10081,
  "occupy": 10082,
  "se:": 10083,
  "awarding": 10084,
  "unlawful": 10085,
  "accessing": 10086,
  "wh@@": 10087,
  "addiction": 10088,
  "balances": 10089,
  "leadership.": 10090,
  "condition@@": 10091,
  "participation,": 10092,
  "ls,": 10093,
  "sahara": 10094,
  "com2001": 10095,
  "stop@@": 10096,
  "wish.": 10097,
  "visitors": 10098,
  "din@@": 10099,
  "referenda": 10100,
  "scientifically": 10101,
  "differentiated": 10102,
  "myself.": 10103,
  "ctions.": 10104,
  "odd": 10105,
  "self-regulation": 10106,
  "ents,": 10107,
  "preserved": 10108,
  "lessly": 10109,
  "phenomenon.": 10110,
  "assistants": 10111,
  "sions.": 10112,
  "target.": 10113,
  "dollars": 10114,
  "va": 10115,
  "ignores": 10116,
  "motivation": 10117,
  "resignation": 10118,
  "winning": 10119,
  "broadcast": 10120,
  "differences,": 10121,
  "play,": 10122,
  "1989": 10123,
  "architecture": 10124,
  "allegedly": 10125,
  "recast": 10126,
  "requirement.": 10127,
  "high-speed": 10128,
  "ambitious.": 10129,
  "morocco,": 10130,
  "fying": 10131,
  "ra,": 10132,
  "exciting": 10133,
  "usefulness": 10134,
  "ticket": 10135,
  "salmon": 10136,
  "-,": 10137,
  "entirety.": 10138,
  "z.": 10139,
  "arrange": 10140,
  "operate.": 10141,
  "distribute": 10142,
  "restrictions.": 10143,
  "tiny": 10144,
  "little,": 10145,
  "ders": 10146,
  "certificates": 10147,
  "wan@@": 10148,
  "recommendation,": 10149,
  "pensions,": 10150,
  "cast@@": 10151,
  "böge": 10152,
  "outlines": 10153,
  "address.": 10154,
  "meantime": 10155,
  "opinions,": 10156,
  "grounds,": 10157,
  "22@@": 10158,
  "expected.": 10159,
  "tors,": 10160,
  "flo@@": 10161,
  "ch-@@": 10162,
  "occur.": 10163,
  "secrecy": 10164,
  "religion.": 10165,
  "sustain@@": 10166,
  "moreover": 10167,
  "cause.": 10168,
  "owned": 10169,
  "ces@@": 10170,
  "bio-@@": 10171,
  "tel@@": 10172,
  "us:": 10173,
  "friend,": 10174,
  "leave.": 10175,
  "name,": 10176,
  "move.": 10177,
  "ngos.": 10178,
  "cup": 10179,
  "fashion.": 10180,
  "sec@@": 10181,
  "backwards": 10182,
  "interpreters": 10183,
  "recommendation.": 10184,
  "making,": 10185,
  "triggered": 10186,
  "clean@@": 10187,
  "hugely": 10188,
  "ans'": 10189,
  "worrying.": 10190,
  "des.": 10191,
  "thresholds": 10192,
  "communicated": 10193,
  "on?": 10194,
  "settlements": 10195,
  "policy@@": 10196,
  "wednesday,": 10197,
  "prisoners,": 10198,
  "minority.": 10199,
  "fulfils": 10200,
  "safely": 10201,
  "exception,": 10202,
  "opportun@@": 10203,
  "points:": 10204,
  "hectares": 10205,
  "advance.": 10206,
  "350": 10207,
  "returns": 10208,
  "desirable.": 10209,
  "planet.": 10210,
  "tly.": 10211,
  "ably,": 10212,
  "drin@@": 10213,
  "force@@": 10214,
  "lim@@": 10215,
  "wallström": 10216,
  "considered,": 10217,
  "tropical": 10218,
  "ck,": 10219,
  "2000@@": 10220,
  "answering": 10221,
  "dictator": 10222,
  "staffing": 10223,
  "conventions.": 10224,
  "posselt,": 10225,
  "occasionally": 10226,
  "fraudulent": 10227,
  "leonardo": 10228,
  "termin@@": 10229,
  "custom@@": 10230,
  "hostile": 10231,
  "anyway,": 10232,
  "deterior@@": 10233,
  "seized": 10234,
  "conf@@": 10235,
  "j": 10236,
  "stamp": 10237,
  "ants,": 10238,
  "embarked": 10239,
  "ii.": 10240,
  "transmitted": 10241,
  "vessels,": 10242,
  "unnecessarily": 10243,
  "provided,": 10244,
  "fundamentalism": 10245,
  "suit": 10246,
  "fal@@": 10247,
  "catalyst": 10248,
  "catastrophe": 10249,
  "nee@@": 10250,
  "doubt.": 10251,
  "presidents.": 10252,
  "ces,": 10253,
  "argu@@": 10254,
  "finalised": 10255,
  "questioned": 10256,
  "seal": 10257,
  "eurodac": 10258,
  "confusing": 10259,
  "centre,": 10260,
  "execu@@": 10261,
  "petrol": 10262,
  "cod.": 10263,
  "sacrificed": 10264,
  "forty": 10265,
  "exceeding": 10266,
  "tonight.": 10267,
  "tric@@": 10268,
  "it!": 10269,
  "enjoying": 10270,
  "wall@@": 10271,
  "twenty-first": 10272,
  "europe;": 10273,
  "profits.": 10274,
  "presumably": 10275,
  "cancún": 10276,
  "ly;": 10277,
  "associations,": 10278,
  "turnover": 10279,
  "ground@@": 10280,
  "unstable": 10281,
  "scrutiny.": 10282,
  "earned": 10283,
  "est.": 10284,
  "'i": 10285,
  "ner@@": 10286,
  "shifting": 10287,
  "alike.": 10288,
  "dictate": 10289,
  "lamy": 10290,
  "inciner@@": 10291,
  "bru@@": 10292,
  "haz@@": 10293,
  "chechnya,": 10294,
  "ankara": 10295,
  "/00@@": 10296,
  "intentions,": 10297,
  "next.": 10298,
  "solved.": 10299,
  "advisable": 10300,
  "presently": 10301,
  "believing": 10302,
  "ence,": 10303,
  "exacerbate": 10304,
  "12.": 10305,
  "tailored": 10306,
  "vessels.": 10307,
  "disabilities.": 10308,
  "delors": 10309,
  "states;": 10310,
  "kurds": 10311,
  "ty.": 10312,
  "appealing": 10313,
  "coinci@@": 10314,
  "chance.": 10315,
  "vegetables": 10316,
  "elite": 10317,
  "ligh@@": 10318,
  "guide@@": 10319,
  "reinforces": 10320,
  "experts.": 10321,
  "emphasized": 10322,
  "comprising": 10323,
  "reaffirmed": 10324,
  "wrongly": 10325,
  "non": 10326,
  "specific@@": 10327,
  "decision-making.": 10328,
  "violating": 10329,
  "analy@@": 10330,
  "crises,": 10331,
  "sport@@": 10332,
  "fortress": 10333,
  "mr.": 10334,
  "devised": 10335,
  "eliminated": 10336,
  "emerges": 10337,
  "att@@": 10338,
  "distorted": 10339,
  "tripartite": 10340,
  "member@@": 10341,
  "key@@": 10342,
  "secur@@": 10343,
  "bathing": 10344,
  "ons.": 10345,
  "mep,": 10346,
  "clinical": 10347,
  "stuck": 10348,
  "mit@@": 10349,
  "intimidation": 10350,
  "evidence,": 10351,
  "attendance": 10352,
  "transport@@": 10353,
  "balanced.": 10354,
  "obama": 10355,
  "existence.": 10356,
  "headings": 10357,
  "intolerance": 10358,
  "roll": 10359,
  "systemic": 10360,
  "sovereignty,": 10361,
  "pay,": 10362,
  "aller@@": 10363,
  "centre.": 10364,
  "ie": 10365,
  "vice": 10366,
  "undertakings.": 10367,
  "adjusted": 10368,
  "posselt": 10369,
  "emo@@": 10370,
  "held,": 10371,
  "bitter": 10372,
  "allotted": 10373,
  "coupled": 10374,
  "cancellation": 10375,
  "man's": 10376,
  "commodity": 10377,
  "ving,": 10378,
  "relocations": 10379,
  "ne,": 10380,
  "lifted": 10381,
  "lively": 10382,
  "challenged": 10383,
  "05": 10384,
  "impartial": 10385,
  "elect": 10386,
  "ar.": 10387,
  "enlarge@@": 10388,
  "buses": 10389,
  "manag@@": 10390,
  "son@@": 10391,
  "accounted": 10392,
  "confidential": 10393,
  "improvements.": 10394,
  "reward": 10395,
  "jerusalem": 10396,
  "pass@@": 10397,
  "winter": 10398,
  "nuts": 10399,
  "-up": 10400,
  "outset.": 10401,
  "some,": 10402,
  "globally": 10403,
  "austria.": 10404,
  "cat@@": 10405,
  "intern@@": 10406,
  "awful": 10407,
  "alities": 10408,
  "13.": 10409,
  "everywhere.": 10410,
  "churches": 10411,
  "identi@@": 10412,
  "albanians": 10413,
  "flexible,": 10414,
  "cry": 10415,
  "radic@@": 10416,
  "quo": 10417,
  "elderly,": 10418,
  "frag@@": 10419,
  "acy": 10420,
  "lou@@": 10421,
  "eli@@": 10422,
  "revolutionary": 10423,
  "mode": 10424,
  "scar@@": 10425,
  "president-in-office.": 10426,
  "s\"": 10427,
  "confrontation": 10428,
  "films": 10429,
  "reopen": 10430,
  "expectancy": 10431,
  "try,": 10432,
  "referred.": 10433,
  "qual@@": 10434,
  "incoming": 10435,
  "terrorists.": 10436,
  "tradition,": 10437,
  "suffering.": 10438,
  "victim@@": 10439,
  "alpine": 10440,
  "intervening": 10441,
  "ecsc": 10442,
  "abuse,": 10443,
  "environmental,": 10444,
  "relationship.": 10445,
  "consider,": 10446,
  "chile": 10447,
  "sittings": 10448,
  "signed.": 10449,
  "noon": 10450,
  "transl@@": 10451,
  "commissioned": 10452,
  "cing": 10453,
  "texts,": 10454,
  "thin@@": 10455,
  "you@@": 10456,
  "unlimited": 10457,
  "does.": 10458,
  "credit@@": 10459,
  "liberalis@@": 10460,
  "pollu@@": 10461,
  "premiums": 10462,
  "control@@": 10463,
  "altered": 10464,
  "friendship": 10465,
  "attributed": 10466,
  "insufficient.": 10467,
  "fish.": 10468,
  "case-by-case": 10469,
  "ching": 10470,
  "generates": 10471,
  "consider@@": 10472,
  "stands,": 10473,
  "duties,": 10474,
  "194@@": 10475,
  "milli@@": 10476,
  "proportion@@": 10477,
  "nets": 10478,
  "species,": 10479,
  "filled": 10480,
  "vely": 10481,
  "finance,": 10482,
  "learning.": 10483,
  "bulgaria.": 10484,
  "officials.": 10485,
  "universally": 10486,
  "outs": 10487,
  "schulz,": 10488,
[...]
